▁, 639649
▁. 373091
▁the 356971
▁a 239695
▁to 193074
▁of 181560
▁and 154187
▁in 114141
▁v 88932
▁that 86064
▁is 76855
▁se 71708
▁že 62872
▁na 62062
▁I 61795
▁for 61078
▁je 52375
▁on 50414
▁this 46043
▁by 44118
▁we 44049
▁- 42309
▁o 42271
▁be 40976
s 40573
▁pro 38859
; 38141
▁& 38140
ing 37232
▁are 36422
ed 36142
▁European 35981
▁s 34873
▁have 34539
▁as 33104
▁it 32401
▁with 31929
y 31708
▁) 31502
▁( 31160
▁not 31059
▁k 29640
apos 29145
- 29091
▁which 28280
▁EU 27699
í 26866
▁z 26661
▁will 26435
u 25627
▁do 24869
ní 23939
▁aby 22297
▁The 21997
ů 20608
▁has 20491
▁které 20433
ně 20242
ě 19417
it 19253
ce 19200
ou 19131
né 18931
é 18076
▁an 17577
▁also 17465
ly 17396
▁Mr 16713
▁would 16696
á 16686
▁President 16668
▁ve 16577
▁Commission 16163
▁za 16100
▁at 16049
es 15848
▁all 15808
ation 15203
▁from 15120
em 14510
▁our 14392
▁should 14176
ovat 14172
▁: 14144
▁must 14140
▁We 14021
▁jsou 13701
▁but 13573
▁Union 13517
▁i 13381
▁Member 13336
ch 12989
▁Parliament 12832
▁States 12192
ý 12158
▁jako 12158
▁jsem 12124
▁been 12059
al 12043
▁této 11980
▁V 11939
▁ale 11917
ování 11877
▁předsedající 11798
▁být 11643
▁bych 11613
▁you 11546
▁their 11483
▁more 11285
▁bude 11066
▁Evropské 11034
▁like 11020
▁Komise 10915
▁its 10845
▁jak 10840
▁can 10753
▁která 10650
▁také 10633
▁report 10601
uje 10585
▁od 10510
▁Europe 10481
▁It 10368
▁very 10281
ky 10128
▁si 10125
▁or 10061
▁jsme 10055
▁tak 10001
h 9928
▁was 9888
▁need 9844
ení 9840
ních 9768
▁In 9721
▁který 9715
▁unie 9662
▁these 9612
ých 9580
▁co 9563
ic 9445
▁my 9409
ity 9342
nou 9321
▁there 9281
ním 9259
▁important 9197
▁Pane 9161
ci 9128
▁musí 8965
▁countries 8903
▁us 8860
m 8755
quot 8722
▁Council 8693
ná 8623
▁they 8620
▁new 8585
ání 8428
il 8426
▁so 8409
ím 8324
ný 8297
▁one 8228
▁; 8218
▁who 8197
ž 8180
at 8130
▁This 8057
ku 8046
ým 8032
ate 8028
▁people 7953
▁velmi 7884
▁about 7871
▁oblasti 7792
▁because 7759
ého 7755
▁support 7731
▁other 7686
ují 7551
ers 7481
ných 7463
ům 7448
č 7428
ř 7383
ního 7378
ho 7333
▁policy 7289
▁economic 7275
▁up 7232
l 7230
▁před 7202
li 7178
▁time 7128
la 7123
▁po 7095
ové 7029
š 7027
▁bylo 7019
▁mezi 7000
▁out 6984
▁what 6958
▁only 6905
▁rights 6904
ila 6899
▁% 6894
▁Je 6882
▁protože 6878
▁am 6876
mi 6862
▁státy 6845
ské 6761
nost 6739
c 6663
▁proti 6631
▁opatření 6626
in 6581
▁nebo 6443
▁h 6416
ion 6388
▁jejich 6310
et 6299
▁such 6272
▁však 6257
ší 6217
▁between 6195
ného 6185
▁vy 6151
ili 6138
▁při 6129
ka 6113
d 6075
v 6021
▁work 6004
▁into 5985
▁d 5974
▁práv 5972
▁if 5959
ations 5924
▁ne 5909
▁již 5907
▁A 5843
a 5839
▁S 5837
le 5826
▁crisis 5809
▁toho 5808
ám 5771
▁make 5751
ém 5750
n 5747
▁tohoto 5746
▁no 5738
nosti 5728
▁believe 5706
▁st 5695
▁now 5682
▁citizens 5650
ions 5632
e 5620
ální 5612
▁those 5597
ent 5559
▁financial 5541
▁ze 5536
▁Z 5534
▁take 5521
od 5496
er 5485
▁To 5464
ated 5453
na 5434
▁when 5429
ek 5424
ost 5394
▁musíme 5369
▁therefore 5357
▁své 5327
▁budou 5323
▁tomu 5321
▁proto 5312
▁nej 5303
▁byla 5297
en 5294
▁členských 5256
▁against 5241
▁Evropská 5240
▁má 5195
▁pokud 5193
▁some 5165
▁př 5132
▁bychom 5099
▁tento 5093
▁social 5088
▁/ 5081
▁political 5074
ive 5036
▁těchto 5034
ov 5000
▁abychom 4984
▁než 4964
an 4957
▁ke 4947
k 4930
▁p 4929
el 4925
ným 4916
▁c 4897
▁energy 4897
b 4883
z 4864
▁kteří 4861
▁being 4856
▁zejména 4856
▁států 4851
▁vý 4836
▁order 4824
▁důležité 4801
▁un 4800
ující 4799
▁made 4775
▁them 4772
▁paní 4763
▁many 4758
▁market 4758
▁tím 4754
i 4752
▁M 4733
▁země 4729
▁think 4696
▁any 4683
íme 4678
▁? 4640
ří 4602
▁were 4597
▁B 4587
▁well 4583
ít 4570
▁fact 4563
ary 4554
nější 4489
ými 4482
▁However 4478
▁measures 4473
able 4455
▁ú 4455
▁Madam 4424
▁development 4420
▁evropské 4416
ční 4408
▁way 4406
▁future 4403
▁Paní 4400
▁není 4400
p 4398
▁tomto 4396
ely 4362
▁zde 4352
▁human 4348
▁politiky 4342
▁Commissioner 4329
▁více 4294
▁t 4293
ala 4282
▁tuto 4270
▁D 4239
▁agreement 4239
▁byl 4235
▁country 4232
▁N 4224
▁situation 4221
▁práva 4220
▁finanční 4217
▁tato 4212
▁than 4210
▁n 4209
▁tyto 4192
▁ensure 4171
ické 4161
▁let 4140
ali 4123
▁ob 4119
▁debate 4111
▁parlamentu 4109
▁C 4096
on 4089
ských 4086
▁public 4085
ému 4082
ách 4077
▁today 4069
▁tom 4065
▁pod 4063
ra 4058
ily 4052
▁over 4039
▁Proto 4037
▁byly 4028
me 4026
▁jen 4022
▁třeba 4018
▁under 4017
át 4016
ist 3999
▁right 3993
ad 3976
▁rámci 3969
▁voted 3964
▁first 3958
▁mít 3953
▁což 3944
▁say 3933
▁jeho 3931
▁bez 3930
ance 3924
▁kterou 3924
▁resolution 3914
ot 3903
▁years 3900
ally 3887
or 3875
▁usnesení 3867
▁návrh 3861
▁issue 3858
▁most 3856
▁všech 3855
▁u 3852
ň 3850
▁possible 3842
ová 3835
▁national 3828
▁clear 3824
▁where 3813
▁proposal 3809
▁area 3806
▁jde 3806
▁nyní 3799
us 3797
▁As 3794
▁když 3793
▁want 3787
▁m 3782
▁just 3769
▁even 3760
r 3752
▁same 3750
▁b 3736
▁členské 3730
▁EUR 3703
▁me 3702
▁T 3697
ského 3692
▁nám 3682
ami 3657
▁dnes 3654
▁krize 3649
▁Parlamentu 3646
ěl 3643
▁Evropského 3642
o 3640
▁here 3633
áme 3631
▁use 3630
▁level 3629
▁good 3628
▁protection 3627
▁re 3624
ích 3621
▁particular 3601
▁měli 3592
ujeme 3573
▁zemí 3562
▁favour 3556
▁point 3543
▁world 3543
▁další 3538
ají 3534
án 3533
▁part 3530
▁cooperation 3523
id 3522
▁de 3517
▁cannot 3510
▁international 3507
▁řešení 3503
▁všechny 3496
ise 3495
▁P 3493
iv 3491
▁end 3488
ne 3486
av 3467
▁kdy 3455
f 3454
ena 3447
▁pane 3446
ating 3440
t 3432
▁nás 3422
▁ještě 3406
is 3397
▁common 3392
▁know 3390
st 3388
▁within 3357
ny 3339
ar 3330
ud 3329
▁sp 3327
▁ch 3326
▁rovněž 3326
▁jež 3325
▁both 3314
▁sociální 3302
ál 3301
▁two 3300
▁help 3298
▁DE 3297
▁how 3296
áv 3295
▁could 3295
ice 3294
▁Treaty 3289
▁process 3286
▁system 3282
ur 3279
ru 3273
cí 3267
▁much 3263
ět 3252
▁mě 3243
▁see 3241
▁Evropě 3239
nit 3237
▁podporu 3237
▁přístup 3232
▁hope 3230
▁said 3228
▁stále 3226
▁already 3219
▁j 3217
▁H 3214
▁toto 3185
▁nez 3184
▁question 3178
▁Parlament 3176
▁still 3174
▁vote 3174
▁měla 3173
▁security 3173
eme 3159
te 3159
▁Rady 3153
▁your 3147
▁w 3144
▁sil 3143
▁gentlemen 3141
▁respect 3133
▁had 3132
▁rozhod 3130
▁tedy 3130
▁through 3128
▁parlament 3118
▁právní 3117
▁able 3111
ities 3100
▁písemně 3094
ře 3087
▁může 3073
nout 3071
▁role 3063
nění 3056
▁nad 3054
▁trhu 3048
▁unii 3045
ace 3042
▁roku 3042
▁Na 3034
▁pánové 3033
ro 3024
▁G 3020
▁own 3013
▁ro 3008
▁thank 3007
▁rád 3004
▁č 3000
iny 2996
▁does 2991
ces 2989
▁last 2989
▁sector 2986
▁mají 2983
▁That 2982
▁regard 2977
om 2976
. 2971
▁he 2970
ts 2969
ném 2966
▁zajistit 2961
▁naše 2959
▁Committee 2956
▁hospodářské 2954
▁podle 2948
▁případě 2944
no 2942
▁budget 2942
▁information 2940
▁zprávu 2921
▁K 2918
▁2020 2917
▁pan 2915
▁2009 2912
lo 2905
▁úrovni 2892
▁skupiny 2891
▁F 2889
▁why 2882
▁change 2876
cy 2875
▁pouze 2874
▁course 2871
▁J 2863
▁cílem 2861
▁větší 2856
▁law 2851
▁put 2851
▁odvětví 2848
▁too 2844
▁year 2836
▁strany 2824
▁particularly 2819
ických 2817
▁budeme 2814
▁2010 2812
▁době 2806
▁place 2804
sko 2803
▁Lisbon 2800
▁issues 2786
ními 2785
▁f 2778
uji 2777
▁rozvoj 2772
ies 2768
▁pl 2766
ává 2756
ok 2747
▁case 2746
▁There 2744
▁necessary 2744
▁view 2744
▁Pokud 2738
ut 2734
▁without 2727
▁nem 2726
▁roce 2717
ových 2709
▁jednání 2706
▁žád 2706
▁zprávy 2704
▁nev 2698
▁Mrs 2682
▁L 2681
▁její 2681
▁Evropa 2679
▁number 2676
ovali 2675
▁long 2669
az 2662
▁trade 2656
▁needs 2654
as 2645
alo 2644
by 2644
ction 2643
▁Group 2641
▁význam 2640
▁člen 2639
re 2638
osti 2632
▁rozhodnutí 2631
▁ladies 2629
▁neboť 2623
▁action 2619
▁areas 2616
kem 2610
▁result 2600
ical 2599
ji 2599
lu 2597
ie 2595
ap 2594
ací 2593
▁strategy 2589
ys 2578
▁dohody 2575
▁Evropský 2569
▁nové 2566
ků 2563
ovala 2560
ob 2558
▁ned 2558
▁women 2557
▁rapporteur 2556
ilo 2551
▁lidských 2549
▁práci 2549
▁problems 2548
▁zprávě 2544
▁stát 2541
▁dámy 2540
▁Evropy 2536
▁agree 2533
▁evropských 2531
▁current 2527
▁writing 2523
▁skutečně 2521
ská 2519
ry 2515
▁jste 2510
▁pana 2506
▁nařízení 2496
▁example 2491
ovou 2490
▁situaci 2485
▁směrnice 2480
▁region 2477
▁taken 2469
▁pracovní 2467
▁legal 2464
ant 2460
▁specific 2457
▁vám 2454
▁R 2451
▁including 2450
▁mi 2450
rat 2445
▁Pro 2445
▁If 2444
čení 2443
▁návrhu 2443
▁Members 2441
j 2438
op 2435
▁welcome 2434
▁problem 2433
▁prostředí 2433
▁situace 2428
red 2417
▁global 2416
▁climate 2414
▁věci 2414
▁už 2413
ced 2412
▁například 2411
▁především 2411
▁pomoci 2409
▁e 2408
▁lidí 2395
▁his 2394
▁osob 2391
lád 2388
▁solidarity 2387
▁ani 2385
▁better 2382
▁form 2381
aci 2379
ností 2379
oval 2379
ský 2379
▁způsob 2377
▁Musíme 2374
▁euro 2374
hod 2368
als 2367
ším 2366
▁terms 2365
▁Komisi 2363
▁možné 2357
▁práce 2356
▁set 2356
▁týkající 2352
ine 2346
ck 2343
ct 2343
ej 2343
▁chtěl 2342
eny 2340
led 2339
▁stanov 2339
▁rules 2336
ště 2335
▁Jsem 2334
▁then 2333
▁allow 2332
▁zpráva 2332
rov 2329
áz 2329
▁give 2329
▁behalf 2322
▁may 2322
ying 2320
▁poskyt 2318
ul 2316
se 2314
▁again 2313
▁g 2313
ového 2311
▁Evropskou 2308
val 2307
▁zá 2306
▁means 2305
▁občanů 2302
ik 2296
▁roz 2293
▁framework 2290
ců 2288
▁after 2283
▁For 2282
▁institutions 2281
▁given 2276
▁kde 2275
▁pří 2275
▁economy 2273
▁l 2273
ár 2270
▁real 2270
▁máme 2265
▁spolupráci 2264
up 2263
▁přij 2259
▁great 2247
▁základě 2247
rá 2245
▁regulation 2243
▁continue 2241
▁souvislosti 2241
▁jménem 2239
▁našich 2239
▁či 2238
ings 2233
žit 2233
ovi 2228
▁O 2225
ol 2221
▁zda 2219
eli 2218
▁come 2209
▁next 2206
▁Presidency 2204
íž 2200
▁further 2200
▁whether 2200
ism 2199
▁access 2197
▁Rada 2196
▁hlasování 2195
▁společnosti 2194
ni 2193
est 2190
one 2188
▁mnoho 2186
▁předsednictví 2183
▁approach 2181
▁samozřejmě 2180
▁fundamental 2172
de 2162
ez 2160
w 2157
▁2008 2153
▁návrhy 2151
ase 2150
▁before 2150
ans 2149
▁On 2142
▁legislation 2140
ied 2127
ření 2125
hy 2123
▁Jak 2119
▁prostřednictvím 2118
▁find 2116
▁nes 2115
▁vol 2115
▁FR 2112
▁directive 2112
▁problém 2112
▁account 2111
▁different 2111
▁provide 2110
▁resources 2103
▁adopted 2100
iz 2098
ko 2097
▁products 2097
▁dis 2089
▁since 2084
▁policies 2083
▁život 2081
age 2080
ast 2080
▁sh 2080
itel 2079
▁IT 2074
▁progress 2073
skou 2072
▁zemích 2071
▁pomoc 2070
▁systém 2069
▁during 2067
ád 2063
▁orgány 2062
aly 2059
▁nejen 2059
▁komisaři 2057
ev 2056
▁food 2056
▁towards 2054
▁měly 2052
▁position 2046
▁high 2044
▁matter 2044
ish 2040
▁opportunity 2040
▁problémy 2039
os 2035
▁services 2033
▁far 2032
cích 2031
▁certain 2028
▁effective 2028
▁increase 2024
sku 2020
▁úsilí 2018
▁negotiations 2016
▁health 2014
ning 2012
▁svou 2010
nu 2008
ure 2003
▁authorities 2002
isation 2000
res 1999
▁present 1997
▁zcela 1997
ze 1994
▁otázky 1994
ěr 1992
▁klimatu 1992
▁správ 1989
▁žen 1989
▁předsedo 1988
▁conditions 1985
▁kdo 1984
▁consider 1981
▁vás 1980
▁especially 1979
▁způsobem 1977
▁měl 1976
▁reform 1976
un 1972
▁decision 1968
▁mohou 1965
▁State 1964
▁státech 1963
ění 1962
▁opinion 1962
eno 1960
ější 1960
▁říci 1958
kou 1957
▁proposals 1953
▁call 1947
▁včetně 1946
▁basis 1943
▁vz 1943
▁plán 1942
▁spolupráce 1942
▁going 1940
▁small 1940
▁zeměděl 1938
▁every 1937
▁bezpečnost 1935
▁soud 1934
▁tr 1934
▁dosáhnout 1929
▁navrh 1929
▁ES 1928
▁já 1927
▁strategie 1925
ful 1921
▁právě 1921
▁pov 1917
nými 1916
les 1914
ir 1913
▁ochranu 1913
ována 1909
▁wish 1908
▁transport 1907
ter 1906
ávání 1905
▁text 1905
▁funds 1901
▁mezinárodní 1900
ované 1894
▁ask 1894
▁udržitel 1894
ens 1893
▁United 1893
áž 1891
▁forward 1891
▁research 1890
▁together 1889
▁míst 1887
▁E 1884
▁trh 1883
▁prevent 1882
▁House 1880
▁freedom 1879
▁vě 1878
▁20 1877
▁jim 1877
▁used 1877
▁implementation 1875
▁dost 1872
itu 1868
▁however 1868
▁greater 1867
to 1866
▁potravin 1865
▁názoru 1862
ks 1861
▁importance 1860
▁období 1860
▁pok 1859
atel 1858
▁environment 1856
ství 1850
že 1850
▁svých 1849
čně 1846
▁reason 1846
▁data 1845
▁prostředky 1845
▁až 1844
▁done 1844
▁subject 1839
▁rok 1838
▁systému 1837
ory 1835
▁poz 1835
▁naší 1834
▁hand 1831
▁dohod 1828
ví 1827
▁nadále 1827
▁postup 1826
▁stability 1823
▁three 1823
x 1820
▁cel 1820
▁plan 1820
▁stejně 1819
ovaly 1818
▁civil 1816
ány 1813
ady 1811
▁At 1811
▁oper 1807
▁serious 1807
▁znovu 1807
▁aid 1806
▁interest 1805
ak 1800
▁difficult 1797
▁working 1797
ejí 1793
▁Za 1793
▁ho 1793
▁energie 1792
▁workers 1791
nému 1790
▁právo 1790
ised 1789
▁impact 1789
ovan 1787
▁control 1786
▁growth 1784
▁ex 1783
▁připrav 1781
▁ved 1781
ový 1779
▁million 1779
▁současné 1778
ment 1776
▁politiku 1775
▁efforts 1774
▁Unie 1773
ovány 1768
lení 1767
▁cíle 1767
▁democracy 1766
▁third 1766
lá 1764
▁fight 1762
use 1761
▁prostředků 1759
▁š 1756
▁můžeme 1753
ené 1751
▁whole 1748
▁W 1747
▁zasedání 1746
iku 1742
▁finančních 1740
▁Domnívám 1738
▁zpravodaj 1738
rem 1737
urs 1735
▁back 1733
▁pot 1733
▁obnov 1732
▁based 1731
▁inform 1730
▁ná 1729
▁hospodářství 1728
▁plat 1728
ese 1726
▁řízení 1725
▁achieve 1722
len 1720
▁násled 1720
▁making 1719
▁essential 1716
▁přijetí 1716
▁Fund 1714
▁zemi 1714
oc 1711
▁nutné 1711
▁financování 1710
▁nezbytné 1710
▁power 1708
▁přes 1707
▁really 1705
ah 1703
▁transparent 1700
▁panu 1698
eni 1696
▁skutečnost 1696
▁attention 1695
▁responsibility 1695
▁while 1695
▁možnost 1694
▁potřebujeme 1691
▁ochrany 1690
▁ad 1689
▁tax 1688
▁state 1685
nímu 1684
ta 1684
▁společné 1683
▁standards 1683
▁bezpečnosti 1682
▁few 1681
▁significant 1679
▁některé 1677
▁major 1674
šen 1669
▁PL 1669
▁ně 1669
▁určit 1669
▁nep 1667
▁základ 1664
ual 1662
▁000 1657
▁mohli 1654
▁second 1653
▁evropského 1652
ický 1651
▁agreements 1651
ením 1650
ostí 1648
ising 1645
▁mého 1644
▁přísluš 1643
▁výrob 1643
▁ohledně 1642
ve 1641
▁10 1640
▁domnívám 1640
▁2011 1639
▁zaměř 1639
▁safety 1638
▁schop 1638
pl 1637
▁rozpočtu 1635
cing 1633
um 1632
ického 1631
▁vlád 1631
▁jobs 1630
▁regions 1630
▁Tato 1629
▁hlediska 1628
▁jasně 1627
▁několik 1625
▁všichni 1623
▁go 1622
ávat 1621
ess 1618
čit 1615
ická 1610
▁force 1608
▁politické 1608
ates 1607
▁priority 1607
▁sk 1605
▁programme 1602
▁clearly 1601
▁byli 1600
ia 1599
ska 1597
▁světě 1596
du 1595
ť 1594
ěli 1593
▁podniky 1593
▁interests 1592
ide 1591
▁society 1590
▁souladu 1590
▁money 1589
▁Co 1587
▁Community 1587
▁boj 1587
▁dopad 1586
g 1584
▁So 1583
▁lepší 1583
▁vys 1583
▁zásadní 1582
▁democratic 1581
ající 1580
▁druhé 1578
ář 1577
▁become 1576
am 1575
2 1574
▁play 1573
oz 1572
pt 1571
▁obyvatel 1570
▁principle 1568
▁procesu 1563
▁once 1562
▁všem 1561
ently 1560
▁objectives 1560
▁vyh 1560
▁fully 1559
lov 1558
▁Výboru 1558
▁children 1558
▁Therefore 1554
▁least 1554
lou 1553
▁1 1553
▁less 1553
▁zd 1553
▁lidé 1552
im 1551
▁dok 1551
▁podnik 1551
▁příliš 1551
▁pla 1549
ard 1547
▁nových 1546
▁look 1543
▁provádění 1543
▁consumers 1542
▁čas 1542
álních 1541
▁sch 1540
▁step 1540
emi 1539
▁did 1539
čí 1538
ickou 1536
▁pak 1536
▁r 1536
▁partnerství 1535
▁soudržnosti 1535
▁comp 1534
▁internal 1532
▁přisp 1531
lé 1529
icky 1528
ží 1527
ávají 1524
▁krizi 1524
ab 1523
eb 1522
▁act 1521
▁main 1520
▁cohesion 1516
▁komise 1516
▁vytvoření 1516
▁free 1515
▁period 1513
▁svět 1511
ané 1510
íd 1509
▁recent 1507
▁tu 1507
▁otázku 1506
▁proces 1505
▁group 1504
▁smlouvy 1504
▁non 1503
ically 1502
▁agricultural 1502
▁mělo 1502
zn 1499
▁employment 1499
▁taking 1499
▁stran 1498
▁zač 1498
hu 1496
its 1496
and 1495
▁jednot 1495
▁positive 1493
žení 1492
▁ekonom 1492
▁invest 1492
▁sustainable 1492
▁zv 1490
lí 1487
ským 1487
▁concerned 1487
▁velice 1487
▁environmental 1486
▁zákon 1485
▁industry 1483
ás 1481
šení 1480
▁Lisabonské 1480
ors 1479
ac 1478
ín 1475
▁týká 1475
▁oček 1474
▁potřeb 1473
▁strong 1472
čné 1471
▁op 1470
▁sc 1469
▁draw 1468
▁exist 1468
▁general 1468
▁nut 1468
▁U 1466
▁zlepšení 1465
íl 1463
▁podpor 1462
▁risk 1462
▁care 1459
▁programu 1458
▁přid 1458
▁full 1456
▁požad 1455
▁get 1454
▁občany 1454
ita 1453
ká 1453
▁St 1453
▁another 1453
▁individual 1452
▁companies 1447
▁dec 1447
▁celé 1446
▁large 1445
▁down 1444
▁among 1443
▁th 1443
ké 1440
▁oblastech 1440
▁nejsou 1439
▁komisař 1438
▁proposed 1438
▁speak 1436
▁always 1435
ite 1434
▁zároveň 1434
▁některých 1433
▁schvál 1433
jem 1432
▁guarantee 1430
▁dne 1429
▁dobře 1429
nic 1428
▁best 1426
▁během 1426
▁prohlášení 1424
▁představ 1424
▁přijmout 1424
▁rov 1421
vat 1420
▁create 1420
▁relations 1420
▁government 1419
▁sv 1415
▁politik 1414
▁politika 1414
▁pos 1414
▁řekl 1414
▁represent 1411
▁vlastní 1410
▁zdrojů 1410
áh 1409
▁důvodu 1407
▁pop 1406
žen 1404
▁předpisy 1404
▁trest 1404
▁something 1403
▁her 1402
ran 1401
▁nap 1401
▁příprav 1399
▁změny 1399
ative 1398
dě 1398
▁právních 1398
▁svobod 1398
▁znamená 1398
▁funding 1396
▁improve 1396
▁demokrat 1393
▁ohledem 1391
ři 1388
▁jej 1388
▁key 1388
▁podmínky 1388
ute 1385
▁odbor 1385
▁things 1385
álně 1384
▁zásad 1384
ence 1383
ti 1382
▁deal 1381
▁ty 1381
▁vůči 1380
▁záležitosti 1379
lat 1378
▁strateg 1378
ina 1376
▁milionů 1376
▁pom 1376
▁Společenství 1374
▁ohledu 1374
▁pracovních 1374
▁první 1373
ivní 1372
▁short 1370
zen 1369
▁context 1369
▁ar 1368
her 1367
▁Barroso 1367
▁quality 1366
▁učin 1366
▁request 1364
▁developing 1363
▁rec 1363
ern 1362
▁These 1362
▁nuclear 1361
▁post 1361
ge 1360
▁each 1360
▁poslanci 1360
▁various 1360
bě 1359
▁svůj 1359
▁Tento 1358
▁vlády 1358
▁kon 1357
▁zas 1356
▁bo 1355
▁Před 1354
▁ak 1353
▁lid 1353
▁program 1353
▁concerns 1352
▁mnoha 1352
▁obchodu 1352
▁prac 1352
ňuje 1348
und 1345
▁currently 1345
▁ra 1345
ents 1344
▁cílů 1343
ness 1341
ba 1340
▁jedin 1340
▁vše 1338
▁část 1338
▁open 1337
▁dalších 1336
▁předsed 1335
▁regional 1334
▁solution 1334
▁čin 1334
▁uzn 1333
ined 1332
▁straně 1332
po 1328
▁having 1328
▁myslím 1328
ists 1327
▁Ob 1327
▁gener 1327
▁chtěla 1326
▁legislative 1325
▁zav 1325
ív 1322
▁itself 1322
▁předpisů 1322
▁přesvědčen 1321
▁plně 1320
▁zajištění 1319
▁nichž 1318
▁Government 1317
▁Th 1317
řed 1316
▁zap 1316
yt 1315
▁ráda 1315
ow 1314
▁aim 1314
▁váž 1314
▁veřej 1310
▁mu 1308
▁regul 1308
▁představuje 1307
ight 1306
▁vid 1305
▁Ú 1305
▁bring 1304
▁otázce 1304
▁vždy 1303
▁omez 1302
▁zás 1300
ned 1298
▁jist 1298
▁initiative 1296
▁konkurenceschop 1293
▁yet 1293
▁ji 1292
▁Rád 1291
▁získ 1291
▁Evropu 1290
▁2 1289
▁otázka 1288
▁poděkovat 1288
▁střed 1288
ském 1287
▁! 1285
▁draft 1285
▁často 1285
▁Russia 1284
▁management 1284
▁prop 1284
▁důsledku 1283
▁involved 1283
▁součas 1283
▁výzkum 1283
▁express 1282
▁zemědělství 1282
rž 1281
▁informace 1281
▁skutečnosti 1281
ill 1280
etí 1279
▁prov 1279
▁fe 1278
rát 1277
▁defin 1277
▁la 1276
▁souhlas 1276
▁What 1275
▁words 1274
▁členskými 1274
▁hovo 1273
ovým 1270
▁zdraví 1270
▁Ne 1268
▁air 1268
▁umožní 1268
▁Chtěl 1266
▁dále 1266
▁objective 1266
▁men 1265
▁pozměňovací 1265
▁rather 1265
▁address 1264
▁cest 1264
▁nebude 1264
▁spl 1264
▁odpověd 1263
je 1262
▁life 1262
adu 1258
▁systems 1258
▁zájmu 1258
▁groups 1256
▁amendments 1254
▁dlouhodob 1254
ěř 1252
▁following 1252
▁often 1252
ue 1250
čních 1249
▁single 1249
▁umož 1249
▁skupin 1248
▁jedná 1245
▁moci 1244
▁os 1244
▁commitment 1243
▁show 1243
▁snížení 1242
▁konkrétní 1241
▁fellow 1240
▁majority 1239
▁činnosti 1239
▁druh 1238
▁krok 1238
aliz 1236
▁RO 1236
▁důležit 1236
▁základní 1234
edn 1233
▁accept 1233
ěž 1232
▁states 1232
▁považ 1231
▁naši 1230
▁podniků 1230
▁strategii 1229
ete 1227
▁hodnot 1227
▁Finally 1226
▁zdůraznit 1224
▁mentioned 1223
▁projects 1223
▁start 1223
▁ří 1223
▁jednou 1222
▁points 1222
▁dov 1221
▁jiné 1221
▁results 1221
ovaných 1220
▁stud 1219
ící 1217
▁assistance 1217
▁mohla 1217
▁případ 1217
▁letech 1214
▁costs 1212
▁kterým 1212
▁společně 1212
ika 1211
▁přístupu 1211
▁prv 1210
men 1209
kov 1208
nutí 1207
▁str 1207
▁concerning 1206
▁přev 1206
▁tímto 1206
▁expect 1205
▁podporovat 1205
▁uved 1205
ust 1204
▁Myslím 1204
▁budoucnosti 1204
▁energetické 1204
▁konečně 1204
▁respekt 1204
▁svobody 1204
▁zast 1204
▁dialogue 1203
▁actually 1202
▁procedure 1201
▁velké 1201
ability 1199
ational 1199
▁podpo 1199
▁programmes 1199
▁předlož 1199
▁transparency 1199
▁understand 1199
▁údajů 1199
bu 1198
▁kvůli 1197
▁violence 1197
▁několika 1196
▁ref 1196
▁vytvo 1195
kům 1193
▁joint 1193
ty 1192
▁Č 1192
▁labour 1191
▁investment 1190
▁služeb 1190
▁responsible 1189
▁extremely 1186
▁růstu 1186
▁strengthen 1186
▁týče 1185
all 1183
▁found 1183
▁challenges 1182
▁mechanism 1182
liv 1181
ous 1181
▁dosažení 1181
▁Ve 1180
▁národ 1180
▁podpořit 1180
▁sure 1180
▁months 1179
▁obchod 1179
▁zahraniční 1179
▁Let 1178
▁pozornost 1178
▁státu 1178
ages 1176
ští 1176
▁rozprava 1176
▁sou 1176
▁činnost 1176
ile 1175
▁doufám 1174
▁local 1174
▁package 1174
▁mo 1173
▁pravidla 1173
▁věd 1173
ujících 1172
▁jin 1172
▁poverty 1170
ela 1169
▁níž 1168
▁orgánů 1168
▁fair 1167
▁zeměmi 1167
vu 1166
▁projev 1166
▁účin 1166
▁production 1165
▁prospěch 1165
kl 1164
▁30 1164
▁Court 1164
▁NL 1164
▁ago 1163
▁ass 1163
▁naprosto 1163
▁off 1163
▁úlohu 1163
▁instruments 1162
▁informací 1161
▁regionální 1161
▁parties 1160
▁PT 1159
▁Podle 1159
▁exp 1159
▁prod 1159
ators 1158
▁Y 1158
▁en 1158
▁moment 1158
nut 1156
▁lo 1156
▁Affairs 1155
▁Hlasoval 1155
▁available 1154
▁decisions 1153
▁energet 1153
▁meet 1153
▁různých 1153
▁vytvořit 1153
▁wor 1153
▁pravidel 1151
▁chceme 1150
▁nepř 1150
▁obchodní 1150
▁pleased 1149
▁příležitost 1148
▁appropriate 1147
▁nástroje 1146
▁needed 1145
▁offer 1145
▁pol 1145
P 1144
▁klíč 1144
▁lack 1144
álním 1143
▁cases 1143
art 1142
▁12 1142
▁rozpočt 1140
qu 1139
▁bank 1139
▁27 1138
ane 1137
▁násilí 1137
▁poč 1137
7 1136
ič 1136
▁občané 1136
▁protect 1136
▁tomuto 1134
ition 1133
▁obě 1133
▁rozvoje 1132
▁posledních 1131
▁principles 1130
▁review 1130
▁vzhledem 1130
▁skuteč 1129
▁ž 1129
kaz 1128
▁governance 1128
▁vá 1128
šť 1127
vě 1126
▁stej 1125
řila 1122
▁My 1121
▁promote 1121
▁regarding 1120
va 1119
▁vnější 1119
ag 1118
▁budoucí 1117
▁nich 1116
▁term 1116
oup 1113
ď 1112
▁times 1112
▁základních 1111
▁cíl 1110
iky 1109
▁education 1109
ering 1108
▁markets 1108
bl 1107
▁životní 1107
ements 1106
ins 1106
▁crucial 1106
▁demokracie 1106
▁pros 1106
▁proč 1106
20 1105
term 1105
▁aktiv 1104
▁several 1104
▁jasné 1103
▁nikoli 1103
▁východ 1103
let 1102
▁With 1102
▁lze 1102
álního 1101
▁compromise 1101
▁podpory 1101
▁veřejných 1100
▁veřejné 1098
nictví 1097
▁den 1096
▁bl 1095
▁due 1095
ij 1094
ose 1094
▁2007 1091
ován 1090
▁demand 1090
▁project 1090
▁focus 1089
▁follow 1089
▁opět 1089
ici 1088
▁Greece 1088
▁hlas 1088
▁důvod 1087
▁mimo 1086
▁war 1085
▁peace 1083
1 1081
ii 1081
▁concern 1081
▁použív 1081
ven 1080
▁meeting 1080
▁zaháj 1079
▁keep 1078
▁pay 1078
▁summit 1078
▁služby 1077
▁values 1077
▁ab 1076
alt 1075
št 1075
▁spolu 1075
▁15 1074
▁stav 1074
▁instrument 1073
▁response 1073
▁negoti 1072
M 1070
▁creation 1070
▁odpovědnost 1070
▁evropský 1069
▁low 1069
▁rychle 1067
▁foreign 1066
▁soukrom 1066
▁uděl 1066
8 1065
▁You 1065
▁special 1065
▁vyz 1065
ale 1062
▁EL 1062
▁Turkey 1062
▁simply 1062
▁fondu 1061
▁medium 1061
pr 1060
▁billion 1060
▁díky 1060
end 1059
ovatel 1058
▁dokonce 1057
▁kind 1057
▁pou 1057
▁závaž 1057
ell 1056
▁nemůže 1056
řili 1055
▁Př 1055
▁jiných 1055
▁man 1055
▁pob 1052
▁úč 1052
▁jejichž 1051
▁lidská 1051
ics 1050
▁abych 1050
▁přijím 1049
▁vyv 1049
ura 1048
▁aware 1048
▁hod 1047
ake 1046
▁provided 1046
▁hlasovat 1045
▁Directive 1044
▁došlo 1044
▁jeden 1044
ováním 1043
▁chci 1042
▁shod 1042
ňování 1041
▁reduce 1041
▁business 1040
ele 1039
▁dot 1039
▁ř 1039
▁náv 1038
▁závaz 1037
▁lead 1036
▁něco 1036
▁integration 1035
▁Doufám 1034
▁vym 1033
▁young 1033
A 1032
▁efficiency 1032
▁Toto 1031
▁reasons 1031
▁sign 1031
▁existuje 1030
▁vnitrostátní 1029
▁výboru 1029
▁vlast 1028
F 1027
▁Vzhledem 1027
▁hospodářskou 1027
▁indic 1027
▁vyprac 1027
▁los 1025
ect 1024
▁requirements 1024
▁stress 1024
▁Republic 1023
▁dohoda 1023
▁dopravy 1023
▁našeho 1023
▁day 1022
▁field 1022
štění 1021
▁maintain 1020
cen 1019
rom 1019
▁application 1019
isk 1018
5 1017
▁5 1017
▁thing 1017
R 1016
▁quite 1016
ovací 1015
6 1014
ore 1014
▁Rights 1013
▁elections 1013
▁remain 1012
▁řadě 1012
▁activities 1010
▁ent 1010
▁governments 1010
3 1009
▁uv 1008
▁voleb 1008
▁enterprises 1007
▁vyjád 1007
▁zavedení 1006
nov 1005
▁bud 1005
▁posílení 1005
▁Kromě 1003
▁uzav 1003
▁zvýšení 1003
ste 1002
▁br 1002
▁above 1001
▁dobré 1001
▁farmers 1001
▁innovation 1001
▁tre 1001
▁competition 1000
▁odmít 1000
▁předseda 1000
▁businesses 999
▁obec 999
▁organizace 999
▁orgán 999
hr 998
ených 997
▁hlavní 997
▁others 997
▁person 997
▁consequences 996
▁oblast 996
▁certainly 995
▁dan 995
▁názor 995
co 994
▁3 994
▁obsah 994
▁rámec 994
▁skupina 994
▁těch 993
▁životního 993
▁sol 992
▁součástí 992
▁takové 991
▁model 990
▁population 990
▁postoj 990
▁vzájem 990
▁zdravot 990
▁li 989
▁současnosti 989
▁dodrž 987
▁možná 987
▁reports 987
▁směrem 987
▁tra 987
▁uplatňování 987
ach 986
ysl 986
▁natural 986
▁mnohem 984
▁řád 984
ending 983
era 983
tek 983
▁Evrop 983
▁benefit 983
▁společnost 983
▁problémů 982
▁přís 982
▁efektiv 981
▁kroky 981
▁procedures 981
▁addition 980
▁stávající 980
ož 979
▁mean 979
▁jedn 978
▁myšlen 978
▁questions 978
řen 977
▁develop 977
▁podob 977
▁standard 976
▁true 976
▁regionu 975
bo 973
ff 973
▁podmínek 973
▁představitel 973
▁tě 973
van 972
▁soon 972
▁závěr 972
▁2006 971
▁bezpečnostní 971
▁indeed 971
▁mno 971
ved 970
▁existing 969
▁adopt 968
▁establish 968
▁mohly 968
▁návrhů 968
ft 967
▁jaké 967
▁nav 967
▁enough 966
▁každý 966
▁partner 966
▁sm 966
eden 965
▁OSN 965
▁politických 965
▁spravedliv 965
4 964
pad 964
▁agenda 964
▁svého 964
ede 963
▁success 963
▁test 963
▁účast 963
▁matters 962
▁priorities 962
▁trans 962
▁Radě 961
▁Portugal 960
▁kontrol 960
▁members 960
▁poh 960
▁ustanovení 960
pe 959
ák 959
▁across 959
▁doporučení 959
▁mal 959
▁potential 959
C 958
▁občanům 958
▁jehož 957
▁každ 957
▁Po 956
ma 955
▁comes 955
▁final 955
S 954
ional 954
▁dv 954
▁ever 954
▁stand 954
ree 953
rz 953
ázat 953
▁žádné 953
less 951
▁achieved 951
▁boji 951
▁ensuring 951
▁nov 951
▁entire 950
▁občan 950
▁seen 950
▁Tyto 949
▁založen 949
▁vnitřní 948
aj 946
ict 946
▁US 946
▁nový 946
ement 945
hat 945
▁Nyní 945
▁increasing 945
▁doing 944
▁job 944
▁zvláštní 944
▁úspěš 944
▁emissions 943
▁reach 943
▁regulations 943
▁ur 943
▁implement 942
▁move 942
▁vzdělávání 942
▁Ireland 941
▁jednotlivých 941
▁těž 940
▁relation 939
▁věc 939
oli 938
pro 938
▁spotřebitelů 938
▁supported 938
▁adoption 937
▁mož 937
▁relating 937
els 936
níků 936
▁vital 936
▁harmon 935
▁předložen 935
▁sněmovně 934
▁třetí 934
▁car 933
▁nedostat 933
▁přijat 933
D 932
▁changes 930
▁criteria 930
▁include 930
▁politice 930
▁bod 929
▁contribution 929
▁oblastí 929
▁past 929
▁themselves 929
▁vů 928
něji 927
▁dosud 927
▁příležitosti 927
zk 926
▁NATO 926
▁daň 926
▁tam 926
▁congratulate 925
▁kol 925
▁tři 925
ána 924
▁Nej 924
▁požadavky 924
▁using 924
▁legitim 923
▁malé 923
▁probí 923
▁zn 923
here 922
▁Evropském 922
ines 921
nila 921
ňovat 921
▁actions 921
▁muset 921
▁zdroje 921
▁Development 920
▁Od 920
▁increased 920
▁mind 920
▁trad 920
ickým 918
jí 918
áváme 918
▁pokroku 918
▁Social 917
ited 916
▁He 916
▁Minister 916
▁mobil 916
▁nic 916
ora 914
▁speech 914
▁voting 914
▁longer 913
▁vláda 913
▁bohužel 912
▁cross 912
▁pokračovat 912
ňují 911
▁doprav 911
▁nástroj 911
▁seek 911
▁An 908
▁mohl 908
▁růst 908
th 907
▁led 907
▁Article 906
▁mí 906
▁připom 906
▁quickly 906
▁souhlasím 906
be 905
▁jas 905
váme 904
▁face 904
I 902
▁omezení 902
ír 901
▁důvodů 901
▁popul 901
▁výz 901
ave 900
vy 899
▁Haiti 898
▁amendment 898
▁nějak 898
▁opak 898
chu 897
▁dod 897
▁Czech 896
▁partnership 895
▁zpráv 895
dy 894
ovém 894
▁illegal 894
▁Š 894
▁ní 893
▁zajist 893
▁asylum 892
▁střední 892
prav 891
▁inter 891
▁line 891
▁res 890
▁strategic 890
▁share 889
▁rozpočet 888
▁funk 887
▁kl 887
▁mám 887
▁náklady 887
▁obavy 887
▁posti 887
▁využívání 887
▁gas 886
▁idea 886
▁minul 886
▁previous 886
uk 885
▁They 885
▁list 885
▁vítám 885
▁důležitá 884
▁mention 884
▁svém 884
▁jednat 883
▁organisations 883
řil 882
▁Democrats 882
▁celosvět 882
▁nezbyt 881
▁společenství 881
ovalo 880
rvé 880
ází 880
▁ext 880
▁platnost 880
▁udělat 880
▁2013 879
▁rest 879
▁zach 879
▁krát 878
▁realiz 878
▁účelem 878
rop 876
▁ban 876
▁cen 875
▁roli 875
▁item 874
▁podporuji 874
▁priorit 874
▁regards 874
ctions 873
skými 873
mě 872
▁Hlasovala 872
▁vyd 872
▁vyst 872
▁direct 871
▁met 871
▁unií 871
▁China 870
▁aspects 870
▁opportunities 870
▁svým 870
▁provisions 869
▁dispozici 868
▁hlasoval 868
9 867
▁obrov 867
▁využít 867
▁zam 867
▁All 866
▁additional 866
▁cost 866
▁everyone 866
▁nech 866
ets 864
ších 864
▁jedné 864
▁jedním 864
▁prom 864
lan 863
čnou 863
▁living 863
▁technic 863
▁International 862
▁dva 862
▁smlouva 862
oh 860
▁consumer 860
▁hled 859
▁close 858
▁státům 858
▁value 858
▁fund 857
▁poslední 857
▁pracovníků 857
▁ví 857
▁Ashton 856
▁competitiveness 856
▁místa 856
omen 855
▁external 855
▁pochop 855
▁změně 855
▁škod 855
▁Schengen 854
▁méně 854
▁UN 853
▁ukon 853
▁Pod 852
▁along 852
▁feel 852
▁al 851
▁financing 851
▁náš 851
▁victims 851
▁výzkumu 851
▁dohodu 850
▁histor 850
▁pokrok 850
▁dvě 849
▁poslanců 849
▁ženy 849
▁statist 848
▁vyjádřit 848
lav 847
▁affected 847
▁solutions 847
▁úm 847
ěla 846
▁carried 846
▁discussion 846
▁opt 846
▁kolegy 844
▁politick 844
▁Euro 843
▁mus 843
▁agriculture 842
▁aimed 842
▁ambitious 842
▁evropskou 842
▁jazy 842
▁conf 841
▁kultur 841
▁glob 840
▁hospodář 840
fied 839
ick 839
▁balance 839
▁kapit 839
▁practice 839
▁pravomoci 839
▁thus 839
▁zástup 839
▁agreed 837
▁equal 837
▁vztah 837
▁week 837
ováno 836
čního 836
▁Jed 835
▁Tak 835
▁počet 835
▁top 835
▁hard 834
oj 833
▁pev 833
▁vl 833
B 832
řit 832
▁hroz 832
▁monitor 832
▁ply 832
▁pr 832
▁výhod 832
▁bodem 831
▁demokratů 831
▁excellent 831
sp 830
střed 828
▁... 828
▁USA 828
▁little 828
▁rule 828
▁zájmy 828
kyně 827
uring 827
▁HU 827
▁Pol 827
▁legislativ 827
▁might 827
▁záležitost 827
▁colleagues 826
▁required 826
cem 825
▁des 825
▁Nicméně 824
dá 823
▁around 823
▁věcí 823
ong 822
▁saying 822
sized 821
▁contribute 821
▁pat 821
▁pokrač 821
▁ut 821
ber 820
▁kterých 820
▁poskytnout 820
▁učinit 820
lad 819
▁Secondly 819
▁iniciativy 819
▁initiatives 819
skému 818
ye 818
▁capital 818
▁hodnocení 818
▁posílit 818
▁výsledky 818
▁mne 817
▁star 817
▁stop 817
▁vznik 817
ver 816
▁problemat 816
aring 815
itelné 815
▁Copenhagen 815
▁chyb 815
▁dětí 815
▁rady 815
▁repe 815
▁waste 815
▁úroveň 815
▁accession 814
▁partners 814
▁shall 814
ari 813
▁dokument 813
ling 812
ures 812
▁změ 812
álu 811
▁Spojen 811
▁vyt 811
▁miliard 810
▁relevant 810
▁samot 810
▁dohodě 809
▁vysvět 809
sk 808
▁argument 808
▁encourage 808
▁zak 808
▁Agreement 807
▁kompromis 807
▁respond 807
▁throughout 807
▁ukáz 807
▁del 806
▁impos 806
▁sta 806
▁successful 806
▁talking 806
▁těmto 806
cház 805
▁Roz 805
▁apply 805
▁budoucnu 805
▁podrob 805
ůr 804
▁hold 804
hlas 803
ten 803
▁mez 803
▁absolutely 802
oč 801
▁4 801
▁broad 801
▁kdyby 801
▁Iran 800
▁providing 800
▁zabývat 800
čin 799
▁bre 799
▁enable 799
▁snad 799
▁um 799
fy 798
▁oppos 798
ger 797
uch 797
▁By 797
▁Internet 797
▁jednotliv 797
▁lidem 797
▁motion 797
▁recovery 797
▁vaše 797
▁debat 796
▁podporuje 796
▁private 796
▁řešit 796
▁nebezpeč 795
▁řečeno 794
rh 793
▁him 793
▁projedn 793
▁uvědom 793
▁EC 792
▁highlight 792
▁hranic 792
▁implemented 792
row 791
▁One 791
▁avoid 791
▁dobu 791
▁powers 791
▁rozdíl 791
▁tomorrow 791
▁zásady 791
kám 790
▁nar 790
▁origin 790
▁50 789
▁rozs 789
tain 788
▁author 788
▁coming 788
▁téměř 788
▁řadu 788
▁creating 787
▁jmen 787
▁coordination 786
▁emplo 786
▁zdravotní 786
ible 785
vý 785
▁Rumun 785
▁tvrd 785
▁vztahy 785
▁členským 785
▁basic 784
▁everything 784
▁lépe 784
▁monitoring 784
▁udrž 784
▁dodržování 783
▁záležitostí 783
▁budgetary 782
▁limit 782
▁suggest 782
▁technical 782
nil 781
ívá 780
▁effects 780
▁fondů 780
▁poplat 780
▁rad 780
ec 779
ig 779
ural 778
▁hlav 778
▁investice 778
▁prezident 778
mu 777
neme 777
▁Ukraj 777
▁přin 777
▁přím 777
▁zařízení 777
▁Ch 776
▁committee 776
▁nast 776
▁perhaps 776
▁velký 776
▁affect 775
▁uplat 775
▁znač 775
▁body 774
▁děkuji 774
▁existují 774
▁otevřen 774
ěji 773
šit 773
▁makes 773
▁přičemž 773
▁talk 773
ption 772
áním 772
▁bu 772
▁špat 772
▁diskuse 771
ich 770
inn 770
▁dvou 770
▁otev 770
▁restrict 770
▁víme 770
ably 769
stav 769
▁community 769
▁potě 769
▁překáž 769
▁reject 769
▁využ 769
▁Romania 767
▁dosáh 767
▁dr 767
▁humanitarian 767
▁levels 767
▁promoting 767
▁spojen 767
▁zlepšit 767
odu 766
▁identif 766
▁prav 766
▁vít 766
▁CO 765
▁abyste 765
▁pa 765
▁pozitivní 765
▁service 765
▁téma 765
▁When 764
▁huge 764
▁menšin 764
kých 763
▁training 763
▁und 763
▁úpl 763
▁nesmí 762
▁Ab 761
▁Furthermore 761
▁namely 761
▁opravdu 761
di 760
ih 760
▁Také 760
▁důležitý 760
▁ph 760
▁pokus 760
▁zemědělské 760
▁import 759
▁pass 759
▁týd 759
▁nothing 758
▁per 758
▁rozpravy 758
used 757
▁Dalším 757
▁aniž 757
▁five 757
▁požád 757
▁zodpověd 757
▁cent 756
▁důraz 756
▁visa 756
▁supp 755
ávám 754
▁Al 754
▁big 754
▁borders 754
▁pressure 754
▁unemployment 754
▁budoucnost 753
▁imp 753
▁sna 753
▁správy 753
cům 752
raz 752
▁supporting 752
▁improving 751
▁ins 751
▁postavení 751
roj 750
▁Nem 750
▁asked 750
▁correct 750
▁sociálního 750
▁dostup 749
▁dě 749
▁mohlo 749
▁sociálních 749
▁touto 749
ons 748
▁Lisabonská 748
▁Party 748
itional 747
med 747
ution 747
▁appro 747
▁komisařko 747
▁rozum 747
▁stanovisko 747
▁although 746
▁document 746
▁průmyslu 746
▁pů 746
▁target 746
▁tém 746
ině 745
ished 745
vá 745
▁dom 745
▁effect 745
▁té 745
▁lot 744
▁produk 744
▁společností 744
ann 743
rt 743
▁carry 743
▁she 743
▁spíše 743
▁ten 743
hip 742
▁assessment 742
▁discrimination 742
▁důsled 742
▁nemůžeme 742
▁problému 742
▁Ukraine 741
▁poznám 741
lies 739
sible 739
▁No 739
▁add 739
▁bel 739
▁němž 739
▁účinnosti 739
ort 738
▁mé 738
▁por 738
▁výbor 738
olu 737
▁media 737
▁consult 736
▁požadav 736
▁původ 736
▁reduction 736
▁sever 736
▁status 736
▁stru 736
▁thanks 736
áj 735
▁demokracii 735
▁nimi 735
▁proved 735
▁until 735
▁emphas 734
▁sly 734
iná 733
▁nová 733
▁road 733
roč 732
▁wa 732
▁zajišť 732
▁called 731
▁ochraně 731
▁though 731
▁treatment 731
▁zaměstnanosti 731
▁effort 730
▁vnitrostátních 730
ises 729
▁const 729
▁místo 729
▁území 729
▁Amer 728
▁podpora 728
▁recently 728
ble 727
ively 727
▁koordin 727
▁zavád 727
ohl 726
▁prim 726
▁případech 726
▁schopni 726
▁víc 726
ining 725
uses 725
íte 725
ýv 725
▁supply 725
▁zemím 725
ments 724
▁mot 724
▁zločin 724
▁emisí 723
▁initi 723
▁malých 723
▁mlad 723
▁pouk 723
▁tlak 723
▁zvyš 723
he 722
▁sub 722
▁zabý 722
▁zavést 722
▁answer 721
▁ostatní 721
vod 720
▁associ 720
▁sense 720
▁směrnici 720
▁statement 720
▁využív 720
▁pres 719
▁boje 718
▁conflict 718
▁refer 718
com 717
▁rozví 717
▁zvol 717
zí 716
▁green 716
▁krit 716
▁light 716
▁nedáv 716
▁zvláště 716
ene 715
ep 715
line 715
řít 715
▁fungování 715
▁kter 715
▁nábožen 715
▁vývoj 715
acích 714
olit 714
▁bla 714
▁mod 714
▁nemá 714
▁plánu 714
▁Ř 714
▁okamžit 713
▁pracovat 713
ention 712
čen 712
▁Komisí 712
▁infrastructure 712
▁justice 712
▁strengthening 712
▁vysoké 712
cel 711
▁neleg 711
sou 710
▁bezpeč 710
▁množství 710
▁vyb 710
▁jenž 709
▁prosaz 709
▁su 709
out 708
▁dlou 708
▁týkajících 708
čný 707
▁Pr 707
▁con 707
▁ourselves 707
▁přírod 707
itě 706
▁kr 706
▁průběhu 706
lin 705
▁effectively 705
ices 704
sed 704
▁Afr 704
▁fung 704
▁katastrof 704
▁krizí 704
▁Zpráva 703
▁held 703
▁potřeba 703
▁považuji 703
há 702
▁comm 702
▁nakonec 702
rav 701
▁Radou 701
▁che 701
▁cond 701
▁mohu 701
▁never 701
▁soci 701
▁tv 701
▁zat 701
▁zkušen 701
▁Hungarian 700
▁otázek 700
▁složit 700
ivé 699
▁fisheries 699
▁pen 699
▁právního 699
▁vypl 699
▁děl 698
▁lear 698
▁odst 698
▁provádě 698
▁tří 698
▁pre 697
▁víz 697
oucí 696
▁alternativ 696
▁decided 696
▁důsledky 696
▁reached 696
▁velkou 696
▁zapotřebí 696
og 695
▁But 695
▁Vý 695
▁použ 695
▁rozšíření 695
▁tabled 695
▁vhod 695
▁celkov 694
▁míru 694
▁usnad 694
gest 693
▁applied 693
▁finance 693
▁sectors 693
▁vyžaduje 693
▁možnosti 692
▁nebudou 692
▁peníze 692
▁postupy 692
▁Fran 691
▁dist 691
▁ground 691
▁průmysl 691
▁Today 690
▁občanské 690
▁reflect 690
▁seems 690
▁většina 690
▁zám 690
▁závis 690
▁účinn 690
ímž 689
ůst 689
▁25 689
▁cover 689
▁dopl 689
▁minimum 689
▁reforms 689
der 688
▁8 688
▁alloc 688
ame 687
▁combating 687
▁direction 687
▁znám 687
▁military 686
▁zaruč 686
my 685
yn 685
▁chtějí 685
▁included 685
▁ost 685
▁rozší 685
▁rybolovu 685
▁vojen 685
▁Now 684
▁le 684
ývá 683
▁Jako 683
▁combat 683
▁doby 683
▁kontroly 683
▁poslance 683
▁projekt 683
▁spor 683
▁odp 682
▁potřeby 682
▁vytváření 682
▁whose 682
říme 681
▁South 681
▁completely 681
iting 680
oby 680
rate 680
▁Roma 680
▁div 680
▁společného 680
ime 679
▁získat 679
▁acc 678
▁finally 678
▁possibility 678
▁smlou 678
▁upozor 678
▁uvol 678
▁výrobků 678
▁demonstrat 677
▁kontrolu 677
▁širok 677
ana 676
▁7 676
▁North 676
▁char 676
▁flo 676
▁jakým 676
▁rural 676
▁světa 676
hem 675
olen 675
▁days 675
▁fond 675
▁implementing 675
▁mobility 675
▁rapporteurs 675
▁správné 675
▁ukaz 675
▁zahrn 675
elf 674
ánu 674
ú 674
▁proper 674
▁SK 673
▁events 673
▁největší 673
▁působ 673
▁ta 673
▁zlepš 673
▁čty 673
int 672
▁nejdříve 672
▁odpovědnosti 672
ration 671
▁děti 671
▁lives 671
▁poděkoval 671
▁původu 671
▁zelen 671
▁Africa 670
▁internetu 670
▁investic 670
▁závě 670
ars 669
▁11 669
▁heard 669
▁hodnoty 669
▁les 669
▁naz 669
▁těm 669
▁zatímco 669
yl 668
ěd 668
▁místní 668
▁rodin 668
něné 667
▁Our 667
▁committed 667
▁diskut 667
▁nejprve 667
▁postupu 667
▁pozor 667
liže 666
▁40 666
▁Italy 666
▁conclusion 666
▁nesou 666
▁product 666
▁rybář 666
▁te 666
▁avšak 665
▁calls 665
▁lidi 665
▁spotřebitele 665
▁High 664
▁Vítám 664
▁defend 664
▁dobr 664
▁zb 664
ená 663
fic 663
nějším 663
ovaný 663
▁Bank 663
▁Human 663
▁PPE 663
▁nabíd 663
▁Dnes 662
▁according 662
▁adapt 662
▁established 662
▁nejvíce 662
▁prax 662
▁pře 662
▁reality 662
▁sur 662
▁změn 662
▁Chtěla 661
▁SV 661
▁státní 661
▁zastav 661
dat 660
klad 660
▁benefits 660
▁cestov 660
▁dru 660
▁except 660
▁goods 660
▁sní 660
▁vliv 660
žené 659
▁prakt 659
acím 658
border 658
ha 658
ip 658
▁CS 658
▁developed 658
▁prost 658
▁regime 658
▁vztahů 658
▁úspěch 658
▁Když 657
▁May 657
▁caused 657
▁communication 657
▁nepod 657
▁předklád 657
▁sa 657
▁amount 656
▁emphasise 656
▁nicméně 656
▁systémy 656
▁takže 656
elling 655
ury 655
▁assess 655
▁ekolog 655
▁subjekt 655
▁určité 655
ade 654
▁immigration 654
▁mas 654
▁maďar 654
▁nek 654
▁přistěhovale 654
▁rel 654
day 653
▁LT 653
▁Market 653
▁dop 653
▁four 653
▁measure 653
▁naš 653
▁povinnost 653
▁sd 653
▁vynikající 653
▁vyžad 653
▁collect 652
▁fishing 652
▁personal 652
▁reducing 652
▁sam 652
▁vstoup 652
kami 651
▁comprehensive 651
▁globální 651
ass 650
▁Potřebujeme 650
▁disp 650
▁dnešní 650
▁koneč 650
anou 649
man 649
ést 649
▁Jsme 649
▁almost 649
▁dialog 649
▁left 649
▁obtíž 649
▁par 649
koum 648
▁související 648
▁sí 648
▁vytvář 648
▁active 647
▁dostate 647
▁království 647
▁nelze 647
▁svobodu 647
▁internet 646
▁shown 646
ito 645
uto 645
čet 645
▁Rovněž 645
▁zapoj 645
ri 644
vo 644
▁EP 644
▁administrative 644
▁služb 644
▁znepokoj 644
▁života 644
▁Christian 643
▁Mediterranean 643
▁message 643
▁outside 643
▁representatives 643
▁vyšší 643
▁zúčast 643
▁December 642
▁movement 642
▁parliamentary 642
▁typ 642
▁třetích 642
▁zvýšit 642
jen 641
▁ 641
▁záru 641
hal 640
▁celém 640
▁důležitou 640
▁norm 640
▁presented 640
▁skon 640
▁vést 640
▁kolegové 639
▁leg 639
▁podmínk 639
▁took 639
uš 638
▁dalším 638
▁discuss 638
▁platí 638
▁povinnosti 638
▁přímo 638
▁remind 638
▁spoj 638
ctví 637
ever 637
ovaná 637
▁Convention 637
▁nejvyšší 637
▁prices 637
▁zab 637
▁zauj 637
▁ústav 637
▁řeč 637
G 636
▁efficient 636
▁ov 636
▁podstat 636
▁zůst 636
▁economies 635
▁giving 635
▁měnov 635
▁nature 635
▁offici 635
jet 634
▁právech 634
▁příští 634
▁výjim 634
▁capacity 633
lit 632
ody 632
▁důchod 632
▁příklad 632
▁rozvoji 632
▁správně 632
▁výmě 632
▁věnovat 632
▁zaved 632
ked 631
ties 631
▁Regulation 631
▁age 631
▁cultural 631
▁dosaženo 631
▁im 631
▁léč 631
▁nového 631
▁remember 631
▁soused 631
ismu 630
ujícím 630
▁brought 630
▁novou 630
▁rem 630
ind 629
▁SMEs 629
▁forest 629
▁rozpravu 629
▁export 628
▁factor 628
▁někter 628
▁represents 628
▁využití 628
urt 627
▁Economic 627
▁establishing 627
▁leave 627
▁pomocí 627
hen 626
▁Není 626
▁behind 626
▁remains 626
ále 625
▁Ráda 625
▁head 625
▁konkrétně 625
▁počtu 625
▁vel 625
▁zmí 625
▁závazky 625
zv 624
▁facing 624
▁harmoniz 624
▁nezávis 624
▁steps 624
▁stimul 624
▁uk 624
▁vod 624
amp 623
si 623
▁Egypt 623
▁Europeans 623
▁MEPs 623
▁amend 623
▁att 623
▁critic 623
▁jejím 623
▁mezinárodních 623
▁přistoupení 623
▁uj 623
▁vrát 623
▁6 622
▁commitments 622
▁concrete 622
▁patients 622
▁politickou 622
▁používání 622
▁zajistí 622
ben 621
cks 621
▁investig 621
▁stage 621
vis 620
▁Of 620
▁reagovat 620
nač 619
unt 619
yst 619
▁Belarus 619
▁People 619
▁dříve 619
▁particip 619
▁precisely 619
▁spotřeb 619
▁zne 619
▁čel 619
T 618
ious 618
pis 618
▁Moreover 618
▁appe 618
▁discussions 618
▁posil 618
▁unacceptable 618
▁žádný 618
namen 617
▁Souhlasím 617
▁closely 617
▁experience 617
▁odpověď 617
▁try 617
stu 616
▁self 616
▁viol 616
ude 615
▁Bělorus 615
▁De 615
▁jednu 615
▁liber 615
▁live 615
▁mlu 615
▁obtain 615
▁Unfortunately 614
▁kom 614
alised 613
▁calling 613
▁diskusi 613
▁mechanisms 613
▁nezávisl 613
▁producers 613
▁projekty 613
▁rating 613
▁six 613
▁stanoví 613
nějších 612
▁doubt 612
▁family 612
▁nevy 612
▁prepar 612
▁přechod 612
níci 611
so 611
▁aktu 611
▁independent 611
▁přesvědčena 611
▁výši 611
▁lé 610
▁programů 610
▁těmito 610
▁vykon 610
▁údaje 610
ející 609
rod 608
▁created 608
▁nedostate 608
▁snaží 608
▁technologies 608
▁vysok 608
▁znamen 608
cie 607
ětem 607
▁Sk 607
▁cap 607
▁da 607
▁evropským 607
▁protest 607
▁prvním 607
▁purs 607
▁referendum 607
▁weeks 607
▁accordance 606
su 605
▁EIB 605
▁finančního 605
▁jelikož 605
▁naléhav 605
▁och 605
▁povol 605
▁přínos 605
▁rozvojové 605
▁slovy 605
elu 604
▁hospodářského 604
▁minorities 604
▁postupů 604
▁provides 604
▁zt 604
▁úmlu 604
▁credit 603
▁pochyb 603
▁prostoru 603
▁receive 603
▁takes 603
▁veškeré 603
▁změnu 603
▁Měli 602
▁dela 602
▁nikdy 602
▁pomoh 602
▁sice 602
▁zahranič 602
ech 601
▁jedna 601
▁ovšem 601
▁usil 601
ickými 600
▁Něk 600
▁ať 600
▁jí 600
▁rovnová 600
▁ti 600
▁vyč 600
▁úvahu 600
▁100 599
▁Last 599
▁challenge 599
▁crime 599
▁passengers 599
▁beyond 598
▁chce 598
▁child 598
▁expressed 598
▁míry 598
▁porušování 598
▁zaměstnanost 598
koli 597
ějí 597
▁16 597
▁18 597
▁debt 597
▁mar 597
▁modern 597
▁nebylo 597
▁tell 597
▁týden 597
▁žij 597
ativ 596
áni 596
▁plans 596
▁rate 596
▁vyře 596
oupení 595
▁Evropským 595
▁alespoň 595
▁looking 595
▁minist 595
▁normy 595
▁potřebu 595
▁task 595
land 594
pre 594
zení 594
▁Smlouvy 594
▁determin 594
▁poté 594
▁technologií 594
▁500 593
▁dialogu 593
▁fa 593
▁nejlepší 593
▁organiz 593
▁rozhodně 593
▁trval 593
▁vis 593
▁zvířat 593
▁zvý 593
arch 592
áno 592
▁detail 592
▁hospodářských 592
▁jaderné 592
▁negativ 592
▁neměli 592
▁suffer 592
▁travel 592
stup 591
▁af 591
▁iniciativ 591
▁patří 591
▁safeguard 591
▁vál 591
zi 590
▁Representative 590
▁app 590
▁vyvážen 590
lub 589
olog 589
▁jest 589
▁nest 589
▁podíl 589
▁raised 589
▁received 589
ged 588
▁ful 588
▁humanitární 588
▁nástrojů 588
▁využívat 588
cement 587
eful 587
louží 587
pov 587
ult 587
▁automobil 587
▁def 587
▁equality 587
▁instituce 587
▁nerov 587
▁obsahuje 587
▁sl 587
▁targets 587
▁trp 587
ada 586
aving 586
king 586
▁eurozóny 586
▁experien 586
▁podep 586
▁péče 586
▁reformy 586
▁upon 586
ides 585
▁hop 585
▁prepared 585
▁scientific 585
▁společnou 585
▁transparentnost 585
▁zp 585
▁depend 584
▁instead 584
▁rost 584
oty 583
ác 583
▁2012 583
▁Ad 583
▁Trade 583
▁conclude 583
▁extend 583
▁tal 583
▁vůbec 583
▁části 583
atory 582
chod 582
itutional 582
oni 582
▁II 582
▁competen 582
▁dostat 582
▁douf 582
▁equ 582
▁ident 582
▁rozvojových 582
▁rybolov 582
▁řada 582
ang 581
do 581
▁return 581
▁slova 581
▁turn 581
▁ček 581
io 580
oru 580
tu 580
ěje 580
▁conduct 580
▁diplomat 580
▁financ 580
▁různ 580
▁všemi 580
▁řek 580
hood 579
ision 579
▁Bulhar 579
▁Vice 579
▁agencies 579
▁banks 579
▁evropská 579
▁měst 579
▁requires 579
▁similar 579
▁tro 579
▁zakáz 579
▁zboží 579
hor 578
▁Výbor 578
▁překon 578
ere 577
ělo 577
▁chránit 577
▁competitive 577
▁elektrár 577
▁materi 577
▁osoby 577
etr 576
lem 576
nů 576
por 576
vol 576
▁anti 576
▁nam 576
▁připoj 576
▁sebe 576
rok 575
▁autor 575
▁despite 575
▁either 575
▁prvé 575
▁předložila 575
▁regiony 575
▁úprav 575
▁Bulgaria 574
▁contract 574
▁legislativní 574
▁mov 574
▁odpovídající 574
▁rámce 574
▁čer 574
ives 573
▁contain 573
▁difficulties 573
▁domní 573
▁hovořit 573
▁mis 573
▁navíc 573
fully 572
▁uprchlí 572
▁vzn 572
livé 571
čas 571
▁dob 571
▁opposition 571
▁sebou 571
▁terrorism 571
▁tot 571
▁západ 571
uro 570
utes 570
ér 570
▁Spojené 570
▁musím 570
▁obran 570
▁potřebuje 570
eck 569
▁14 569
▁propos 569
▁strongly 569
▁technolog 569
▁veřejného 569
▁land 568
▁nebyla 568
▁poskytování 568
▁recommendations 568
▁voz 568
▁zpět 568
yers 567
ži 567
▁21 567
▁jaký 567
▁ostat 567
▁potřebují 567
▁stabil 567
▁zajím 567
chy 566
▁9 566
▁Maďar 566
▁přist 566
▁rozsáh 566
▁zem 566
▁Spojených 565
▁bojovat 565
▁cestujících 565
▁disaster 565
ats 564
řad 564
▁log 564
▁mor 564
▁přezkum 564
▁stra 564
▁unfortunately 564
▁urych 564
ahu 563
▁60 563
▁achieving 563
▁discussed 563
▁exchange 563
▁poblahopř 563
▁scope 563
▁sent 563
▁wh 563
ply 562
stvím 562
▁border 562
▁institucí 562
▁introduction 562
▁sank 562
arily 561
ately 561
istánu 561
ychom 561
▁Action 561
▁Although 561
▁Israel 561
▁akt 561
▁atta 561
▁circumstances 561
▁continu 561
▁hear 561
▁rev 561
hled 560
▁cause 560
▁enter 560
▁vedoucí 560
níky 559
▁ALDE 559
▁commercial 559
▁hor 559
▁minim 559
▁mutual 559
▁nak 559
▁zmín 559
bor 558
leně 558
▁burden 558
▁conclusions 558
▁deset 558
▁dochází 558
▁kterém 558
▁old 558
▁price 558
▁signál 558
chop 557
▁involv 557
▁oh 557
▁sources 557
▁subsidiarity 557
H 556
O 556
rac 556
▁And 556
▁Partnership 556
▁party 556
▁press 556
▁sled 556
▁vědeck 556
▁Čí 556
▁chvíli 555
▁patent 555
▁setk 555
▁vyn 555
▁Írán 555
▁účinnost 555
▁banky 554
▁defence 554
▁dohledu 554
▁neighbour 554
▁obchodování 554
▁přek 554
▁systémů 554
▁věřím 554
atele 553
ert 553
▁World 553
▁trust 553
ges 552
▁13 552
▁Bud 552
▁beginning 552
▁dodávek 552
▁nemohou 552
▁note 552
▁posto 552
▁proh 552
▁projektů 552
▁ruk 552
▁stejné 552
▁tri 552
▁June 551
▁Sch 551
▁Spanish 551
▁jednodu 551
▁rod 551
▁situ 551
▁všeobec 551
▁zát 551
cies 550
edly 550
kách 550
▁Jedná 550
▁March 550
▁Mus 550
▁objev 550
▁practices 550
▁urgent 550
▁uvedl 550
alth 549
ěly 549
▁Máme 549
▁away 549
▁kritéria 549
▁structural 549
▁zm 549
▁zrušení 549
cer 548
yed 548
▁Doh 548
▁Rom 548
▁Rus 548
▁chang 548
▁claim 548
▁fakt 548
▁nen 548
▁programy 548
▁provision 548
▁mimořádně 547
▁národní 547
▁příspěv 547
▁smluv 547
▁vážně 547
ased 546
nili 546
še 546
▁Nations 546
▁confidence 546
▁exclus 546
▁jistě 546
▁knowledge 546
▁lidmi 546
▁hlavních 545
▁intended 545
▁mechanismus 545
▁rámc 545
▁zaměřit 545
ink 544
▁demokratické 544
▁jinými 544
▁specifically 544
▁trying 544
▁vyvol 544
▁zabezpečení 544
▁Foreign 543
▁France 543
▁listen 543
▁nejdůležitější 543
▁nákladů 543
▁otázkách 543
▁přip 543
hrad 542
ěst 542
▁hospodářská 542
▁pra 542
▁sitting 542
▁socialist 542
▁současně 542
emu 541
práv 541
▁Firstly 541
▁Programme 541
▁launch 541
▁otázkou 541
▁ple 541
▁společen 541
▁zaměstn 541
elo 540
losti 540
▁Min 540
▁design 540
▁farm 540
▁informa 540
▁maxim 540
▁různé 540
▁simpli 540
▁2004 539
▁enfor 539
▁hranice 539
▁mil 539
▁wanted 539
orem 538
ries 538
áte 538
▁East 538
▁Mám 538
▁annual 538
▁dosáhli 538
▁směř 538
▁společ 538
▁spolupracovat 538
▁paid 537
▁přesvědč 537
▁rozman 537
▁snaž 537
▁summitu 537
▁úřadující 537
zy 536
coming 535
eh 535
▁fri 535
▁podpoře 535
▁příležitostí 535
ováni 534
šet 534
▁building 534
▁death 534
▁decide 534
▁společný 534
▁sufficient 534
▁zad 534
▁Dovolte 533
▁participation 533
ian 532
▁přizpůsobení 532
▁undert 532
iving 531
luv 531
čná 531
▁finan 531
▁ovliv 531
▁projevu 531
▁side 531
▁zohled 531
▁zítra 531
▁chudoby 530
▁considered 530
▁forms 530
▁prok 530
▁regionů 530
▁vztahu 530
▁zdůraz 530
▁závazek 530
▁článku 530
něny 529
▁Eastern 529
▁applic 529
▁approved 529
▁counter 529
▁dát 529
▁multi 529
▁republ 529
▁transp 529
▁upřím 529
▁vešker 529
▁join 528
▁zahr 528
▁záv 528
ident 527
ismus 527
itors 527
▁colleague 527
▁else 527
▁podařilo 527
▁výkon 527
pu 526
▁improved 526
▁negative 526
▁overall 526
▁tis 526
alisation 525
▁Justice 525
▁Parlamentem 525
▁eng 525
▁vnitřního 525
ály 524
▁Irish 524
▁elektron 524
▁firm 524
▁institutional 524
▁politici 524
▁přiná 524
▁recognise 524
▁reinfor 524
▁uzavření 524
▁vylou 524
▁zdrž 524
President 523
rad 523
▁cho 523
▁cooper 523
▁mezinárodního 523
▁měsíců 523
▁properly 523
▁průmyslov 523
▁stojí 523
▁tur 523
▁vyví 523
▁zdůraznil 523
ládá 522
omo 522
ought 522
ýk 522
▁Chamber 522
▁families 522
▁lik 522
▁označ 522
▁postav 522
▁představují 522
▁seznam 522
▁spotřebitel 522
▁sum 522
▁uh 522
▁vzd 522
▁aspekt 521
▁fall 521
▁introduce 521
▁odstran 521
▁červ 521
hou 520
▁Nap 520
▁acquis 520
▁complete 520
▁terorismu 520
▁uskuteč 520
▁vědom 520
dění 519
ěz 519
▁Dále 519
▁bodies 519
▁lety 519
▁napl 519
▁náklad 519
▁potvrd 519
▁sobě 519
▁umožňuje 519
▁útok 519
kové 518
▁celou 518
▁directly 518
▁higher 518
▁intend 518
▁jednotného 518
▁příčin 518
▁relationship 518
▁rozv 518
▁schengen 518
acy 517
lech 517
▁Při 517
▁demonst 517
▁happen 517
▁investments 517
▁minulosti 517
▁přispět 517
▁výsledek 517
▁španěl 517
ís 516
▁Navíc 516
▁gender 516
▁peněz 516
▁vyjádřil 516
erous 515
ond 515
▁FI 515
▁increasingly 515
▁poor 515
▁přer 515
▁thre 515
ově 514
▁nezaměstnan 514
▁ochrana 514
▁ohro 514
▁require 514
▁tim 514
▁úkol 514
▁úř 514
ata 513
port 513
▁17 513
▁activity 513
▁perform 513
▁run 513
▁transfer 513
▁word 513
▁čelí 513
aged 512
jší 512
kod 512
not 512
▁budu 512
▁forget 512
▁ochrán 512
▁odved 512
▁zajiště 512
enti 511
vent 511
▁Alliance 511
▁nim 511
▁posouzení 511
▁venkov 511
▁ways 511
▁Brit 510
▁En 510
▁WTO 510
▁konzulta 510
▁obchodních 510
▁rozpravě 510
▁soustřed 510
▁spo 510
▁udál 510
▁volby 510
▁zveřej 510
▁alternative 509
▁extent 509
▁interven 509
▁sdělení 509
▁snížit 509
▁středních 509
▁treaty 509
▁výroby 509
čených 508
▁added 508
▁criminal 508
▁ga 508
▁obzvláště 508
▁poskytovat 508
▁prior 508
▁rail 508
▁realist 508
▁znění 508
U 507
▁aims 507
▁balíčku 507
▁dál 507
▁nemoh 507
▁obtížné 507
▁rise 507
▁toler 507
▁zájem 507
azuje 506
ign 506
inu 506
nat 506
▁Ladies 506
▁Turec 506
▁pap 506
▁přez 506
▁seriously 506
ared 505
ickém 505
rib 505
way 505
▁Přesto 505
▁disap 505
▁em 505
▁ukazuje 505
ivat 504
áli 504
▁Srb 504
▁Tibet 504
▁connection 504
▁dosp 504
▁mandate 504
▁něj 504
▁problémem 504
▁sexual 504
▁total 504
▁zájm 504
ovými 503
▁inst 503
▁komisaře 503
▁kromě 503
▁manner 503
▁projektu 503
▁půj 503
▁technology 503
▁většin 503
ends 502
over 502
tech 502
čním 502
▁Zároveň 502
▁payments 502
▁read 502
▁vyzývá 502
ring 501
tr 501
ících 501
íz 501
▁Avšak 501
▁Central 501
▁ambiciózní 501
▁discussing 501
▁komun 501
▁moc 501
▁nadcházející 501
▁peč 501
▁poc 501
▁setting 501
▁sledovat 501
▁vyřešit 501
▁znal 501
eva 500
▁Chci 500
▁bilateral 500
▁ekonomiky 500
▁entry 500
▁fail 500
▁obnovy 500
▁přeh 500
▁totiž 500
▁užite 500
▁2005 499
▁nedávno 499
▁poslan 499
▁zdá 499
pan 498
▁Děkuji 498
▁cht 498
▁formul 498
▁inovace 498
▁vhodné 498
▁živ 498
▁Do 497
▁adequate 497
▁begin 497
▁documents 497
▁dokon 497
▁dostatečně 497
cení 496
šel 496
▁contribut 496
▁nízk 496
▁ostatních 496
hodné 495
▁ir 495
▁pe 495
▁polož 495
▁propose 495
▁provést 495
▁začlenění 495
▁zneuž 495
▁úloh 495
pen 494
vit 494
řes 494
▁Indeed 494
▁Nav 494
▁fo 494
▁leaders 494
▁pořád 494
▁šk 494
etting 493
eč 493
ug 493
▁Evropsk 493
▁Hungary 493
▁Pan 493
▁domestic 493
▁přijala 493
▁přiměř 493
▁renewable 493
▁sítě 493
▁udě 493
▁uplatň 493
▁urge 493
▁water 493
▁Již 492
▁acts 492
▁hospodářský 492
▁rapid 492
▁reduced 492
▁samostat 492
jedn 491
ome 491
ova 491
žených 491
▁Moh 491
▁dev 491
▁laws 491
▁nesmírně 491
▁provádět 491
▁purpose 491
▁sexu 491
▁účinné 491
ock 490
▁Japan 490
▁allowed 490
▁lat 490
▁perspective 490
▁prof 490
▁výsled 490
▁zhor 490
tí 489
▁Germany 489
▁Gre 489
▁Hlas 489
▁fre 489
▁language 489
▁ok 489
▁povinností 489
▁protecting 489
stva 488
▁1. 488
▁CAP 488
▁Svět 488
▁duty 488
▁evropsk 488
▁exerc 488
▁nemají 488
▁poskytuje 488
▁požádat 488
▁přesně 488
▁solidaritu 488
álnímu 487
▁ECR 487
▁culture 487
▁pas 487
▁podně 487
▁povz 487
▁skutečné 487
▁threat 487
▁zmínil 487
ency 486
▁Sever 486
▁ekonomických 486
▁forces 486
▁independence 486
▁letecké 486
▁manufact 486
▁prostor 486
▁reading 486
ality 485
fika 485
kových 485
▁Western 485
▁ceny 485
▁early 485
▁electric 485
▁guarantees 485
▁introduced 485
▁opráv 485
▁prostřed 485
▁sovereign 485
▁výv 485
igh 484
▁drž 484
▁former 484
▁nebyly 484
▁obligations 484
▁tackle 484
▁urč 484
▁vyzývám 484
inut 483
itions 483
lep 483
▁infrastruktury 483
▁organizací 483
▁smyslu 483
▁trhy 483
▁vyjadř 483
▁ztrát 483
už 482
▁Lib 482
▁aff 482
▁gives 482
▁jednoho 482
▁někteří 482
▁obv 482
▁propu 482
▁souvis 482
▁vnitř 482
evrop 481
▁Strategy 481
▁Thank 481
▁cestu 481
▁desi 481
▁freedoms 481
▁ni 481
▁roky 481
▁suffering 481
▁výrobky 481
▁wrong 481
▁zjednodu 481
dle 480
ida 480
ovaného 480
pa 480
▁19 480
▁Prime 480
▁Re 480
▁Security 480
▁declar 480
▁elements 480
▁history 480
▁každém 480
▁mandát 480
▁mimořád 480
▁mlé 480
▁míře 480
▁odliš 480
▁religious 480
▁resol 480
▁via 480
▁vstup 480
▁zachování 480
▁zapojení 480
vala 479
▁Since 479
▁deliver 479
▁hlasovala 479
▁jednoznačně 479
▁spoleh 479
▁víte 479
▁výhrad 479
Office 478
hold 478
ire 478
mí 478
▁Ot 478
▁agentury 478
▁attempt 478
▁květ 478
▁leading 478
▁pět 478
▁přítom 478
▁srovn 478
aje 477
finan 477
oly 477
vím 477
▁build 477
▁jasný 477
▁režimu 477
▁výzvy 477
istit 476
čkoli 476
řízení 476
▁Dámy 476
▁Swedish 476
▁home 476
▁našim 476
▁nár 476
▁režim 476
▁weak 476
▁Bylo 475
▁conference 475
▁developments 475
▁hlasovali 475
▁pozdě 475
▁shows 475
▁tisí 475
▁voice 475
▁územ 475
▁česk 475
hé 474
én 474
ůvod 474
▁emerg 474
▁min 474
▁naléhavě 474
▁navrhuje 474
▁přesvěd 474
▁send 474
▁spol 474
▁významné 474
dit 473
hop 473
lines 473
▁Serbia 473
▁Zadruhé 473
▁jud 473
▁pravid 473
▁technologie 473
klád 472
ters 472
▁Tím 472
▁establishment 472
▁influence 472
▁mist 472
▁pravda 472
▁vč 472
něno 471
▁Mar 471
▁Němec 471
▁Věřím 471
▁differences 471
▁enhan 471
▁immediately 471
▁pal 471
▁postih 471
▁provoz 471
▁related 471
▁slov 471
▁useful 471
▁zabránit 471
aných 470
ikou 470
rement 470
▁UK 470
▁accident 470
▁firstly 470
▁immediate 470
▁konat 470
▁nepřijatelné 470
▁podvod 470
▁rightly 470
▁zj 470
▁ře 470
ders 469
▁Kodani 469
▁Radu 469
▁asking 469
▁odv 469
▁podí 469
▁reg 469
▁shadow 469
▁views 469
▁změnit 469
hts 468
wise 468
▁80 468
▁Single 468
▁analý 468
▁balanced 468
▁dovolte 468
▁hr 468
▁hy 468
▁posílen 468
▁produce 468
▁raise 468
▁sektoru 468
▁tudíž 468
ib 467
ployed 467
skem 467
▁Pos 467
▁announ 467
▁comments 467
▁důležitým 467
▁důstoj 467
▁hlavním 467
▁institucion 467
▁ma 467
▁navrž 467
▁produktů 467
▁spojených 467
▁tématu 467
▁škol 467
raž 466
ženy 466
▁complex 466
▁cy 466
▁dvěma 466
▁integrace 466
▁ko 466
▁málo 466
▁obětí 466
▁všechno 466
▁úst 466
▁Španěl 466
livě 465
▁honourable 465
▁kapac 465
▁nalézt 465
▁ode 465
▁prezidenta 465
▁trag 465
▁content 464
▁integrated 464
▁národů 464
▁prů 464
▁regret 464
▁wants 464
▁whom 464
▁zpravodaji 464
▁First 463
▁January 463
▁Latin 463
▁Policy 463
▁Summit 463
▁half 463
▁názory 463
▁přesto 463
oliv 462
rage 462
ádu 462
▁Palest 462
▁animal 462
▁don 462
▁fin 462
▁gu 462
▁krokem 462
▁zastup 462
ený 461
oko 461
▁Mno 461
▁azyl 461
▁ekonomické 461
▁rea 461
▁zbran 461
erve 460
▁contrib 460
▁includes 460
▁nepří 460
▁sanctions 460
▁stanovit 460
▁čtení 460
▁čímž 460
íc 459
▁later 459
▁prot 459
▁přej 459
▁vulnerable 459
abil 458
ctor 458
lement 458
▁absolut 458
▁ahead 458
▁contact 458
▁finančním 458
▁nor 458
▁supervision 458
▁velkým 458
isten 457
▁přistěhoval 457
▁švéd 457
if 456
ovanou 456
íná 456
▁absta 456
▁convinced 456
▁fondy 456
▁němu 456
▁pravděpodobně 456
▁zajistili 456
called 455
raj 455
▁Kon 455
▁Van 455
▁alone 455
▁event 455
▁fort 455
▁industrial 455
▁involvement 455
▁plenary 455
▁přeshraniční 455
ator 454
ension 454
kr 454
ovin 454
ule 454
using 454
ární 454
▁conclud 454
▁posíl 454
▁slož 454
den 453
ensive 453
ner 453
▁Service 453
▁closer 453
▁oprav 453
▁permanent 453
▁prohlás 453
▁spoč 453
▁teď 453
▁zabrán 453
▁zákaz 453
▁While 452
▁goes 452
▁guidelines 452
▁member 452
▁nesmíme 452
▁taxpa 452
▁značné 452
pp 451
▁aut 451
▁campaign 451
▁tvoří 451
▁velk 451
▁vnitrostát 451
erm 450
▁Fo 450
▁Irsku 450
▁Právě 450
▁acknow 450
▁jednom 450
▁strict 450
▁zacházení 450
▁zvlášt 450
něna 449
▁exactly 449
▁exploit 449
▁hrát 449
▁managed 449
▁persons 449
▁proceed 449
▁přijata 449
▁přizpůsob 449
▁reál 449
▁síly 449
▁transatlant 449
▁týkají 449
▁zdůrazn 449
▁úrovně 449
▁čist 449
ovo 448
▁býval 448
▁highly 448
▁místě 448
▁zřejmé 448
gl 447
isti 447
stech 447
yz 447
řej 447
▁dělat 447
▁justif 447
▁nezaměstnanosti 447
▁pozitiv 447
▁věn 447
▁coordin 446
▁facil 446
▁iniciativu 446
▁nabíz 446
▁situations 446
▁succeed 446
▁truly 446
▁vo 446
řím 445
▁consideration 445
▁dopady 445
▁emergen 445
▁expression 445
▁putting 445
itelných 444
ots 444
rych 444
▁French 444
▁aspekty 444
▁binding 444
▁chud 444
▁communities 444
▁intervention 444
▁princip 444
▁světové 444
▁tehdy 444
▁ší 444
vi 443
▁Ashtonová 443
▁Brussels 443
▁consolid 443
▁damage 443
▁dlouho 443
▁excess 443
▁genuine 443
▁jinak 443
▁polit 443
▁požadavek 443
▁prevention 443
▁slovo 443
ívání 442
če 442
▁Energy 442
▁ens 442
▁failed 442
▁net 442
▁outcome 442
▁practical 442
▁veřejnosti 442
aken 441
elem 441
uta 441
ázala 441
▁Lithu 441
▁centr 441
▁dealing 441
▁potřebné 441
▁recognition 441
▁type 441
▁amer 440
▁hodně 440
▁limited 440
▁method 440
▁probably 440
▁sněmov 440
▁statements 440
kon 439
měr 439
▁British 439
▁důkaz 439
▁expenditure 439
▁komplexní 439
▁oil 439
▁ot 439
▁rozdíly 439
▁vš 439
iable 438
ulture 438
▁Rusko 438
▁kup 438
▁nepos 438
▁preven 438
▁tool 438
▁řekla 438
▁říká 438
▁chá 437
▁facilitate 437
▁record 437
▁risks 437
▁symbol 437
rozen 436
umat 436
▁Kosovo 436
▁brzy 436
▁daně 436
▁grant 436
▁moje 436
▁omezen 436
▁oč 436
▁podnikům 436
▁pracov 436
▁ready 436
▁začít 436
▁zpravodajům 436
hs 435
point 435
▁horizont 435
▁name 435
▁námi 435
▁poslancům 435
▁publ 435
▁tolik 435
▁těší 435
anů 434
itou 434
▁Green 434
▁administrat 434
▁nas 434
▁oznám 434
▁plnění 434
▁pozměňovacích 434
▁zmír 434
are 433
iet 433
inian 433
▁Sw 433
▁celého 433
▁compens 433
▁constructive 433
▁dlu 433
▁dynam 433
▁elected 433
▁faced 433
▁jakožto 433
▁miss 433
▁prosazování 433
▁rizik 433
▁zř 433
▁bohat 432
▁demands 432
▁klad 432
▁regulatory 432
▁spoluprac 432
▁stat 432
▁vyjednávání 432
anci 431
itelně 431
uru 431
utions 431
ívat 431
čené 431
šlo 431
▁November 431
▁adv 431
▁cha 431
▁critical 431
▁date 431
▁daňových 431
▁důvěru 431
▁known 431
▁lost 431
▁navý 431
▁nebud 431
▁pohybu 431
▁potenci 431
▁předpoklad 431
▁red 431
▁stalo 431
▁stavu 431
▁svědky 431
▁zdůrazňuje 431
▁zjev 431
za 430
▁minority 430
▁obou 430
▁parts 430
▁transa 430
▁zjednodušení 430
nily 429
stat 429
žete 429
▁inovací 429
▁linked 429
▁mer 429
▁regula 429
▁stated 429
▁taková 429
▁zran 429
ilí 428
ček 428
▁Samozřejmě 428
▁Spain 428
▁bad 428
▁improvement 428
▁nebyl 428
▁observ 428
▁panem 428
▁prison 428
▁smysl 428
▁substanti 428
▁uvádí 428
▁zru 428
ike 427
řena 427
▁appeal 427
▁mys 427
hi 426
isku 426
luh 426
min 426
▁After 426
▁Zat 426
▁concent 426
▁dang 426
▁místopředsed 426
▁niž 426
▁politického 426
▁poruš 426
▁prioritou 426
▁přest 426
▁republiky 426
ato 425
emb 425
ety 425
zu 425
řené 425
▁důklad 425
▁důvěryhod 425
▁evaluation 425
▁fu 425
▁informed 425
▁jaderných 425
▁ner 425
▁upozornit 425
▁většinou 425
ekv 424
had 424
koliv 424
ward 424
▁Ky 424
▁Mezinárodní 424
▁Third 424
▁central 424
▁condemn 424
▁náz 424
▁ones 424
▁přestože 424
▁přiv 424
▁responsibil 424
▁zaměstnan 424
ó 423
▁Aby 423
▁German 423
▁income 423
▁kontakt 423
▁koordinace 423
▁kvality 423
▁najít 423
▁nation 423
▁uznání 423
▁začlen 423
▁úspor 423
0 422
otu 422
sa 422
▁chrán 422
▁fraud 422
▁goals 422
▁happened 422
▁koordinaci 422
▁svoji 422
▁vyjedn 422
▁zahrnuje 422
▁zby 422
ajících 421
nik 421
▁Chceme 421
▁energetickou 421
▁fiscal 421
▁growing 421
▁konkrét 421
▁odhodl 421
▁snižování 421
▁submitted 421
▁zprac 421
▁Řecku 421
cial 420
of 420
ísto 420
▁Chorvat 420
▁dobrovol 420
▁dopadu 420
▁grat 420
▁jejích 420
▁near 420
▁obsa 420
▁occas 420
▁politický 420
▁péči 420
▁som 420
▁sousedství 420
▁spirit 420
▁subst 420
▁uprav 420
E 419
oth 419
▁Tun 419
▁Všichni 419
▁Zap 419
▁migration 419
▁náležit 419
▁plynu 419
▁rele 419
▁čá 419
ards 418
arm 418
lig 418
▁Baroness 418
▁Croatia 418
▁cestě 418
▁kritéri 418
▁nepochybně 418
▁ohrož 418
▁příp 418
▁ret 418
▁zneči 418
istán 417
▁heart 417
▁lidové 417
▁minimální 417
▁port 417
▁předcház 417
▁tourism 417
▁věnov 417
ew 416
louch 416
ítat 416
▁cut 416
▁evropskými 416
▁failure 416
▁promotion 416
▁south 416
▁transak 416
▁Žád 416
ging 415
iction 415
oupit 415
sta 415
▁Liber 415
▁activ 415
▁becoming 415
▁brit 415
▁chance 415
▁cit 415
▁company 415
▁crimes 415
▁nalez 415
▁recognised 415
▁resolve 415
▁ser 415
▁worth 415
ležitostech 414
ženo 414
▁Pact 414
▁goal 414
▁healthcare 414
▁lar 414
▁něk 414
V 413
▁Japon 413
▁celý 413
▁hovoříme 413
▁proport 413
▁sdí 413
▁vehicles 413
▁vzdělání 413
álů 412
▁External 412
▁Zá 412
▁appre 412
▁enjo 412
▁každého 412
▁mat 412
▁politická 412
▁použití 412
▁předsedy 412
▁ul 412
▁uvád 412
▁vot 412
▁začátku 412
ured 411
▁Pap 411
▁Unii 411
▁dř 411
▁foc 411
▁institution 411
▁plateb 411
▁předm 411
▁žádost 411
▁choice 410
▁dead 410
▁delegation 410
▁doposud 410
▁každé 410
▁lev 410
▁nejist 410
▁někdy 410
▁partnery 410
▁produkty 410
▁přem 410
▁rada 410
▁school 410
▁takový 410
▁thereby 410
▁trafficking 410
opak 409
ědom 409
▁Ale 409
▁budov 409
▁consensus 409
▁předpis 409
▁reakci 409
▁události 409
▁viz 409
▁volb 409
vám 408
čných 408
▁Turecko 408
▁inf 408
▁konflikt 408
▁lab 408
ades 407
▁Exist 407
▁Podporuji 407
▁dopravu 407
▁mysli 407
▁nástrojem 407
▁otáz 407
▁sledování 407
▁speaking 407
▁společných 407
▁zmínit 407
▁času 407
cion 406
▁Součas 406
▁bringing 406
▁francouz 406
▁neú 406
▁pohyb 406
▁přitom 406
▁rozpočtové 406
▁spent 406
▁řádu 406
enou 405
hok 405
old 405
ych 405
▁causes 405
▁doub 405
▁functioning 405
▁helping 405
▁lidské 405
▁maximum 405
▁ofici 405
▁podobě 405
▁pravomocí 405
▁signal 405
▁výsledků 405
▁řádně 405
jm 404
▁Fond 404
▁balíček 404
▁dimension 404
▁disc 404
▁easy 404
▁kolegům 404
▁komunika 404
▁listopadu 404
▁lod 404
▁neod 404
▁novým 404
▁obviously 404
▁organised 404
▁rates 404
▁rych 404
▁uspokoj 404
dou 403
dí 403
nám 403
pat 403
▁Ir 403
▁Some 403
▁Stockholm 403
▁coordinated 403
▁definit 403
▁flexibility 403
▁nehod 403
▁positions 403
▁předchozí 403
▁regular 403
▁repla 403
▁sli 403
▁thousands 403
▁velkých 403
▁violations 403
▁významný 403
▁železni 403
▁žádná 403
ases 402
něných 402
ord 402
▁Mid 402
▁happy 402
▁oz 402
▁povin 402
▁sav 402
▁stronger 402
▁umožnit 402
ith 401
ught 401
▁Poland 401
▁aspect 401
▁deleg 401
▁moder 401
▁potenciál 401
▁skutečnou 401
▁welcom 401
▁worked 401
▁zaměstnání 401
▁Řecko 401
AS 400
esm 400
ino 400
iva 400
urance 400
ívají 400
▁Greek 400
▁azylov 400
▁bro 400
▁buildings 400
▁consum 400
▁fázi 400
▁happening 400
▁introdu 400
▁opening 400
▁thinking 400
▁vystav 400
oke 399
wide 399
▁0 399
▁Lisabonskou 399
▁Organisation 399
▁appoint 399
▁doj 399
▁dojde 399
▁obecně 399
esta 398
ht 398
▁Balt 398
▁Frontex 398
▁authority 398
▁consistent 398
▁oživ 398
▁refugees 398
▁smrti 398
▁stínov 398
▁řík 398
iry 397
ula 397
▁SZP 397
▁dvoj 397
▁ministr 397
▁nezbytná 397
▁nároč 397
▁příj 397
▁sensitive 397
▁účet 397
řeji 396
▁Stability 396
▁baron 396
▁cou 396
▁element 396
▁mechanismu 396
▁numerous 396
▁usilovat 396
▁účinně 396
▁Cílem 395
▁animals 395
▁deficit 395
▁domácí 395
▁eurozón 395
▁fi 395
▁ideas 395
▁network 395
▁occur 395
▁supports 395
▁territorial 395
▁trhů 395
▁va 395
aty 394
ujete 394
▁Com 394
▁Given 394
▁dneš 394
▁obdrž 394
▁směrnic 394
▁vývoje 394
prve 393
▁Boh 393
▁bear 393
▁nacház 393
▁zachovat 393
▁zah 393
eg 392
▁Many 392
▁disasters 392
▁dub 392
▁jedno 392
▁pollut 392
▁sho 392
▁ultimately 392
▁venkova 392
▁zvýš 392
▁čem 392
ads 391
based 391
dělení 391
imi 391
ress 391
urch 391
▁hodnotu 391
▁neexistuje 391
▁největ 391
▁odpad 391
▁přines 391
▁připomenout 391
aze 390
mer 390
řel 390
▁America 390
▁equip 390
▁křesťan 390
▁parlamentem 390
▁případů 390
▁shromáž 390
▁slab 390
▁volič 390
▁vyj 390
aná 389
ráv 389
ěti 389
▁Balk 389
▁analysis 389
▁jed 389
▁kandidát 389
▁přibližně 389
▁příkladem 389
▁reference 389
▁riziko 389
▁table 389
inou 388
ori 388
ugh 388
ón 388
▁Já 388
▁delega 388
▁int 388
▁mladých 388
▁můj 388
▁presid 388
▁výsledkem 388
mat 387
váří 387
▁23 387
▁Commun 387
▁Kaž 387
▁adopting 387
▁aktivní 387
▁attack 387
▁constant 387
▁construction 387
▁klíčové 387
▁leadership 387
▁sometimes 387
▁uvést 387
aging 386
jas 386
poč 386
yk 386
▁2000 386
▁Bez 386
▁HDP 386
▁Vážený 386
▁Závě 386
▁blí 386
▁cíli 386
▁ethnic 386
▁jednáních 386
▁obstac 386
▁police 386
▁čís 386
nutím 385
▁Afghán 385
▁aliance 385
▁exc 385
▁flow 385
▁mig 385
▁pomůže 385
▁prospě 385
▁provedení 385
▁soutěže 385
▁struct 385
pochyb 384
ěny 384
▁24 384
▁automat 384
▁bankov 384
▁nikoliv 384
▁office 384
▁specul 384
▁stabiliz 384
▁systemat 384
▁unable 384
▁vyšetř 384
▁úřed 384
rají 383
ýb 383
▁Pakistan 383
▁Středomoří 383
▁Všech 383
▁coh 383
▁continues 383
▁dobrou 383
▁evidence 383
▁insist 383
▁komisi 383
▁konci 383
▁kvalit 383
▁paragraph 383
▁svými 383
▁takových 383
▁věz 383
hají 382
ighted 382
rant 382
ějším 382
▁Pakt 382
▁arm 382
▁beh 382
▁count 382
▁měsí 382
▁resolut 382
▁ru 382
▁společná 382
▁zůstat 382
ex 381
istic 381
▁Act 381
▁cla 381
▁daleko 381
▁mysl 381
▁osvěd 381
▁pohlaví 381
▁zdrav 381
▁zprav 381
▁ALE 380
▁Ar 380
▁Musím 380
▁addressed 380
▁dohled 380
▁firmly 380
▁konkrétních 380
▁nikdo 380
▁odstranění 380
▁organisation 380
▁předložit 380
▁přich 380
▁territory 380
▁výdajů 380
▁významnou 380
▁zaznamen 380
▁člov 380
inty 379
liance 379
other 379
▁African 379
▁Ruskem 379
▁ability 379
▁agent 379
▁aw 379
▁charakter 379
▁election 379
▁inclusion 379
▁potrav 379
▁prosím 379
▁redund 379
▁solidar 379
▁Česk 379
kat 378
lední 378
ozu 378
ss 378
uj 378
řské 378
▁advoc 378
▁expected 378
▁jednotlivé 378
▁korup 378
▁mass 378
▁mužů 378
▁norem 378
▁příštích 378
▁secure 378
▁smlouvě 378
▁vypořád 378
▁wel 378
▁willing 378
▁účasti 378
▁činností 378
áže 377
▁GDP 377
▁lim 377
▁pad 377
▁stranu 377
▁vlastně 377
▁vysoce 377
erty 376
erv 376
átku 376
žití 376
▁evalu 376
▁investiční 376
▁konference 376
▁poškoz 376
▁slou 376
▁strana 376
▁vedení 376
▁200 375
▁Dru 375
▁chudobě 375
▁path 375
▁porušení 375
▁promis 375
▁shared 375
▁stávajících 375
ivu 374
zit 374
▁Verts 374
▁advantage 374
▁character 374
▁dvoustran 374
▁fungovat 374
▁jednotný 374
▁overcome 374
▁plural 374
▁produced 374
▁prosperity 374
▁předpok 374
▁přijali 374
▁sami 374
▁spotřebitelé 374
▁trž 374
▁výše 374
▁zasáh 374
rang 373
▁Tunisia 373
▁clari 373
▁diskriminace 373
▁druhou 373
▁financí 373
▁harm 373
▁něm 373
▁pruž 373
▁understanding 373
▁Aud 372
▁Italian 372
▁barri 372
▁debates 372
▁diskus 372
▁mnohé 372
▁naopak 372
▁obligation 372
▁sdě 372
▁tac 372
▁vysokou 372
▁zaměstnanců 372
ovacím 371
ued 371
ázal 371
▁Křesťan 371
▁October 371
▁Tě 371
▁rozm 371
▁sama 371
arian 370
justment 370
mit 370
nem 370
řaz 370
▁běž 370
▁earlier 370
▁el 370
▁jiného 370
▁měsících 370
▁proběh 370
▁recommendation 370
▁referred 370
▁revision 370
▁stanoviska 370
▁starting 370
poko 369
éž 369
▁Vážen 369
▁concept 369
▁easier 369
▁month 369
▁ochran 369
▁protected 369
▁seem 369
▁stabilitu 369
▁strukturální 369
▁tab 369
▁vybud 369
▁vyzý 369
fil 368
idel 368
que 368
rd 368
▁Nevertheless 368
▁brán 368
▁examin 368
▁granted 368
▁har 368
▁konstat 368
▁mid 368
▁mírov 368
▁sel 368
▁spekul 368
▁structure 368
▁urban 368
▁vycház 368
▁výroč 368
▁včas 368
▁změna 368
▁zůstává 368
až 367
íst 367
▁Ind 367
▁came 367
▁digit 367
▁directives 367
▁dischar 367
▁dramat 367
▁enlar 367
▁evrop 367
▁integraci 367
▁ital 367
▁jakékoli 367
▁methods 367
▁posuz 367
▁textil 367
▁yesterday 367
▁út 367
▁článek 367
▁říj 367
cím 366
daje 366
isu 366
ákon 366
▁April 366
▁carbon 366
▁confirm 366
▁disease 366
▁nejméně 366
▁safe 366
▁vstupu 366
▁vzít 366
▁výrazně 366
▁zodpov 366
▁zásadě 366
írá 365
▁Afghanistan 365
▁Budget 365
▁Per 365
▁Pák 365
▁closed 365
▁diskriminaci 365
▁dokumentu 365
▁effectiveness 365
▁lhů 365
▁link 365
▁provozu 365
▁přeprav 365
▁tř 365
▁vdě 365
▁Charter 364
▁Gaza 364
▁autonom 364
▁col 364
▁neustále 364
▁podporujeme 364
▁textu 364
▁úřad 364
nes 363
vali 363
znam 363
▁Smlou 363
▁clos 363
▁liberalisation 363
▁minut 363
▁plants 363
▁reakce 363
▁rozd 363
▁spending 363
▁zabývá 363
▁říct 363
cii 362
conomic 362
něn 362
rou 362
▁According 362
▁března 362
▁distrib 362
▁immigrants 362
▁jednací 362
▁poněkud 362
▁pá 362
▁šest 362
klady 361
vají 361
▁Nemůžeme 361
▁Pl 361
▁anything 361
▁dopravě 361
▁energetiky 361
▁schůz 361
▁sides 361
▁závěry 361
ader 360
gement 360
going 360
ince 360
nos 360
ňuji 360
▁Velmi 360
▁considerable 360
▁diskutovat 360
▁kan 360
▁neměla 360
▁respected 360
▁rovnosti 360
▁rozporu 360
▁saz 360
▁sound 360
▁speed 360
▁urgently 360
air 359
stí 359
▁EGF 359
▁Naše 359
▁Takže 359
▁cestou 359
▁dosah 359
▁dět 359
▁encourag 359
▁instance 359
▁okamž 359
▁osobně 359
▁pacientů 359
▁podě 359
▁působnosti 359
▁regionech 359
▁snažit 359
▁strukturálních 359
▁zisk 359
hl 358
ini 358
kor 358
roz 358
sky 358
stan 358
věd 358
ázali 358
▁Amendment 358
▁Monetary 358
▁Stejně 358
▁administration 358
▁corruption 358
▁dobrý 358
▁energii 358
▁er 358
▁fear 358
▁kontextu 358
▁mír 358
▁optim 358
▁spravedlnost 358
▁stane 358
▁sustainability 358
▁způsobil 358
ania 357
avatel 357
dom 357
nal 357
vr 357
šena 357
▁Despite 357
▁Organizace 357
▁existence 357
▁innovative 357
▁integrov 357
▁našimi 357
▁necess 357
▁námořní 357
▁opoz 357
▁parliaments 357
▁podstatě 357
▁součást 357
▁started 357
▁vaši 357
▁zamít 357
▁Členské 357
▁členství 357
▁šir 357
ýt 356
ýš 356
▁Even 356
▁Rules 356
▁Russian 356
▁forced 356
▁konce 356
▁kvalitu 356
▁najevo 356
▁našem 356
▁podpoří 356
▁serve 356
▁uplatňovat 356
▁vlastních 356
▁zpravodajka 356
ether 355
iding 355
ilst 355
itude 355
mark 355
ode 355
ols 355
orest 355
ospodář 355
▁Libya 355
▁figures 355
▁highest 355
▁mainly 355
▁mezinárodním 355
▁navzdory 355
▁payment 355
▁politikou 355
▁poslanec 355
▁sněmovny 355
▁sám 355
▁withdraw 355
▁writ 355
▁zh 355
buz 354
cra 354
itosti 354
kovala 354
lim 354
nice 354
uth 354
ávající 354
▁accounts 354
▁continuing 354
▁curren 354
▁facilit 354
▁improv 354
▁jakou 354
▁mechanismy 354
▁novin 354
▁okolností 354
▁paměti 354
▁regulace 354
▁staff 354
▁ste 354
▁vním 354
▁úkolem 354
tvrt 353
▁Canada 353
▁Go 353
▁cons 353
▁enormous 353
▁globalizaci 353
▁greatest 353
▁membership 353
▁networks 353
▁rychl 353
▁skupinu 353
▁spravedlnosti 353
▁zapomínat 353
aten 352
cké 352
ije 352
▁Jest 352
▁Prote 352
▁Sp 352
▁Vyzývám 352
▁citliv 352
▁credibility 352
▁encouraging 352
▁hazard 352
▁návrhem 352
▁ote 352
▁označování 352
▁rozšiř 352
▁ver 352
▁vysoká 352
▁zájmů 352
▁údaj 352
▁ženách 352
N 351
cha 351
chází 351
enn 351
rett 351
ria 351
ěj 351
▁Ned 351
▁jo 351
▁kod 351
▁kolegů 351
▁kvalitní 351
▁naprost 351
▁signed 351
▁směru 351
▁soudržnost 351
▁sport 351
▁union 351
▁zaručit 351
▁ún 351
juje 350
ket 350
nilo 350
ovaž 350
rač 350
stand 350
ving 350
▁Framework 350
▁Malmström 350
▁Obama 350
▁jich 350
▁manage 350
▁milion 350
▁pension 350
▁pohledu 350
▁rizika 350
▁sjedno 350
▁vpřed 350
cess 349
▁Balkans 349
▁achiev 349
▁nepřij 349
▁oral 349
▁polo 349
▁pravomoc 349
ric 348
sen 348
▁assist 348
▁dest 348
▁doporu 348
▁opera 348
▁operation 348
Europ 347
ruct 347
říklad 347
▁2002 347
▁Brus 347
▁New 347
▁comply 347
▁lát 347
▁micro 347
ican 346
živ 346
▁budgets 346
▁complet 346
▁cust 346
▁dosa 346
▁forem 346
▁obvious 346
▁purpos 346
▁yes 346
▁conta 345
▁nuc 345
▁orient 345
ail 344
airs 344
▁Ass 344
▁Febru 344
▁cre 344
▁klimat 344
af 343
gu 343
ien 343
ove 343
šli 343
▁India 343
▁compla 343
▁dodáv 343
▁fast 343
▁ind 343
▁mill 343
▁promot 343
▁struktur 343
▁surve 343
ota 342
ples 342
▁neob 342
▁vede 342
eti 341
ína 341
ěk 341
▁biolog 341
▁host 341
▁incom 341
▁migra 341
▁pone 341
▁provád 341
ctors 340
ize 340
ník 340
zat 340
▁Rompuy 340
▁nab 340
▁smě 340
▁stol 340
aren 339
chan 339
nk 339
ras 339
▁Can 339
▁conflicts 339
▁cred 339
▁liberaliz 339
▁professional 339
ef 338
esen 338
▁Dal 338
▁Reg 338
▁Vy 338
▁loc 338
▁pun 338
▁susp 338
▁warm 338
aties 337
mo 337
▁democrat 337
▁doz 337
▁il 337
▁kompromisu 337
▁stala 337
▁telev 337
▁vývo 337
▁zadrž 337
▁zaž 337
cept 336
ief 336
▁byrokra 336
▁electronic 336
▁maritime 336
▁react 336
rest 335
ék 335
▁contr 335
▁dušev 335
▁requirem 335
▁zdro 335
car 334
elet 334
fare 334
ký 334
ployment 334
rig 334
▁Společ 334
▁konstrukt 334
hing 333
▁hom 333
▁iss 333
▁prospect 333
▁pus 333
▁traff 333
▁če 333
ild 332
▁Iraq 332
▁King 332
▁civili 332
▁institu 332
▁om 332
▁relativ 332
▁sn 332
▁vět 332
spě 331
▁incident 331
▁session 331
▁y 331
anger 330
ani 330
any 330
form 330
nih 330
obně 330
yh 330
▁Slovak 330
▁dal 330
▁exem 330
▁extra 330
▁hlad 330
▁hol 330
▁monopol 330
prac 329
či 329
▁cl 329
▁dem 329
▁hit 329
▁přiz 329
▁výraz 329
▁works 329
lands 328
▁planning 328
▁simple 328
alož 327
isl 327
pořád 327
usk 327
▁Be 327
▁Nabucco 327
▁compet 327
▁gen 327
▁kam 327
▁late 327
▁pragmat 327
▁sour 327
▁tvor 327
har 326
lap 326
▁bur 326
▁fisher 326
▁plen 326
esti 325
idu 325
užel 325
▁comb 325
▁konfliktu 325
▁posled 325
▁pož 325
▁vaz 325
atu 324
sto 324
▁entre 324
▁parliament 324
▁var 324
▁vr 324
bur 323
ither 323
sti 323
ung 323
▁Fundamental 323
▁accom 323
▁citiz 323
▁inc 323
▁soust 323
erent 322
omi 322
xt 322
▁etnic 322
▁incent 322
▁kriz 322
▁sett 322
▁terorist 322
▁uni 322
▁Ž 322
itele 321
mout 321
ojen 321
voj 321
▁Braz 321
▁Le 321
▁deg 321
▁monet 321
▁politic 321
▁stor 321
▁surpr 321
jena 320
ono 320
uteč 320
ěděl 320
▁liv 320
▁online 320
▁recon 320
▁ig 319
cedure 318
rost 318
rán 318
uts 318
▁2001 318
▁Chinese 318
▁globaliz 318
▁interpret 318
▁konferenci 318
▁mate 318
▁metod 318
▁nepro 318
▁val 318
▁úspě 318
bud 317
itute 317
nová 317
▁acceptable 317
▁comment 317
▁utrp 317
klam 316
light 316
▁Da 316
▁inv 316
anu 315
stvo 315
▁dict 315
▁odpově 315
▁preferen 315
▁reserv 315
cent 314
▁Minist 314
▁Plan 314
▁centre 314
▁guarante 314
▁sout 314
▁svoboda 314
▁tradi 314
▁vision 314
▁zaz 314
ones 313
ušení 313
▁intenziv 313
▁kvalifik 313
our 312
ves 312
▁ACTA 312
▁Globalis 312
▁bit 312
▁pacient 312
▁register 312
ingu 311
táv 311
éd 311
▁General 311
▁dů 311
▁pet 311
just 310
▁Rec 310
▁incorpor 310
▁pron 310
▁reag 310
▁třet 310
▁vzt 310
ean 309
▁cenu 309
▁prefer 309
▁sym 309
ape 308
miss 308
ott 308
razn 308
▁Střed 308
▁Un 308
▁amb 308
▁hav 308
▁miliardy 308
▁plant 308
▁stre 308
▁unfair 308
▁uvedla 308
L 307
ara 307
pla 307
▁Mezinárod 307
▁Polit 307
▁Progress 307
▁colle 307
▁hund 307
▁procu 307
▁strengt 307
▁št 307
ided 306
open 306
▁Am 306
▁BG 306
▁avi 306
▁crises 306
▁iniciativa 306
▁perm 306
▁sci 306
▁sort 306
▁Řec 306
rit 305
▁Island 305
▁realise 305
▁sít 305
▁wat 305
ential 304
lain 304
▁ACP 304
▁Financial 304
▁byd 304
▁dat 304
▁ignor 304
▁kritiz 304
▁minister 304
▁tun 304
▁večer 304
cht 303
vek 303
▁AKT 303
▁Sea 303
▁dispos 303
▁fish 303
▁způs 303
▁Alzheimer 302
▁elimin 302
▁range 302
ils 301
iver 301
ote 301
ough 301
yslu 301
▁22 301
▁Agen 301
▁levice 301
▁opin 301
ived 300
izi 300
per 300
ála 300
ást 300
▁La 300
▁agentur 300
▁dovol 300
▁sem 300
▁strategi 300
▁volunt 300
kal 299
oda 299
onder 299
rupt 299
▁Chr 299
▁communic 299
▁cí 299
▁důvěry 299
▁insp 299
▁podp 299
▁polic 299
▁told 299
▁ton 299
▁člensk 299
ford 298
noc 298
ub 298
vers 298
ával 298
▁90 298
▁emise 298
▁expert 298
▁ide 298
▁pill 298
▁sig 298
▁sniž 298
▁úrov 298
ava 297
nič 297
K 296
lear 296
plik 296
▁Dí 296
▁profit 296
▁příspě 296
▁suspend 296
ular 295
▁70 295
▁Solidar 295
▁Zelen 295
▁ano 295
▁error 295
▁medic 295
▁occup 295
▁člán 295
alist 294
amy 294
balan 294
▁26 294
▁infrastrukt 294
▁zmi 294
imat 293
oud 293
úd 293
▁EE 293
▁ESF 293
▁appl 293
▁flexible 293
▁frequ 293
▁jadern 293
▁ratifika 293
▁vaš 293
atelné 292
hout 292
roma 292
▁complic 292
▁consist 292
▁geograph 292
▁inteligent 292
▁judicial 292
▁potv 292
DE 291
uc 291
▁Pot 291
▁SWIFT 291
▁kontinent 291
▁nesm 291
▁rozpoč 291
▁sea 291
▁substan 291
lean 290
▁arrest 290
▁divers 290
▁energi 290
▁miliony 290
avy 289
sem 289
▁Atlant 289
au 288
osition 288
▁inh 288
▁invol 288
▁odpovíd 288
▁opat 288
▁sla 288
▁vzděl 288
haj 287
hed 287
▁Em 287
▁Pre 287
▁advert 287
▁bill 287
▁mezinárod 287
▁traged 287
▁trend 287
rants 286
▁75 286
▁atmos 286
▁multilateral 286
akeh 285
isko 285
ject 285
rovn 285
ůžeme 285
▁2007-2013 285
▁Con 285
▁blok 285
▁fisk 285
▁pokr 285
aden 284
udu 284
▁Gru 284
▁Mor 284
▁Report 284
▁budouc 284
▁mů 284
▁stabilit 284
dru 283
igen 283
obod 283
▁Nev 283
▁tempor 283
inci 282
▁Agric 282
▁ECB 282
▁Investment 282
▁dam 282
▁jednoznač 282
▁pred 282
▁rema 282
▁standardy 282
amat 281
amine 281
oken 281
oms 281
ůže 281
▁War 281
▁exam 281
▁got 281
▁zvíř 281
bt 280
gy 280
ole 280
ology 280
ovor 280
ozem 280
plat 280
▁2015 280
▁original 280
▁recommend 280
pi 279
vironment 279
ym 279
▁300 279
▁Georgia 279
▁constitu 279
▁decisive 279
▁odstav 279
▁revis 279
▁speci 279
bour 278
▁nedost 278
▁rekl 278
azu 277
ilt 277
imately 277
▁dise 277
▁kont 277
▁solid 277
ati 276
bán 276
eje 276
imo 276
ony 276
▁Makedon 276
▁Regional 276
▁definition 276
▁eur 276
▁inovativ 276
▁jih 276
▁lá 276
▁nah 276
▁obser 276
▁perfect 276
▁regist 276
▁satisf 276
con 275
gro 275
itte 275
sc 275
▁2. 275
▁Op 275
▁Skupina 275
▁Sm 275
▁candidate 275
▁mission 275
▁spre 275
astav 274
atives 274
ifik 274
▁West 274
▁absen 274
▁acces 274
▁elektr 274
▁fav 274
▁ideolog 274
▁obyv 274
▁sektor 274
▁uvaž 274
adá 273
itut 273
lás 273
▁Const 273
▁Ma 273
▁September 273
▁kill 273
▁rusk 273
▁stal 273
ables 272
ban 272
oden 272
▁Conferen 272
▁celo 272
▁chy 272
▁congratul 272
▁consequ 272
▁dign 272
▁organ 272
▁prepare 272
íč 271
▁sed 271
▁uniform 271
▁univers 271
amn 270
ezi 270
ozd 270
pon 270
▁Brazil 270
▁Izrael 270
▁Jedn 270
▁agend 270
▁gra 270
▁kolektiv 270
▁onem 270
aking 269
atem 269
eft 269
illing 269
ledge 269
▁Bar 269
▁bac 269
▁dependen 269
▁konkuren 269
▁tenden 269
br 268
esk 268
ital 268
▁Turk 268
▁reiter 268
making 267
rap 267
vět 267
▁Jul 267
▁du 267
▁honest 267
▁ratific 267
▁uch 267
da 266
▁Civil 266
▁Est 266
▁formal 266
▁infring 266
▁medical 266
▁pi 266
▁rece 266
▁separate 266
ater 265
inst 265
▁00 265
▁fig 265
▁platform 265
▁struktury 265
▁totalit 265
ejména 264
lak 264
oria 264
seda 264
▁Consum 264
▁Ex 264
▁ap 264
▁cat 264
▁happ 264
▁příšt 264
▁sedm 264
▁slow 264
▁tvo 264
EC 263
átor 263
▁Macedonia 263
▁constitution 263
▁diplom 263
▁front 263
▁katastrofy 263
▁prům 263
▁wit 263
ants 262
ollow 262
▁est 262
▁oce 262
▁protekcion 262
eding 261
nak 261
▁chem 261
▁collabor 261
▁fore 261
▁motiv 261
▁pozměň 261
▁textile 261
iling 260
iss 260
ps 260
raph 260
▁DA 260
▁Inter 260
▁Moldova 260
▁dos 260
▁motor 260
▁nejlep 260
▁stock 260
EU 259
elk 259
urder 259
uz 259
vant 259
šla 259
▁diss 259
▁domin 259
▁impress 259
▁mand 259
▁obs 259
▁stan 259
▁ub 259
ett 258
jeni 258
ses 258
zd 258
▁Guantánamo 258
▁ans 258
▁belie 258
▁continent 258
▁premi 258
▁pár 258
▁secret 258
orse 257
tem 257
véd 257
▁Dom 257
▁Us 257
▁duchu 257
▁econom 257
▁extrem 257
▁pilot 257
▁uns 257
kling 256
ourable 256
unts 256
▁List 256
▁bloc 256
▁blu 256
▁object 256
▁trz 256
▁unan 256
for 255
mar 255
olož 255
reč 255
una 255
ůležit 255
▁Mil 255
▁Sudan 255
▁ce 255
▁neigh 255
▁ruchu 255
▁severe 255
▁sty 255
▁trav 255
▁Pet 254
▁Spe 254
▁ag 254
▁attra 254
▁benefici 254
▁exper 254
▁religion 254
och 253
uly 253
▁Ber 253
▁ER 253
▁SIS 253
▁Sloven 253
▁Wh 253
▁aver 253
▁dle 253
▁feder 253
▁fru 253
▁material 253
▁neoliber 253
▁remar 253
▁slu 253
ain 252
lač 252
raje 252
▁Belgium 252
▁More 252
▁maj 252
▁pie 252
ee 251
▁Zimbabwe 251
▁bi 251
▁bř 251
▁prec 251
▁reven 251
▁strukt 251
bliž 250
▁Islam 250
▁Schulz 250
▁Sov 250
▁class 250
▁conne 250
▁nach 250
▁subsequ 250
bi 249
▁2003 249
▁Nik 249
▁Sa 249
▁kvót 249
▁producent 249
▁reviz 249
▁supervis 249
▁tas 249
ont 248
operation 248
▁Dok 248
▁Socialist 248
▁bezpo 248
▁bor 248
▁konec 248
▁leti 248
▁neb 248
▁prove 248
▁rom 248
▁terrorist 248
▁win 248
▁GUE 247
▁Strasbourg 247
▁actual 247
▁biodivers 247
▁indust 247
▁inequ 247
▁odpov 247
▁ratifik 247
ross 246
▁Bos 246
▁commiss 246
▁desc 246
▁preserv 246
ario 245
cu 245
fin 245
kol 245
yb 245
▁35 245
▁Cha 245
▁Nor 245
▁Zd 245
▁absurd 245
▁genet 245
▁langu 245
▁prosper 245
evším 244
met 244
ét 244
▁Publ 244
▁SOLVIT 244
▁VAT 244
▁aud 244
▁bureau 244
▁byrokrat 244
▁flexibil 244
▁medi 244
SE 243
áš 243
ětí 243
▁Barnier 243
▁Os 243
▁cor 243
▁předsednict 243
amo 242
eren 242
ga 242
láv 242
reds 242
▁gam 242
▁genera 242
▁journal 242
▁mon 242
▁usk 242
▁vin 242
hav 241
plan 241
ranič 241
wa 241
yer 241
▁Belgian 241
▁NGL 241
▁Portug 241
▁chorob 241
▁defic 241
▁drog 241
▁emis 241
▁repress 241
▁sold 241
▁zák 241
ař 240
gle 240
uls 240
yc 240
ytu 240
ůj 240
▁Belg 240
▁expos 240
▁glad 240
▁palestin 240
▁protocol 240
▁vých 240
50 239
iscrimin 239
oro 239
važ 239
éně 239
▁2050 239
▁Wit 239
▁inspect 239
▁okol 239
▁ordin 239
▁rig 239
▁čet 239
pom 238
sal 238
wers 238
▁Europol 238
▁avo 238
▁door 238
▁kolega 238
▁mikro 238
▁oblig 238
ender 237
ier 237
kt 237
vah 237
▁Bla 237
▁How 237
▁adop 237
▁bureaucrat 237
▁konzervativ 237
▁recess 237
uli 236
we 236
▁+ 236
▁31 236
▁Ombudsman 236
▁Small 236
▁banka 236
▁leader 236
▁lí 236
▁tex 236
emp 235
ilet 235
oks 235
ulo 235
vale 235
wards 235
▁Ali 235
▁Under 235
▁alarm 235
▁kateg 235
▁lit 235
▁ministers 235
▁poda 235
▁sehr 235
ama 234
nocení 234
▁Cancún 234
▁Kdy 234
▁Ro 234
▁educ 234
▁intellect 234
▁kultury 234
▁objektiv 234
▁simplific 234
▁zatím 234
TA 233
fi 233
laš 233
torem 233
▁lin 233
▁odpor 233
▁předchoz 233
▁ruch 233
▁sad 233
ales 232
ciate 232
heless 232
lev 232
rings 232
▁Gu 232
▁asp 232
▁bul 232
▁digital 232
▁dokumenty 232
▁grow 232
▁moderniza 232
▁passen 232
▁renew 232
▁velik 232
▁řad 232
romad 231
▁Bosnia 231
▁Korea 231
▁National 231
▁ambicióz 231
▁assum 231
▁doved 231
▁poj 231
bil 230
ptat 230
rum 230
▁Nizozem 230
▁Nord 230
▁Reding 230
▁administrativ 230
▁dodat 230
▁neexist 230
▁reciproc 230
kop 229
lie 229
ovu 229
ron 229
šlen 229
▁EFD 229
▁chudob 229
▁datab 229
▁fak 229
▁kampan 229
▁normal 229
edom 228
ffice 228
▁GA 228
▁bas 228
▁candid 228
▁define 228
▁týk 228
cil 227
cut 227
eld 227
ledn 227
par 227
▁Not 227
▁absolute 227
▁chví 227
▁lov 227
▁možno 227
▁odvět 227
▁ropy 227
cházející 226
isty 226
▁Wor 226
▁belg 226
▁enh 226
▁humanit 226
▁protok 226
▁ryb 226
▁soudrž 226
▁ture 226
▁van 226
akon 225
rut 225
stru 225
▁28 225
▁Arab 225
▁Lat 225
▁Pok 225
▁Som 225
▁USD 225
▁Up 225
▁bar 225
▁det 225
▁makroekonom 225
▁moji 225
▁neuv 225
▁obč 225
▁persecut 225
▁prohib 225
▁sell 225
▁služ 225
▁web 225
iabil 224
ues 224
řejmě 224
▁Kore 224
▁fun 224
▁invit 224
▁měs 224
▁sestav 224
▁spect 224
▁urgen 224
▁varov 224
ektiv 223
lab 223
otřeb 223
round 223
vel 223
wi 223
▁Izra 223
▁contrad 223
▁deter 223
▁integrit 223
▁nesta 223
▁zone 223
ehl 222
pel 222
reas 222
žad 222
▁Arct 222
▁Intern 222
▁asi 222
▁ca 222
▁categ 222
▁certa 222
▁irresp 222
▁metody 222
▁odhod 222
▁praktik 222
▁transform 222
obil 221
usi 221
utu 221
uv 221
▁2014 221
▁Lit 221
▁SL 221
▁ku 221
▁privacy 221
▁ratif 221
▁studie 221
eri 220
ezen 220
itted 220
ren 220
sme 220
ykle 220
yv 220
▁Transport 220
▁appropri 220
▁supplement 220
▁ztr 220
▁ír 220
ature 219
orth 219
▁Cel 219
▁Or 219
▁eliminate 219
▁médi 219
▁oc 219
▁referen 219
het 218
nop 218
vention 218
▁Comm 218
▁NG 218
▁Over 218
▁ambition 218
▁bol 218
▁komunist 218
▁porozum 218
▁profes 218
▁restruct 218
▁rá 218
▁universal 218
app 217
ea 217
▁Aut 217
▁El 217
▁differen 217
▁discipl 217
▁sit 217
▁societ 217
▁suver 217
▁zalo 217
ertheless 216
han 216
ival 216
lož 216
zer 216
▁Cyprus 216
▁Par 216
▁et 216
▁odlo 216
▁poš 216
▁resum 216
▁stres 216
▁team 216
▁tele 216
▁čast 216
bro 215
erg 215
iska 215
luž 215
▁ET 215
▁Nat 215
▁consent 215
▁felt 215
▁orienta 215
▁pon 215
▁subsidies 215
igu 214
oto 214
▁Barro 214
▁Rehn 214
▁ant 214
▁propag 214
▁spad 214
olik 213
žel 213
▁Sub 213
▁arch 213
▁conserv 213
▁effici 213
▁extraordin 213
▁odd 213
▁perspektiv 213
▁resist 213
▁schů 213
▁terror 213
▁Jo 212
▁base 212
▁fal 212
▁massive 212
▁nástro 212
▁produc 212
▁satisfactor 212
▁sensible 212
eit 211
nan 211
rozum 211
▁Moldav 211
▁formy 211
▁ris 211
▁syn 211
eks 210
fik 210
part 210
reg 210
teří 210
utting 210
zdory 210
▁1999 210
▁Ano 210
▁Democrat 210
▁dí 210
▁imag 210
▁služba 210
▁unem 210
▁zít 210
ches 209
ei 209
ekt 209
ission 209
ostech 209
▁Mon 209
▁abandon 209
▁appar 209
▁increas 209
▁poděk 209
▁republika 209
▁rozprav 209
▁separ 209
set 208
vál 208
yw 208
zhod 208
▁Albania 208
▁rum 208
▁visit 208
▁větš 208
ivers 207
necess 207
sled 207
ájem 207
▁IMF 207
▁Serv 207
▁Ti 207
▁extreme 207
▁margin 207
▁typu 207
ial 206
mé 206
▁Labour 206
▁Me 206
▁afr 206
▁complement 206
▁corpor 206
▁eas 206
▁isl 206
▁migrant 206
▁modelu 206
▁organizaci 206
▁perpet 206
▁přim 206
▁čl 206
ares 205
fly 205
lum 205
omm 205
pet 205
uin 205
áne 205
▁Cohes 205
▁Cuba 205
▁Mex 205
▁azylu 205
▁brief 205
▁details 205
▁dív 205
▁izrael 205
▁komplex 205
▁ol 205
▁Conserv 204
▁Jel 204
▁agen 204
▁detriment 204
▁flag 204
▁nomin 204
▁ny 204
▁odškod 204
▁radik 204
▁restruktur 204
▁” 204
adech 203
onal 203
rot 203
sport 203
▁chr 203
▁cur 203
▁fle 203
▁koncep 203
▁rezerv 203
▁serv 203
▁stoc 203
▁taj 203
▁vych 203
▁zan 203
oba 202
roug 202
▁amo 202
▁diox 202
▁dre 202
▁island 202
▁neh 202
▁precise 202
▁socio 202
▁specif 202
ffici 201
hers 201
iden 201
product 201
uss 201
▁Car 201
▁ambit 201
▁correspond 201
▁function 201
▁neg 201
▁penal 201
▁revolu 201
▁spekt 201
▁zlep 201
itiv 200
rana 200
▁29 200
▁apart 200
▁die 200
▁intens 200
▁koleg 200
▁quali 200
▁rop 200
▁terrible 200
▁undermin 200
▁visi 200
une 199
▁11. 199
▁Cotonou 199
▁EFG 199
▁Isra 199
▁Sah 199
▁demog 199
▁regimes 199
▁univerz 199
ano 198
boru 198
onds 198
ope 198
▁Moje 198
▁assume 198
▁individu 198
▁intent 198
▁kontrole 198
▁vaccin 198
ession 197
ugoslav 197
▁Irska 197
▁generation 197
▁ky 197
▁lobby 197
▁ocen 197
▁psych 197
▁písem 197
▁skupinami 197
▁čest 197
7-0 196
anej 196
▁Business 196
▁Just 196
▁fil 196
▁fine 196
▁juris 196
▁organis 196
▁relat 196
▁směr 196
▁tang 196
▁vers 196
rea 195
ždy 195
▁compromis 195
▁contamin 195
▁cop 195
▁km 195
▁mark 195
▁pensions 195
▁přeshranič 195
▁revol 195
▁soutě 195
▁sr 195
▁surov 195
act 194
bit 194
ener 194
fe 194
jeno 194
jev 194
loh 194
nesení 194
▁400 194
▁Ben 194
▁Dop 194
▁OSCE 194
▁camp 194
▁clar 194
▁core 194
▁essenti 194
▁gradu 194
▁hran 194
▁imper 194
▁reconstru 194
▁valid 194
dan 193
eda 193
enda 193
ler 193
oroč 193
xu 193
yi 193
▁Kar 193
▁Sy 193
▁convergen 193
▁dokonč 193
▁ear 193
▁mult 193
▁partnerem 193
▁zvlá 193
iew 192
orm 192
oved 192
pod 192
ši 192
▁Consequ 192
▁Kanad 192
▁abol 192
▁hen 192
▁homose 192
▁inov 192
▁repres 192
▁stipul 192
▁tragéd 192
ken 191
ozum 191
put 191
▁Kol 191
▁PNR 191
▁consid 191
▁dossier 191
▁irregular 191
▁naprav 191
▁pohled 191
▁suffici 191
emes 190
hlasím 190
liš 190
opp 190
▁197 190
▁Bas 190
▁Madeira 190
▁drob 190
▁fra 190
▁intern 190
▁tech 190
kyt 189
ložen 189
vid 189
▁21. 189
▁Slov 189
▁anga 189
▁cont 189
▁profession 189
ařilo 188
ero 188
omu 188
oph 188
stead 188
unter 188
▁Se 188
▁anal 188
▁conv 188
▁decla 188
▁exclud 188
▁eye 188
▁larg 188
▁stup 188
fa 187
oku 187
olo 187
▁1990 187
▁Fre 187
▁ac 187
▁com 187
▁gover 187
▁obdob 187
▁osv 187
▁pure 187
▁resident 187
▁uč 187
▁vez 187
gen 186
hopř 186
ikož 186
▁Asia 186
▁Control 186
▁Palestin 186
▁Taiwan 186
▁catch 186
▁codec 186
▁discrimin 186
▁evident 186
▁exch 186
▁govern 186
▁patient 186
▁produkt 186
▁rozpor 186
▁stí 186
▁tá 186
haps 185
rust 185
yd 185
▁Leg 185
▁art 185
▁batt 185
▁opust 185
▁pestic 185
▁quick 185
▁rich 185
▁tent 185
▁wider 185
vahu 184
▁Non 184
▁System 184
▁beg 184
▁demografic 184
▁leto 184
▁nič 184
▁resour 184
▁revid 184
▁riz 184
▁signific 184
▁sin 184
aps 183
elm 183
ram 183
óz 183
▁GSP 183
▁Man 183
▁Nep 183
▁confront 183
▁contra 183
▁implic 183
▁neu 183
▁portugal 183
▁tox 183
bon 182
dv 182
mis 182
onov 182
side 182
álo 182
▁Dos 182
▁Vz 182
▁disput 182
▁faktor 182
▁inadequ 182
▁lep 182
▁navz 182
▁nel 182
▁paci 182
▁ren 182
▁smrt 182
fer 181
feren 181
itan 181
ona 181
▁198 181
▁Rak 181
▁Rural 181
▁audit 181
▁břez 181
▁compar 181
▁hot 181
▁komer 181
▁kor 181
▁macro 181
▁manipul 181
▁mitig 181
▁obzvlá 181
▁territori 181
eling 180
ibil 180
rain 180
wer 180
▁45 180
▁Sc 180
▁auster 180
▁convin 180
▁diverzi 180
▁execut 180
▁inova 180
▁insuffici 180
▁matern 180
▁possib 180
▁qualific 180
band 179
▁Feder 179
▁Secret 179
▁celeb 179
▁dispar 179
▁elig 179
▁isol 179
▁místopřed 179
▁proven 179
▁sincer 179
▁sw 179
alis 178
orie 178
šší 178
▁Ant 178
▁Hamas 178
▁Klaus 178
▁Kub 178
▁autom 178
▁bio 178
▁bus 178
▁caus 178
▁fem 178
▁oba 178
▁prud 178
irm 177
ostran 177
via 177
▁Ze 177
▁bir 177
▁commit 177
▁genoc 177
▁komis 177
▁tap 177
▁yo 177
asure 176
ffect 176
itting 176
itution 176
ral 176
yj 176
▁Situ 176
▁Skup 176
▁Sou 176
▁Zde 176
▁attend 176
▁differ 176
▁dol 176
▁sor 176
▁tari 176
-2 175
ague 175
bal 175
imu 175
oka 175
ros 175
▁Mexico 175
▁annivers 175
▁elekt 175
▁estim 175
▁pain 175
▁proc 175
▁průbě 175
▁quotas 175
▁summ 175
▁vyu 175
ůs 174
▁Fin 174
▁Gaz 174
▁Guinea 174
▁Is 174
▁Second 174
▁Sev 174
▁brie 174
▁esc 174
▁jakož 174
▁rela 174
▁sustain 174
eka 173
otov 173
▁Bef 173
▁Hamás 173
▁Pak 173
▁analys 173
▁deregul 173
▁exter 173
▁ine 173
▁komunik 173
▁kraj 173
▁legislat 173
▁possibil 173
▁stoj 173
BP 172
fo 172
lennium 172
mine 172
urg 172
▁PSE 172
▁acceler 172
▁acqu 172
▁domov 172
▁epidem 172
▁kaž 172
▁neby 172
▁neust 172
▁preced 172
▁proced 172
ajem 171
culosis 171
iers 171
▁destin 171
▁fost 171
▁kat 171
▁odk 171
▁profil 171
▁rob 171
▁skand 171
DA 170
omenout 170
▁Stream 170
▁Ture 170
▁Ur 170
▁Wales 170
▁Washington 170
▁ber 170
▁electoral 170
▁ev 170
▁existen 170
▁imperialist 170
▁jednost 170
▁kart 170
▁letter 170
▁minute 170
▁turist 170
▁vst 170
iter 169
nt 169
spe 169
xual 169
▁Bo 169
▁fat 169
▁pozornosti 169
▁sup 169
adic 168
avo 168
bel 168
rimin 168
▁Finan 168
▁Sh 168
▁hum 168
▁inevit 168
▁izol 168
▁mental 168
▁rez 168
▁skr 168
▁svěd 168
▁žel 168
govern 167
měň 167
šk 167
▁Barrot 167
▁Dublin 167
▁arab 167
▁blo 167
▁chc 167
▁crimin 167
▁dve 167
▁moral 167
▁pokry 167
▁quant 167
▁vast 167
aks 166
oma 166
ommission 166
rable 166
▁Bu 166
▁Dire 166
▁EH 166
▁artic 166
▁emp 166
▁nestabil 166
▁organise 166
▁radioact 166
▁tens 166
iko 165
itev 165
nore 165
uló 165
▁Gazy 165
▁Paci 165
▁Sol 165
▁Tajani 165
▁autobus 165
▁radioaktiv 165
▁reak 165
▁rever 165
▁usp 165
emen 164
ola 164
pos 164
rob 164
urate 164
▁Austria 164
▁Vol 164
▁compon 164
▁explo 164
▁organizac 164
▁pravděpod 164
▁redu 164
▁trib 164
ods 163
▁20. 163
▁Coelho 163
▁Opel 163
▁Sup 163
▁distribut 163
▁konz 163
▁okup 163
▁popular 163
▁programm 163
▁victim 163
alm 162
elen 162
ght 162
koz 162
lare 162
last 162
wo 162
zet 162
▁3. 162
▁Kos 162
▁controver 162
▁di 162
▁investor 162
▁rek 162
ES 161
ack 161
amen 161
znám 161
šem 161
▁36 161
▁Li 161
▁ge 161
▁illeg 161
▁kandid 161
▁opro 161
▁teror 161
25 160
press 160
ump 160
yslím 160
▁Bur 160
▁Kl 160
▁Va 160
▁cancer 160
▁cr 160
▁destru 160
▁distribu 160
▁dopust 160
▁expan 160
▁explic 160
▁historii 160
▁kontro 160
▁mobile 160
▁porad 160
▁reti 160
exist 159
itv 159
rimina 159
▁Herzegovina 159
▁clarific 159
▁construct 159
▁desp 159
▁diag 159
▁diskrimin 159
▁fix 159
▁inten 159
▁transit 159
▁zaru 159
▁znov 159
▁žal 159
jším 158
lant 158
▁10. 158
▁ICT 158
▁contin 158
▁deliber 158
▁deterior 158
▁doma 158
▁doty 158
▁fá 158
▁nou 158
▁potenti 158
▁pract 158
▁rare 158
▁tj 158
astrop 157
bami 157
iš 157
mitt 157
nici 157
niž 157
ospod 157
▁Aga 157
▁CE 157
▁Cor 157
▁Poz 157
▁Program 157
▁Rev 157
▁Vel 157
▁brz 157
▁dikt 157
▁distin 157
▁drugs 157
▁interinst 157
▁interinstitu 157
▁interoper 157
▁jour 157
▁mik 157
▁námoř 157
▁pesticid 157
▁president 157
▁respective 157
▁tuberk 157
-2013 156
ará 156
daj 156
ences 156
ites 156
loze 156
oman 156
overy 156
produk 156
tou 156
▁Cent 156
▁Gen 156
▁Martin 156
▁deb 156
▁konf 156
▁kult 156
▁letos 156
▁rat 156
▁sek 156
OP 155
cere 155
epen 155
olleg 155
ull 155
zo 155
▁Also 155
▁Cat 155
▁Douf 155
▁Goldstone 155
▁Im 155
▁Sta 155
▁Verhofstadt 155
▁bomb 155
▁telekom 155
alu 154
amb 154
prod 154
urn 154
zkum 154
▁150 154
▁Cam 154
▁Indi 154
▁Indust 154
▁Malta 154
▁Mercosur 154
▁banán 154
▁demonstra 154
▁indirect 154
▁interim 154
▁leh 154
▁podpis 154
▁registra 154
▁renov 154
▁spe 154
▁string 154
▁super 154
cio 153
ikt 153
redit 153
rent 153
uld 153
▁CITES 153
▁EF 153
▁Sv 153
▁bere 153
▁eurozone 153
▁fire 153
▁rozp 153
▁univer 153
lášení 152
rah 152
rí 152
▁250 152
▁Sarkozy 152
▁fragment 152
▁len 152
▁percent 152
▁poved 152
▁sop 152
▁tort 152
▁treat 152
▁zbyt 152
aven 151
fortun 151
got 151
laud 151
rast 151
ret 151
unch 151
▁85 151
▁Ha 151
▁MEP 151
▁Te 151
▁admit 151
▁arr 151
▁dala 151
▁dali 151
▁dog 151
▁investi 151
▁mess 151
▁samo 151
▁sklad 151
▁zacház 151
30 150
ega 150
gt 150
imy 150
ris 150
sat 150
tion 150
ánek 150
▁EN 150
▁Fun 150
▁Pob 150
▁Ukra 150
▁calcul 150
▁cas 150
▁dedic 150
▁inclusive 150
▁rep 150
▁secur 150
aming 149
bre 149
ommun 149
ordin 149
unta 149
▁Romanian 149
▁hos 149
▁intelligent 149
▁proj 149
▁respons 149
▁vizi 149
avad 148
jat 148
tre 148
urism 148
řesť 148
▁Arkt 148
▁Congo 148
▁beneficiari 148
▁devast 148
▁důvě 148
▁fas 148
▁konflik 148
best 147
gra 147
vil 147
▁34 147
▁akadem 147
▁depl 147
▁konstruktiv 147
▁poprav 147
ald 146
ange 146
eds 146
etel 146
ilu 146
raf 146
▁anticip 146
▁bý 146
▁compati 146
▁dvo 146
▁konsens 146
▁privileg 146
▁quar 146
▁tem 146
▁une 146
DP 145
enos 145
ira 145
▁Cas 145
▁London 145
▁Tre 145
▁infrastruct 145
▁radical 145
DC 144
cin 144
erp 144
ií 144
like 144
ple 144
▁46 144
▁Glob 144
▁Gr 144
▁Lampedusa 144
▁civiliz 144
▁clas 144
▁consci 144
▁depart 144
▁ohled 144
▁pir 144
▁podmí 144
▁referend 144
▁tribun 144
aris 143
hol 143
orts 143
pol 143
sty 143
ways 143
▁43 143
▁95 143
▁AIDS 143
▁Asso 143
▁Pa 143
▁Stat 143
▁deriv 143
▁diktat 143
▁exec 143
▁modif 143
▁moratorium 143
▁vir 143
W 142
etus 142
pal 142
▁1, 142
▁42 142
▁7. 142
▁Kosov 142
▁Protocol 142
▁Sim 142
▁Ta 142
▁exacer 142
▁illust 142
▁incon 142
▁sb 142
▁výro 142
stem 141
urd 141
zt 141
▁65 141
▁Asyl 141
▁Aust 141
▁Cons 141
▁Information 141
▁Podpor 141
▁advant 141
▁akcept 141
▁facto 141
▁fran 141
▁transm 141
asi 140
lič 140
nad 140
struct 140
▁Brok 140
▁Dob 140
▁Doha 140
▁drast 140
▁emiss 140
▁finanč 140
▁ha 140
▁integrate 140
▁jakék 140
▁mobiliz 140
▁naj 140
▁neus 140
▁neutral 140
▁scen 140
▁synerg 140
▁ustanov 140
ath 139
ership 139
fici 139
gar 139
initiative 139
ruk 139
sah 139
yš 139
▁Den 139
▁Egy 139
▁Garrido 139
▁Mad 139
▁aggress 139
▁arriv 139
▁debaty 139
▁lie 139
▁ras 139
▁studi 139
ON 138
cri 138
nis 138
oci 138
ážen 138
▁4. 138
▁Lehne 138
▁Nic 138
▁Tur 138
▁Vid 138
▁fores 138
▁mag 138
▁pack 138
▁protokol 138
▁telefon 138
ateli 137
ester 137
iga 137
stvu 137
uh 137
▁Agenda 137
▁Ban 137
▁Mal 137
▁absor 137
▁apel 137
▁brutal 137
▁dá 137
▁kar 137
▁multin 137
▁permit 137
▁recept 137
can 136
iven 136
kra 136
íli 136
▁Jer 136
▁Merkel 136
▁abort 136
▁macroe 136
▁recogn 136
anian 135
has 135
iner 135
nej 135
orient 135
ror 135
▁ILO 135
▁Konferen 135
▁Ov 135
▁Post 135
▁canc 135
▁drug 135
▁ende 135
▁eth 135
▁falls 135
▁lu 135
▁satisfa 135
▁vak 135
▁vehic 135
▁zainteres 135
Y 134
ecké 134
edeno 134
ež 134
imb 134
▁Cur 134
▁Prav 134
▁adres 134
▁demokratiz 134
▁fac 134
▁historie 134
▁informal 134
▁konsol 134
▁kv 134
▁lic 134
eter 133
rel 133
upe 133
írně 133
ş 133
▁48 133
▁55 133
▁Most 133
▁Turkmen 133
▁adequ 133
▁arg 133
▁bilater 133
▁decl 133
▁ecolog 133
▁refug 133
▁seas 133
▁west 133
Waldner 132
alise 132
ered 132
front 132
inder 132
wan 132
▁Akt 132
▁Mos 132
▁Ud 132
▁certific 132
▁commun 132
▁engagement 132
▁geopolit 132
▁intercon 132
▁jugos 132
▁kus 132
▁precedent 132
▁specializ 132
▁sprav 132
▁virt 132
fung 131
hes 131
ke 131
ker 131
lede 131
vář 131
ísk 131
▁Barros 131
▁Innovation 131
▁Kamp 131
▁Nig 131
▁bal 131
▁embar 131
▁gre 131
▁jmén 131
▁kvali 131
▁obt 131
▁persist 131
▁provin 131
▁reforma 131
▁select 131
▁tuber 131
▁tw 131
ché 130
rip 130
▁Asi 130
▁ambic 130
▁dumping 130
▁obd 130
▁paradox 130
▁princi 130
▁rež 130
▁safegu 130
▁samoz 130
▁ter 130
▁vict 130
▁vnit 130
▁wid 130
TE 129
amin 129
ceed 129
cili 129
col 129
inger 129
ista 129
ski 129
tej 129
▁12. 129
▁9. 129
▁Cht 129
▁Inst 129
▁Trans 129
▁equival 129
▁experiment 129
▁impr 129
▁kompeten 129
▁plus 129
,5 128
bb 128
cont 128
ilar 128
olut 128
rodu 128
sch 128
▁&#91; 128
▁Barcelona 128
▁Jemen 128
▁ben 128
▁compl 128
▁dé 128
▁expl 128
▁offen 128
▁pact 128
X 127
imet 127
ls 127
ract 127
work 127
▁Balkan 127
▁Dec 127
▁Erasmus 127
▁Galileo 127
▁Pov 127
▁Yemen 127
▁balíč 127
▁halt 127
▁intergovern 127
▁intervent 127
▁liberal 127
▁optimist 127
▁osp 127
▁profesion 127
▁rezolu 127
▁subs 127
▁ust 127
▁wil 127
▁zare 127
▁ús 127
edera 126
esl 126
eze 126
net 126
omin 126
poc 126
sibil 126
zie 126
řejm 126
▁Jean 126
▁certi 126
▁conc 126
▁concess 126
▁diversific 126
▁konzult 126
▁nik 126
▁ow 126
alog 125
erted 125
nostmi 125
ster 125
▁25. 125
▁5. 125
▁700 125
▁Chile 125
▁DC 125
▁Herceg 125
▁Pri 125
▁antibiot 125
▁benef 125
▁duplic 125
▁gest 125
▁infl 125
▁koncept 125
▁smo 125
▁sto 125
▁zapom 125
leg 124
odaj 124
ogram 124
til 124
▁Ac 124
▁Füle 124
▁alle 124
▁dep 124
▁etc 124
▁obraz 124
▁org 124
▁sco 124
▁veterin 124
▁zabezpeč 124
ament 123
ima 123
ipp 123
ité 123
osu 123
▁38 123
▁600 123
▁Gucht 123
▁Mimo 123
▁OLAF 123
▁firmy 123
▁liter 123
▁nač 123
▁prete 123
▁quote 123
▁ran 123
alled 122
cho 122
ergy 122
lej 122
lik 122
ovol 122
ya 122
▁Dalli 122
▁Dan 122
▁Motors 122
▁Organiz 122
▁Part 122
▁Reh 122
▁Transat 122
▁analyse 122
▁katastro 122
▁muž 122
▁produ 122
▁ry 122
▁sen 122
▁sf 122
▁stric 122
▁suppl 122
▁vlak 122
des 121
las 121
mén 121
quis 121
ua 121
uit 121
ěh 121
▁Belar 121
▁Monti 121
▁Val 121
▁avail 121
▁begun 121
▁destabil 121
▁industri 121
▁jem 121
▁kro 121
▁medicin 121
▁pam 121
▁relie 121
▁soul 121
▁statut 121
ames 120
anda 120
ellen 120
lal 120
uti 120
è 120
▁Bah 120
▁Bulgarian 120
▁Ke 120
▁agres 120
▁innov 120
▁intensi 120
▁militar 120
▁parall 120
▁recog 120
▁upro 120
▁ven 120
▁wo 120
FP 119
SA 119
att 119
dal 119
jš 119
rp 119
ruption 119
sednict 119
▁Berès 119
▁Guantán 119
▁Lichten 119
▁Lisabon 119
▁OECD 119
▁Turkmenistan 119
▁Ved 119
▁dire 119
▁muslim 119
▁ud 119
ank 118
icie 118
inak 118
ozor 118
tv 118
uty 118
ystem 118
▁8. 118
▁ICC 118
▁cena 118
▁circul 118
▁conce 118
▁dil 118
▁dél 118
▁energ 118
▁ideal 118
▁privat 118
▁programe 118
▁progres 118
▁prosp 118
J 117
RC 117
enost 117
kom 117
oner 117
under 117
úč 117
▁33 117
▁Google 117
▁Instrument 117
▁Plat 117
▁UNH 117
▁Vít 117
▁agre 117
▁definitiv 117
▁inde 117
▁radio 117
▁tibet 117
▁tý 117
▁util 117
asu 116
bul 116
byt 116
itar 116
itor 116
lag 116
plo 116
stran 116
▁15. 116
▁37 116
▁Ferrero 116
▁HIV 116
▁Kom 116
▁Obec 116
▁Q 116
▁Qu 116
▁Slovenia 116
▁centra 116
▁cofinan 116
▁gran 116
▁intoler 116
▁kontrover 116
▁kore 116
▁nejd 116
▁oni 116
▁rám 116
▁rů 116
-200 115
CO 115
aktiv 115
isen 115
lid 115
ogen 115
působ 115
▁Albertini 115
▁Europeana 115
▁López 115
▁SEPA 115
▁Sahara 115
▁Wall 115
▁doc 115
▁elect 115
▁likvid 115
▁nacional 115
▁nos 115
▁seg 115
anks 114
anov 114
asm 114
ceut 114
ekonom 114
ström 114
▁196 114
▁Az 114
▁Har 114
▁Luc 114
▁Rap 114
▁Reinfeldt 114
▁Rel 114
▁biomet 114
▁cru 114
▁jednak 114
▁judici 114
▁nejdůležit 114
▁sud 114
▁uprch 114
▁zaost 114
-20 113
drav 113
eta 113
jemu 113
ommer 113
rug 113
the 113
ziv 113
▁201 113
▁23. 113
▁Mart 113
▁Ste 113
▁konvergen 113
▁kos 113
▁nat 113
▁obrat 113
▁polici 113
▁rati 113
▁seri 113
▁tend 113
15 112
chem 112
emor 112
lon 112
nít 112
onda 112
ropri 112
ureau 112
went 112
▁Cohn 112
▁Eurostat 112
▁Nobel 112
▁San 112
▁Tam 112
▁Tra 112
▁cult 112
▁dopol 112
▁dotk 112
▁ecos 112
▁ekos 112
▁frag 112
▁gradual 112
▁mun 112
▁nere 112
▁rej 112
▁Á 112
10 111
ai 111
bra 111
eby 111
hm 111
isy 111
itt 111
nek 111
rovi 111
uest 111
▁Ap 111
▁Sri 111
▁Tom 111
▁bananas 111
▁eventual 111
▁forum 111
▁influ 111
▁mak 111
▁memor 111
▁sens 111
▁subsid 111
▁x 111
pok 110
upu 110
voire 110
▁800 110
▁Afghan 110
▁Ba 110
▁Fr 110
▁Jugos 110
▁Kanada 110
▁LV 110
▁Nam 110
▁Pros 110
▁afg 110
▁aqu 110
▁biometr 110
▁derog 110
▁descri 110
▁dra 110
▁procent 110
▁reperc 110
▁residen 110
▁tov 110
▁volatil 110
▁zased 110
AF 109
emokrat 109
fri 109
iment 109
know 109
lok 109
pokoj 109
rane 109
ums 109
▁&#93; 109
▁19. 109
▁Fac 109
▁GNSS 109
▁Region 109
▁Si 109
▁Venezu 109
▁brut 109
▁familiar 109
▁fos 109
▁inici 109
▁komp 109
▁konsolid 109
▁nalé 109
▁napad 109
▁prejud 109
▁simpl 109
▁tradition 109
▁uz 109
avatele 108
bia 108
fel 108
hů 108
pas 108
▁App 108
▁CIA 108
▁Daul 108
▁José 108
▁Sen 108
▁Somalia 108
▁Vyzý 108
▁era 108
▁foss 108
▁kapitalist 108
▁overw 108
▁persu 108
▁pokoj 108
▁zero 108
MO 107
RE 107
alk 107
amu 107
ands 107
erst 107
hon 107
isp 107
pass 107
rade 107
zii 107
▁1995 107
▁32 107
▁49 107
▁Côte 107
▁EM 107
▁Győri 107
▁Kan 107
▁Komis 107
▁Lond 107
▁Sil 107
▁ang 107
▁crit 107
▁diversi 107
▁qu 107
▁termin 107
adem 106
amer 106
ella 106
ilov 106
ják 106
uns 106
▁31. 106
▁Christ 106
▁Eurojust 106
▁Fjellner 106
▁Schwab 106
▁elektrom 106
▁konkurence 106
▁mem 106
▁nal 106
▁privatiz 106
▁reakt 106
▁tranzit 106
000 105
elt 105
hand 105
lam 105
oten 105
owski 105
rab 105
rian 105
ried 105
uer 105
ush 105
íše 105
▁Agent 105
▁Her 105
▁Michel 105
▁Mul 105
▁Rat 105
▁UKIP 105
▁Ver 105
▁Vše 105
▁cos 105
▁intermedi 105
▁ja 105
▁produktiv 105
▁transf 105
eget 104
tern 104
uman 104
▁Mez 104
▁Piebalgs 104
▁Regul 104
▁balan 104
▁barbar 104
▁challen 104
▁conven 104
▁euros 104
▁fl 104
▁imun 104
▁mere 104
▁pond 104
▁tras 104
▁ustav 104
▁vigil 104
AR 103
regul 103
sm 103
ínat 103
▁Azerba 103
▁Europ 103
▁aspek 103
▁irre 103
▁ri 103
▁sec 103
6-04 102
aper 102
care 102
enes 102
uni 102
yan 102
▁Confederal 102
▁Estonia 102
▁Oce 102
▁Zapatero 102
▁concili 102
▁deport 102
▁frust 102
▁han 102
▁niz 102
▁prob 102
40 101
akult 101
cas 101
che 101
control 101
emin 101
itive 101
rii 101
sider 101
vin 101
▁24. 101
▁Ak 101
▁Anti 101
▁Berlusconi 101
▁Cong 101
▁Cr 101
▁Initiative 101
▁Kaz 101
▁Luka 101
▁Mugabe 101
▁Net 101
▁Pra 101
▁Strateg 101
▁Ty 101
▁degrad 101
▁invent 101
▁liquid 101
▁marked 101
▁pne 101
▁reci 101
▁sest 101
▁svol 101
▁uc 101
▁zlo 101
asti 100
ay 100
cist 100
oll 100
pot 100
pti 100
rak 100
rol 100
sib 100
uč 100
works 100
▁17. 100
▁195 100
▁Pom 100
▁bra 100
▁dete 100
▁druž 100
▁evas 100
▁fallen 100
▁navig 100
6-0 99
ioner 99
itect 99
nel 99
nete 99
ovina 99
rakt 99
účast 99
▁Hor 99
▁Kroes 99
▁Luxemb 99
▁Nu 99
▁Seych 99
▁Venezuela 99
▁bon 99
▁hat 99
▁poch 99
▁refle 99
▁vari 99
▁vide 99
▁zaj 99
▁zna 99
SP 98
Z 98
bin 98
enosti 98
inten 98
ki 98
oret 98
plic 98
ustain 98
wy 98
à 98
▁6. 98
▁Bowis 98
▁Lukashenko 98
▁SR 98
▁Swoboda 98
▁deta 98
▁elector 98
▁enterpr 98
▁makro 98
▁proact 98
▁prvo 98
▁requ 98
▁sex 98
▁stá 98
aka 97
iev 97
lom 97
luk 97
war 97
šetř 97
▁Almunia 97
▁Kallas 97
▁efekt 97
▁essen 97
▁labor 97
▁lét 97
▁mut 97
▁paral 97
▁poss 97
▁restric 97
▁spir 97
▁začne 97
▁zorganiz 97
PA 96
ctiv 96
okoj 96
▁Alb 96
▁III 96
▁Reform 96
▁Verheugen 96
▁Zav 96
▁bed 96
▁codific 96
▁gl 96
▁hoc 96
▁integra 96
▁koncent 96
▁parti 96
▁productiv 96
▁quota 96
▁sekret 96
▁thous 96
abel 95
aga 95
atori 95
ca 95
det 95
eca 95
etu 95
pak 95
vert 95
▁Catherine 95
▁Demokrat 95
▁Harbour 95
▁Madagas 95
▁Pat 95
▁X 95
▁cod 95
▁dar 95
▁disastro 95
▁dispon 95
▁handling 95
▁kval 95
▁pris 95
▁profess 95
▁volume 95
andum 94
atal 94
beit 94
berg 94
endo 94
fort 94
ijd 94
inc 94
iro 94
ju 94
omoci 94
organ 94
éz 94
▁16. 94
▁DEM 94
▁IND 94
▁Lo 94
▁Med 94
▁NA 94
▁Prag 94
▁Sto 94
▁chor 94
▁decid 94
▁gr 94
▁guard 94
▁impun 94
▁opozici 94
▁reinteg 94
▁rend 94
7-02 93
effici 93
ijan 93
oul 93
zij 93
éri 93
▁Dell 93
▁Hed 93
▁Jan 93
▁Lanka 93
▁Nigeria 93
▁Simpson 93
▁Tunisian 93
▁identific 93
▁institut 93
▁klima 93
▁kombin 93
▁poli 93
▁prezent 93
▁připo 93
▁rozvo 93
▁tit 93
▁transn 93
▁tsunami 93
▁Šefčovič 93
ER 92
IC 92
lék 92
mant 92
oven 92
reb 92
resp 92
ustu 92
ware 92
▁54 92
▁Bl 92
▁Gener 92
▁Leinen 92
▁Taliban 92
▁Wallis 92
▁debata 92
▁incorre 92
▁lingu 92
▁rein 92
AC 91
aste 91
isf 91
jo 91
ložit 91
nings 91
pokojen 91
ume 91
zem 91
▁2, 91
▁Chávez 91
▁Conc 91
▁Dle 91
▁Mold 91
▁Stav 91
▁Strategie 91
▁abs 91
▁immun 91
▁minor 91
▁reprezent 91
▁salari 91
▁syst 91
atri 90
ione 90
lifer 90
wort 90
és 90
▁30. 90
▁Ele 90
▁Lulling 90
▁Mlad 90
▁Taj 90
▁Ug 90
▁dare 90
▁gat 90
▁lis 90
▁merit 90
▁obra 90
▁odz 90
▁opu 90
▁racion 90
▁reput 90
Bendit 89
cip 89
gener 89
nog 89
peč 89
pital 89
▁Prior 89
▁film 89
▁iron 89
▁measu 89
▁paktu 89
▁paramet 89
▁seni 89
▁transplant 89
RO 88
ahr 88
andal 88
enta 88
fen 88
fl 88
ific 88
lativ 88
mail 88
oler 88
opol 88
rag 88
rict 88
str 88
unte 88
vé 88
▁120 88
▁59 88
▁Bal 88
▁Campania 88
▁Dou 88
▁EGNOS 88
▁Harms 88
▁MF 88
▁MT 88
▁Om 88
▁Oomen 88
▁Univers 88
▁Zam 88
▁capac 88
▁emb 88
▁emig 88
▁fot 88
▁indispens 88
▁lobb 88
▁med 88
▁ment 88
▁misi 88
▁poslancem 88
▁prote 88
▁sov 88
▁unik 88
▁vig 88
-201 87
Ruijten 87
afr 87
nobyl 87
nívám 87
stev 87
usal 87
var 87
will 87
▁44 87
▁Maastricht 87
▁Maro 87
▁Mechan 87
▁SET 87
▁Tech 87
▁Vietnam 87
▁alli 87
▁auton 87
▁bare 87
▁communautaire 87
▁diam 87
▁diff 87
▁ed 87
▁farmaceut 87
▁posl 87
▁rede 87
▁zou 87
fol 86
rich 86
▁1989 86
▁67 86
▁Finland 86
▁Jerusal 86
▁Maghreb 86
▁Pack 86
▁Sal 86
▁Teh 86
▁hait 86
▁jap 86
▁kap 86
▁nást 86
▁parag 86
▁scar 86
▁zdi 86
akt 85
cela 85
een 85
ental 85
grad 85
iu 85
lass 85
uran 85
▁47 85
▁Declar 85
▁Disk 85
▁EB 85
▁Ev 85
▁Fukushima 85
▁IN 85
▁Kir 85
▁Mich 85
▁Oper 85
▁Tri 85
▁fed 85
▁fib 85
▁kilomet 85
▁lever 85
▁moderniz 85
▁pose 85
▁probl 85
▁stere 85
▁zů 85
entr 84
fun 84
isi 84
krat 84
ohol 84
onment 84
osa 84
pit 84
tt 84
év 84
ěřím 84
ůli 84
▁51 84
▁83 84
▁Administ 84
▁Ang 84
▁Buzek 84
▁Böge 84
▁Fuk 84
▁Resolut 84
▁beze 84
▁biom 84
▁choroby 84
▁ih 84
▁irá 84
▁marginaliz 84
▁pers 84
▁podat 84
▁preg 84
▁prime 84
▁principal 84
▁ske 84
▁stem 84
▁svoje 84
FI 83
cl 83
cz 83
ejmé 83
eln 83
icking 83
isc 83
ivoc 83
kar 83
mas 83
orer 83
penden 83
ping 83
uden 83
uri 83
zvlá 83
ítom 83
▁Armen 83
▁Erit 83
▁Florenz 83
▁Serbian 83
▁TEN 83
▁Weber 83
▁cast 83
▁conform 83
▁exhaust 83
▁infrastruktur 83
▁metoda 83
▁neut 83
▁san 83
▁satell 83
▁unanim 83
FO 82
Kool 82
ariat 82
istan 82
áb 82
▁14. 82
▁99 82
▁Br 82
▁Cu 82
▁DHA 82
▁Democra 82
▁ECO 82
▁Hol 82
▁Invest 82
▁Liberal 82
▁Muscardini 82
▁Tot 82
▁Tribunal 82
▁alter 82
▁arbit 82
▁forg 82
▁geografic 82
▁justific 82
▁lend 82
▁neprav 82
▁projek 82
▁rid 82
▁transforma 82
▁unilateral 82
▁Ţicău 82
ado 81
alen 81
elop 81
iveness 81
lt 81
unk 81
▁149 81
▁86 81
▁Bet 81
▁Liechtenstein 81
▁Mo 81
▁Nad 81
▁dobro 81
▁krimin 81
▁pace 81
▁pakt 81
▁perspect 81
▁politič 81
▁preca 81
▁rol 81
▁roll 81
▁voj 81
▁zes 81
-1 80
EE 80
MC 80
agement 80
aru 80
avat 80
esterday 80
eten 80
iger 80
ley 80
orial 80
oti 80
pati 80
regional 80
usta 80
ári 80
řednictvím 80
▁110 80
▁290 80
▁Angelilli 80
▁Carl 80
▁Des 80
▁Gal 80
▁Gauzès 80
▁IC 80
▁corrupt 80
▁demag 80
▁impro 80
▁integral 80
▁kodif 80
▁merg 80
▁média 80
▁partn 80
▁prvot 80
▁sal 80
▁souč 80
▁viabil 80
▁zasad 80
ateri 79
cker 79
ques 79
vest 79
ácí 79
▁0, 79
▁Eng 79
▁Honduras 79
▁Och 79
▁Res 79
▁divis 79
▁exact 79
▁fell 79
▁grave 79
▁hedge 79
▁kra 79
▁migrat 79
▁mili 79
▁nan 79
▁nemů 79
▁provis 79
▁suc 79
00 78
adel 78
esi 78
fia 78
kin 78
los 78
produkt 78
sian 78
ė 78
▁.. 78
▁52 78
▁Busuttil 78
▁Ho 78
▁Iz 78
▁Ludford 78
▁NUTS 78
▁Person 78
▁Svensson 78
▁bran 78
▁circ 78
▁concep 78
▁demokra 78
▁diverse 78
▁fly 78
▁hon 78
▁impuls 78
▁kre 78
▁pust 78
▁zbo 78
lish 77
mod 77
mp 77
▁13. 77
▁1980 77
▁Bahrain 77
▁Bush 77
▁Farage 77
▁Phili 77
▁Sak 77
▁Wortmann 77
▁Zpráv 77
▁asist 77
▁capt 77
▁dek 77
▁depos 77
▁der 77
▁nada 77
▁olig 77
▁partici 77
▁stabilise 77
▁vkl 77
adi 76
bek 76
holm 76
idor 76
lier 76
nest 76
okra 76
ontrol 76
site 76
ui 76
▁18. 76
▁93 76
▁Amend 76
▁Eur 76
▁FAO 76
▁Guine 76
▁Lu 76
▁Tu 76
▁ast 76
▁fantast 76
▁inspir 76
▁konferen 76
▁relev 76
▁sacrific 76
▁simult 76
alous 75
emocrat 75
entraliz 75
erto 75
iji 75
iti 75
izu 75
lasti 75
nom 75
wal 75
▁Agre 75
▁Ashraf 75
▁Ferreira 75
▁Hist 75
▁IM 75
▁Kam 75
▁Kimberley 75
▁Kod 75
▁Made 75
▁Mag 75
▁Mik 75
▁Ros 75
▁Sem 75
▁Veld 75
▁audiov 75
▁cu 75
▁imigra 75
▁libert 75
▁mort 75
▁takt 75
▁ultim 75
anti 74
avu 74
bed 74
ejsk 74
enter 74
onym 74
pora 74
pri 74
produ 74
sid 74
udi 74
Č 74
šin 74
▁26. 74
▁39 74
▁900 74
▁Afrika 74
▁Bill 74
▁Cashman 74
▁Fid 74
▁Gebhardt 74
▁Hung 74
▁Lam 74
▁McGuinness 74
▁Ně 74
▁Oettinger 74
▁bil 74
▁flu 74
▁kapital 74
▁posou 74
▁redist 74
▁růz 74
▁semest 74
▁tule 74
▁zakon 74
IP 73
aran 73
iem 73
inen 73
inform 73
ivate 73
mes 73
okrat 73
opt 73
pli 73
raeli 73
roku 73
uda 73
čov 73
▁2014-2020 73
▁28. 73
▁73 73
▁Er 73
▁Govern 73
▁Pop 73
▁Sar 73
▁Sed 73
▁delic 73
▁infla 73
▁intimid 73
▁linii 73
▁nanom 73
▁nepochyb 73
▁otro 73
▁pil 73
▁resto 73
▁saf 73
▁sale 73
▁toll 73
▁vlož 73
▁zre 73
.00 72
6-00 72
6-02 72
7-00 72
alin 72
hledem 72
lude 72
mann 72
ohled 72
otřebujeme 72
rie 72
rog 72
urer 72
ót 72
▁194 72
▁98 72
▁Alex 72
▁Artic 72
▁David 72
▁Det 72
▁EULEX 72
▁Grossetête 72
▁Inde 72
▁Prin 72
▁Qimonda 72
▁Rod 72
▁Stabil 72
▁Trichet 72
▁Vi 72
▁arbitr 72
▁az 72
▁chron 72
▁diagnost 72
▁dum 72
▁indi 72
▁kurz 72
▁legisl 72
▁množ 72
▁pit 72
▁poni 72
▁prer 72
▁pri 72
▁respon 72
▁seal 72
▁stig 72
▁stron 72
▁zu 72
▁Špidla 72
ette 71
evo 71
fere 71
fund 71
ja 71
lic 71
onu 71
ussia 71
ún 71
šker 71
▁Atalanta 71
▁Castro 71
▁Cy 71
▁ITER 71
▁Jos 71
▁Lambsdorff 71
▁Lyon 71
▁Ten 71
▁VIS 71
▁Vondra 71
▁Zah 71
▁creativ 71
▁impar 71
▁kilom 71
▁mano 71
▁mine 71
▁modific 71
▁organism 71
▁pogratul 71
▁pravic 71
▁prelimin 71
▁rap 71
▁zakaz 71
AT 70
MA 70
endi 70
eness 70
eresp 70
inter 70
isa 70
odo 70
olle 70
orter 70
rik 70
rosto 70
ustran 70
▁2030 70
▁22. 70
▁Bowles 70
▁Ecofin 70
▁García 70
▁Ge 70
▁Por 70
▁Topolánek 70
▁bes 70
▁circum 70
▁coinc 70
▁combin 70
▁discre 70
▁elabor 70
▁evropsko 70
▁gases 70
▁separat 70
HO 69
etele 69
fej 69
forma 69
go 69
ird 69
lus 69
ores 69
shore 69
test 69
vik 69
▁Di 69
▁Fra 69
▁Hond 69
▁Hug 69
▁Ka 69
▁Pöttering 69
▁SME 69
▁antid 69
▁imm 69
▁moz 69
▁pornograf 69
▁ridic 69
▁širo 69
asto 68
eder 68
itud 68
ivi 68
ić 68
umping 68
usel 68
vign 68
xim 68
zni 68
▁186 68
▁1993 68
▁61 68
▁Cathy 68
▁Dam 68
▁Far 68
▁John 68
▁Mann 68
▁Medved 68
▁Minsk 68
▁Nast 68
▁REACH 68
▁TFTP 68
▁alt 68
▁dig 68
▁integrat 68
▁obr 68
▁prev 68
▁quo 68
▁rene 68
▁technologii 68
▁temper 68
▁zabez 68
NA 67
aria 67
ark 67
bert 67
clus 67
elly 67
err 67
nali 67
onde 67
ovství 67
sy 67
zal 67
▁192 67
▁76 67
▁78 67
▁Cast 67
▁Dav 67
▁Dig 67
▁Krem 67
▁Mak 67
▁Mitchell 67
▁Orbán 67
▁Pil 67
▁Put 67
▁Rad 67
▁Sam 67
▁Su 67
▁Tobin 67
▁Uni 67
▁arti 67
▁atom 67
▁ba 67
▁contem 67
▁dor 67
▁fórum 67
▁gi 67
▁hind 67
▁konkur 67
▁migran 67
▁multilater 67
▁neurodegener 67
▁positiv 67
▁trakt 67
▁záj 67
05 66
CR 66
aji 66
apen 66
bles 66
hd 66
iset 66
more 66
ouz 66
sud 66
áci 66
üb 66
říve 66
▁Austral 66
▁Bes 66
▁Colom 66
▁Dalai 66
▁Danje 66
▁Dem 66
▁Manuel 66
▁Schul 66
▁demen 66
▁detect 66
▁dimin 66
▁obligator 66
▁rosé 66
▁submitt 66
alle 65
far 65
hel 65
iat 65
idis 65
ikat 65
lor 65
oř 65
raft 65
tev 65
▁Audy 65
▁CEPOL 65
▁Cl 65
▁Dov 65
▁Energ 65
▁Lama 65
▁Ort 65
▁Solana 65
▁Wo 65
▁cens 65
▁guid 65
▁lask 65
▁manifest 65
▁marg 65
▁pater 65
▁quot 65
▁titul 65
▁Člen 65
acie 64
amis 64
anat 64
azi 64
democrat 64
holder 64
osta 64
rup 64
unik 64
ustil 64
utor 64
utt 64
ška 64
▁Brusel 64
▁Catania 64
▁Direct 64
▁Ford 64
▁Gadda 64
▁Head 64
▁Nel 64
▁Papua 64
▁Peter 64
▁Produ 64
▁Text 64
▁absolutorium 64
▁accord 64
▁arkt 64
▁bea 64
▁decis 64
▁defici 64
▁dimens 64
▁diskrimina 64
▁dvor 64
▁dyn 64
▁love 64
▁presiden 64
▁propaganda 64
▁rozdí 64
▁zdů 64
-2010 63
CE 63
ager 63
arem 63
aret 63
bev 63
cile 63
fu 63
gh 63
ica 63
ivo 63
jekt 63
obec 63
umul 63
▁57 63
▁Ank 63
▁Dur 63
▁EMAS 63
▁Mathieu 63
▁Montenegro 63
▁Pittsburgh 63
▁Prop 63
▁Times 63
▁approv 63
▁audiovis 63
▁injust 63
▁jasno 63
▁konsensus 63
▁král 63
▁prolifer 63
▁proporcional 63
▁sej 63
▁toh 63
▁ult 63
▁é 63
ador 62
ael 62
ask 62
hranič 62
iland 62
imp 62
itime 62
ruz 62
yo 62
yty 62
ñ 62
▁1,5 62
▁115 62
▁Barack 62
▁COP 62
▁Camp 62
▁Fischer 62
▁Khadraoui 62
▁Ki 62
▁Kong 62
▁Mill 62
▁Nag 62
▁Robert 62
▁SZ 62
▁Statist 62
▁Tavares 62
▁Václav 62
▁comit 62
▁conj 62
▁corr 62
▁dy 62
▁id 62
▁koal 62
▁lag 62
▁perce 62
▁pool 62
▁ps 62
▁restrikt 62
▁sele 62
▁slog 62
▁zar 62
▁člena 62
39 61
akter 61
ardi 61
aře 61
děpod 61
emy 61
ening 61
lava 61
leh 61
ruž 61
skept 61
vian 61
zeni 61
šir 61
▁Barcelon 61
▁Gilad 61
▁Kyoto 61
▁Maň 61
▁Red 61
▁Rob 61
▁ali 61
▁auto 61
▁coleg 61
▁compr 61
▁dokaz 61
▁dro 61
▁etap 61
▁grand 61
▁hier 61
▁impul 61
▁ing 61
▁konk 61
▁paradig 61
▁pravice 61
▁reces 61
▁una 61
▁vacc 61
▁varo 61
▁volit 61
bere 60
cian 60
elect 60
erti 60
iza 60
ogy 60
pper 60
rada 60
rož 60
unda 60
uper 60
▁280 60
▁Draghi 60
▁Du 60
▁Ital 60
▁Nov 60
▁Ter 60
▁Yor 60
▁atroc 60
▁demokratič 60
▁dur 60
▁energetice 60
▁equit 60
▁independ 60
▁procedur 60
▁sob 60
▁° 60
,4 59
assen 59
cep 59
entru 59
etek 59
ige 59
ilitar 59
lla 59
nific 59
rei 59
roje 59
umb 59
wor 59
▁72 59
▁88 59
▁Argent 59
▁Diamandouros 59
▁Esp 59
▁Euratom 59
▁Garriga 59
▁Kamer 59
▁Mercos 59
▁Mubar 59
▁Nepal 59
▁Száj 59
▁centraliz 59
▁cul 59
▁dow 59
▁drag 59
▁fabric 59
▁forma 59
▁influen 59
▁kompet 59
▁licen 59
▁ona 59
▁radi 59
▁skl 59
▁sot 59
▁subsidiar 59
▁svě 59
▁unij 59
▁vízum 59
▁wi 59
ceschop 58
elles 58
even 58
ffers 58
iast 58
ille 58
illi 58
jenost 58
kend 58
kv 58
leme 58
omet 58
org 58
pta 58
uge 58
úv 58
▁1049 58
▁140 58
▁1998 58
▁29. 58
▁350 58
▁66 58
▁81 58
▁Andor 58
▁Bhat 58
▁Bi 58
▁Corbett 58
▁Del 58
▁Fern 58
▁Jacques 58
▁Krit 58
▁Surján 58
▁York 58
▁bid 58
▁dubl 58
▁ep 58
▁kompl 58
▁legislativa 58
▁ours 58
▁reh 58
▁spolup 58
▁upr 58
,3 57
34 57
UC 57
buch 57
iki 57
inie 57
oca 57
pend 57
polit 57
west 57
zech 57
řád 57
▁136 57
▁Bild 57
▁Cí 57
▁Frank 57
▁Gazpro 57
▁Kompro 57
▁Kovács 57
▁Mario 57
▁Marok 57
▁Shalit 57
▁Zapata 57
▁alk 57
▁dich 57
▁dosta 57
▁hid 57
▁ina 57
▁inqu 57
▁kurd 57
▁patri 57
▁perman 57
▁rac 57
▁seb 57
▁verific 57
-2014 56
35 56
andes 56
este 56
ezu 56
fice 56
hus 56
jed 56
nez 56
niku 56
pres 56
rations 56
rio 56
sies 56
sific 56
usto 56
wed 56
ámy 56
ão 56
▁180 56
▁56 56
▁96 56
▁Fer 56
▁Gi 56
▁Gra 56
▁IPCC 56
▁Jun 56
▁Laperrouze 56
▁Lóp 56
▁MON 56
▁Mundus 56
▁Stud 56
▁UEN 56
▁Zela 56
▁abst 56
▁colleg 56
▁distan 56
▁engag 56
▁exempl 56
▁fen 56
▁interpre 56
▁konkurenč 56
▁koordina 56
▁malo 56
▁posí 56
▁sacri 56
▁sands 56
▁subven 56
▁svoj 56
▁terorism 56
▁vent 56
▁veto 56
ento 55
gan 55
hir 55
iar 55
icion 55
idem 55
itate 55
oses 55
owan 55
ruh 55
rze 55
uncil 55
usz 55
▁02 55
▁138 55
▁Costa 55
▁Maguw 55
▁Mod 55
▁Projekt 55
▁Rühle 55
▁Tha 55
▁alc 55
▁cal 55
▁coll 55
▁garant 55
▁intell 55
▁konstru 55
▁pand 55
▁prog 55
▁vil 55
▁von 55
alogu 54
bat 54
come 54
enza 54
esc 54
gers 54
iene 54
ikult 54
stein 54
éma 54
▁130 54
▁1992 54
▁1994 54
▁1996 54
▁58 54
▁62 54
▁Dokument 54
▁Gian 54
▁Goldst 54
▁Hök 54
▁Mand 54
▁Mi 54
▁Vyz 54
▁Xynth 54
▁agg 54
▁corre 54
▁dez 54
▁gar 54
▁geost 54
▁ileg 54
▁intr 54
▁kid 54
▁kur 54
▁ole 54
▁operativ 54
▁průmys 54
▁py 54
▁pís 54
▁reconcil 54
▁relative 54
▁spolupra 54
▁tar 54
AN 53
atter 53
aval 53
dem 53
eller 53
emo 53
fold 53
head 53
ikistan 53
okon 53
oles 53
rateg 53
unut 53
ére 53
ï 53
▁Af 53
▁Brown 53
▁Cond 53
▁Further 53
▁Guy 53
▁Hahn 53
▁Lewand 53
▁Marco 53
▁McCreevy 53
▁PCB 53
▁PVV 53
▁Richard 53
▁Salafranca 53
▁Srebrenica 53
▁auditor 53
▁krat 53
▁obst 53
▁ord 53
▁prolong 53
▁remuner 53
17 52
IT 52
MI 52
Qu 52
agues 52
alde 52
ander 52
bler 52
chen 52
cher 52
ege 52
fr 52
gren 52
ransp 52
region 52
star 52
wit 52
▁87 52
▁Camer 52
▁DTP 52
▁Dimas 52
▁Gar 52
▁Kat 52
▁Kozl 52
▁POSEI 52
▁Peking 52
▁Sz 52
▁Vă 52
▁actor 52
▁dni 52
▁etiket 52
▁hal 52
▁handle 52
▁kontin 52
▁nec 52
▁přič 52
▁tru 52
▁verd 52
▁šp 52
PE 51
Qa 51
adř 51
bezpeč 51
bie 51
chyb 51
ergie 51
lex 51
němov 51
ograf 51
ortun 51
urit 51
uter 51
varo 51
volv 51
vány 51
▁1970 51
▁77 51
▁Bel 51
▁Darfur 51
▁Doyle 51
▁GPS 51
▁Imp 51
▁Lambrin 51
▁Neg 51
▁Nistelrooij 51
▁Pen 51
▁Pittsburg 51
▁Sab 51
▁Stra 51
▁Weiler 51
▁aer 51
▁bases 51
▁embargo 51
▁enc 51
▁kompetence 51
▁overv 51
▁pes 51
▁quanti 51
▁rect 51
▁tol 51
▁trop 51
anak 50
atlant 50
erd 50
hte 50
inton 50
laude 50
loom 50
luš 50
odi 50
olk 50
olv 50
pers 50
pes 50
raw 50
redi 50
sour 50
uren 50
▁1997 50
▁82 50
▁Bre 50
▁Cioloş 50
▁Erika 50
▁Gas 50
▁Georgi 50
▁Gro 50
▁Jarzemb 50
▁Kozloduy 50
▁Madrid 50
▁Mc 50
▁Nie 50
▁Olli 50
▁Posselt 50
▁Tarab 50
▁Trautmann 50
▁Zábor 50
▁attent 50
▁cab 50
▁cohes 50
▁democra 50
▁epidemi 50
▁gru 50
▁histori 50
▁lok 50
▁recur 50
▁resta 50
-2009 49
PI 49
Rus 49
bas 49
burg 49
egovina 49
emis 49
ham 49
ids 49
ierra 49
obi 49
rojů 49
stra 49
tak 49
tin 49
umente 49
zna 49
ůsob 49
▁Amerika 49
▁Ari 49
▁Delegation 49
▁Guillaume 49
▁Hav 49
▁Ko 49
▁Mig 49
▁Reinfeld 49
▁intra 49
▁koh 49
▁kriminal 49
▁ministeri 49
▁nauč 49
▁nezam 49
▁nom 49
▁organiza 49
▁rot 49
▁vac 49
HA 48
IS 48
Wol 48
azen 48
bar 48
cul 48
ensen 48
imin 48
ister 48
itori 48
jektiv 48
kers 48
sche 48
tore 48
ument 48
weg 48
wie 48
▁146 48
▁170 48
▁188 48
▁Belder 48
▁Caspary 48
▁Che 48
▁Cred 48
▁Helm 48
▁Jeg 48
▁Lamassoure 48
▁Něme 48
▁PS 48
▁Sary 48
▁Ster 48
▁cere 48
▁compliment 48
▁condu 48
▁conferen 48
▁dossi 48
▁fert 48
▁flex 48
▁gratul 48
▁interfer 48
▁kop 48
▁lig 48
▁opon 48
▁tank 48
▁urg 48
49 47
IA 47
TMS 47
acter 47
aha 47
heres 47
iest 47
iliz 47
illa 47
imes 47
itim 47
omer 47
onia 47
pra 47
ritten 47
▁1905 47
▁92 47
▁Alban 47
▁Andre 47
▁Fal 47
▁George 47
▁Had 47
▁Kas 47
▁Leh 47
▁MSP 47
▁confer 47
▁conte 47
▁dou 47
▁dw 47
▁kritérium 47
▁preval 47
▁rus 47
▁sid 47
▁skup 47
▁specifik 47
▁ves 47
,7 46
II 46
ahem 46
egu 46
egul 46
elle 46
ensus 46
ized 46
jal 46
liber 46
ofob 46
oney 46
ordan 46
order 46
orrow 46
oss 46
uel 46
ything 46
ønder 46
▁Ara 46
▁Buz 46
▁Col 46
▁Don 46
▁Herc 46
▁Kr 46
▁Mer 46
▁Paul 46
▁Rov 46
▁Sin 46
▁Ven 46
▁WE 46
▁administrativa 46
▁begins 46
▁denomin 46
▁dimen 46
▁eg 46
▁emit 46
▁hast 46
▁hel 46
▁instan 46
▁islam 46
▁jun 46
▁kost 46
▁lob 46
▁nejví 46
▁noci 46
▁obžal 46
▁ped 46
▁pu 46
▁relig 46
▁tempo 46
KT 45
PR 45
agn 45
andre 45
bach 45
bora 45
elh 45
elves 45
euro 45
fra 45
ider 45
imist 45
istič 45
kev 45
ński 45
▁64 45
▁Char 45
▁Delors 45
▁Dialog 45
▁Informa 45
▁Karas 45
▁Kongo 45
▁Malcol 45
▁Nut 45
▁Oly 45
▁Patr 45
▁Rompu 45
▁Sánchez 45
▁Tannock 45
▁Trü 45
▁bliž 45
▁cam 45
▁centrum 45
▁incap 45
▁nezáv 45
▁presc 45
▁sle 45
▁vrst 45
artet 44
asc 44
ember 44
endar 44
eve 44
evy 44
fér 44
get 44
ilater 44
kier 44
lát 44
mad 44
opul 44
present 44
rapp 44
stre 44
text 44
uf 44
več 44
veřej 44
zek 44
él 44
óre 44
▁Consider 44
▁Cro 44
▁Feio 44
▁Hann 44
▁ME 44
▁Maria 44
▁Mont 44
▁Ou 44
▁PV 44
▁Presid 44
▁Prof 44
▁Teher 44
▁ann 44
▁brand 44
▁compreh 44
▁diver 44
▁fur 44
▁intelekt 44
▁invalid 44
▁investo 44
▁pé 44
▁unilater 44
▁zaměst 44
▁Če 44
55 43
aby 43
ancí 43
anii 43
arios 43
crisis 43
din 43
eral 43
esz 43
fon 43
ften 43
jel 43
obb 43
rostát 43
sedn 43
sterd 43
sum 43
uze 43
yr 43
škod 43
▁CD 43
▁Gbagbo 43
▁Legis 43
▁Parish 43
▁Sie 43
▁biz 43
▁civ 43
▁controvers 43
▁egy 43
▁extern 43
▁hang 43
▁interv 43
▁mom 43
▁ods 43
▁pole 43
▁privil 43
▁provoc 43
▁qualit 43
▁resp 43
▁sekund 43
▁temat 43
LE 42
aba 42
atur 42
egy 42
endt 42
ennis 42
icy 42
imm 42
lata 42
ležitost 42
mon 42
olet 42
ople 42
osi 42
rove 42
tal 42
unn 42
▁Aj 42
▁Andreas 42
▁Att 42
▁Deutsch 42
▁EG 42
▁Evropsko 42
▁Gil 42
▁Hier 42
▁Kont 42
▁Lou 42
▁Méndez 42
▁Plus 42
▁Ra 42
▁accep 42
▁compre 42
▁demon 42
▁disciplin 42
▁gent 42
▁handic 42
▁jat 42
▁ká 42
▁logo 42
▁najd 42
▁nejvy 42
▁precio 42
▁raz 42
▁sy 42
▁vice 42
,8 41
,9 41
OS 41
acc 41
alit 41
cr 41
emos 41
enas 41
istani 41
lige 41
oi 41
orii 41
oros 41
osud 41
pare 41
sector 41
tat 41
zel 41
ési 41
ěstnan 41
Ť 41
▁Bor 41
▁Cadec 41
▁Fore 41
▁Pek 41
▁Sahel 41
▁Situation 41
▁Und 41
▁Vond 41
▁acced 41
▁anch 41
▁bet 41
▁bin 41
▁bom 41
▁capit 41
▁cart 41
▁dim 41
▁explor 41
▁immig 41
▁incum 41
▁intera 41
▁kamp 41
▁kaz 41
▁lib 41
▁mad 41
▁odb 41
▁pertin 41
▁pozn 41
▁retro 41
▁znak 41
apac 40
enia 40
enze 40
eto 40
evit 40
igo 40
ilise 40
ium 40
ivit 40
jednodu 40
jenosti 40
konn 40
lar 40
lished 40
onymi 40
oper 40
pact 40
porte 40
riff 40
werp 40
Ú 40
éle 40
▁Av 40
▁Barb 40
▁Has 40
▁Il 40
▁Ju 40
▁Lag 40
▁Nach 40
▁Niger 40
▁Orlando 40
▁Podob 40
▁Poll 40
▁Polledo 40
▁Rem 40
▁Vlad 40
▁categor 40
▁eviden 40
▁imperi 40
▁jez 40
▁pán 40
▁přibliž 40
▁reuni 40
▁sess 40
▁temp 40
▁tied 40
▁trom 40
▁vulner 40
,6 39
7- 39
ante 39
arest 39
atus 39
bili 39
cute 39
dik 39
elings 39
energ 39
ervativ 39
hall 39
iles 39
imer 39
isis 39
ordon 39
rek 39
ronta 39
rought 39
see 39
sel 39
vad 39
win 39
ön 39
ă 39
▁Ag 39
▁Georg 39
▁Ins 39
▁Lamped 39
▁Manders 39
▁Problem 39
▁Progres 39
▁Tem 39
▁Terror 39
▁administ 39
▁agro 39
▁ausp 39
▁bag 39
▁habit 39
▁konven 39
▁lini 39
▁prol 39
▁tran 39
▁vert 39
▁új 39
aki 38
atson 38
atta 38
chie 38
chte 38
dis 38
felt 38
idt 38
industri 38
inem 38
nich 38
nin 38
nolog 38
ologie 38
orn 38
ozen 38
poš 38
ugees 38
ween 38
wel 38
yser 38
ń 38
▁Ash 38
▁Brian 38
▁Cari 38
▁Dor 38
▁Et 38
▁Fe 38
▁Lamb 38
▁Land 38
▁Maystadt 38
▁Ol 38
▁Simp 38
▁Tat 38
▁Transparen 38
▁Um 38
▁Wat 38
▁Yo 38
▁band 38
▁fias 38
▁fut 38
▁ilust 38
▁integro 38
▁kolej 38
▁kritik 38
▁mic 38
▁occ 38
▁sat 38
▁vain 38
arg 37
azia 37
cos 37
del 37
ektor 37
institu 37
isem 37
istian 37
itul 37
nell 37
ocra 37
ool 37
yne 37
yond 37
árm 37
ńsk 37
▁199 37
▁Acc 37
▁Alvaro 37
▁Bec 37
▁Cappato 37
▁Carlos 37
▁Cont 37
▁Mé 37
▁Nab 37
▁Pe 37
▁Resp 37
▁Sti 37
▁catt 37
▁convert 37
▁gri 37
▁interpreta 37
▁kal 37
▁kole 37
▁kolegi 37
▁milit 37
▁skoro 37
▁spot 37
▁tehd 37
▁terén 37
▁vrh 37
-2020 36
45 36
Ne 36
TO 36
alien 36
arre 36
choz 36
ekon 36
fac 36
fore 36
fried 36
icht 36
ieg 36
ilv 36
imise 36
ingen 36
ittee 36
now 36
olta 36
omat 36
q 36
rin 36
yp 36
áma 36
âr 36
ü 36
řeb 36
▁Ed 36
▁Fam 36
▁Ig 36
▁Int 36
▁Integ 36
▁Kal 36
▁Kun 36
▁Kyi 36
▁Pati 36
▁Secur 36
▁Topol 36
▁cham 36
▁coer 36
▁complementar 36
▁diverg 36
▁grav 36
▁inserted 36
▁kul 36
▁orig 36
▁skut 36
▁stret 36
▁vej 36
▁Špid 36
POL 35
arde 35
asse 35
ativa 35
bank 35
bez 35
crat 35
edes 35
edo 35
ehn 35
enek 35
erva 35
fall 35
fob 35
gs 35
icz 35
jek 35
kus 35
laut 35
mak 35
nist 35
reme 35
rid 35
strukt 35
urse 35
ág 35
▁0,7 35
▁Ai 35
▁Alexander 35
▁Aung 35
▁Cecilia 35
▁Confeder 35
▁Dani 35
▁Deput 35
▁Dev 35
▁Develop 35
▁Fa 35
▁Georgieva 35
▁Journal 35
▁Kall 35
▁Kre 35
▁Larosière 35
▁Opt 35
▁Pers 35
▁Rest 35
▁Serb 35
▁Srebren 35
▁Stockhol 35
▁Suu 35
▁abus 35
▁alternativa 35
▁bun 35
▁dosaž 35
▁impor 35
▁kryt 35
▁mechan 35
▁ono 35
▁superv 35
▁trat 35
▁tunn 35
▁ér 35
AE 34
angen 34
asp 34
cki 34
erta 34
erte 34
fts 34
ilor 34
jně 34
ld 34
nict 34
orte 34
tering 34
uka 34
unem 34
upra 34
vet 34
yment 34
zus 34
• 34
▁Ast 34
▁Buiten 34
▁Hans 34
▁Itali 34
▁Ku 34
▁Ly 34
▁Men 34
▁Set 34
▁Vš 34
▁deput 34
▁ego 34
▁electron 34
▁gang 34
▁hus 34
▁impres 34
▁inad 34
▁lokal 34
▁nob 34
▁pag 34
▁penaliz 34
▁recomm 34
▁satel 34
▁store 34
▁telef 34
▁unde 34
▁upad 34
▁vest 34
▁vi 34
boj 33
ente 33
esa 33
estin 33
gi 33
giv 33
illo 33
isch 33
kk 33
mig 33
onn 33
orej 33
pul 33
riz 33
ástup 33
órd 33
ğ 33
▁Cre 33
▁End 33
▁Fakt 33
▁Fili 33
▁Fl 33
▁Mac 33
▁Mobil 33
▁Piebal 33
▁Pred 33
▁ante 33
▁depres 33
▁este 33
▁homo 33
▁hou 33
▁klas 33
▁konč 33
▁luc 33
▁mim 33
▁nepr 33
▁rozpo 33
▁sac 33
▁suff 33
,2 32
AO 32
aca 32
ajd 32
anz 32
assa 32
aw 32
chet 32
coni 32
ema 32
erii 32
evel 32
iab 32
icial 32
igg 32
imal 32
jedno 32
konom 32
ležitosti 32
mid 32
mov 32
nd 32
rali 32
rar 32
robi 32
szk 32
vez 32
čna 32
▁3,5 32
▁Altern 32
▁Belgi 32
▁Czar 32
▁Econom 32
▁Kash 32
▁Les 32
▁Pana 32
▁Pie 32
▁Ru 32
▁SE 32
▁Verhofst 32
▁alar 32
▁asisten 32
▁cer 32
▁dies 32
▁gro 32
▁hab 32
▁há 32
▁kov 32
▁prezenta 32
▁repet 32
▁trá 32
▁več 32
▁zavr 32
aku 31
bet 31
empt 31
fect 31
ffing 31
ikan 31
inist 31
jud 31
liament 31
omas 31
oral 31
porta 31
son 31
ules 31
upid 31
vát 31
▁15.00 31
▁Baron 31
▁Borg 31
▁Ess 31
▁Form 31
▁Herman 31
▁Konf 31
▁McC 31
▁Out 31
▁Oz 31
▁Partner 31
▁Pir 31
▁Ul 31
▁apar 31
▁assass 31
▁cum 31
▁ek 31
▁fir 31
▁frig 31
▁hall 31
▁kategor 31
▁klauz 31
▁kredit 31
▁kulturo 31
▁lament 31
▁lect 31
▁lor 31
▁mud 31
▁nau 31
▁qual 31
▁zob 31
CS 30
PS 30
allan 30
allen 30
anen 30
arel 30
astel 30
cis 30
edi 30
endas 30
fie 30
fter 30
iel 30
log 30
mai 30
mete 30
omoří 30
ostav 30
ráce 30
standard 30
tag 30
ulos 30
ussen 30
yle 30
yments 30
zum 30
Τ 30
▁Angel 30
▁Atom 30
▁Eb 30
▁GN 30
▁Gy 30
▁Larosi 30
▁Mas 30
▁Port 30
▁RE 30
▁Tab 30
▁Verg 30
▁aband 30
▁boh 30
▁concur 30
▁diferen 30
▁merc 30
▁prest 30
▁pretend 30
▁sing 30
▁tan 30
,1 29
VO 29
alifik 29
apo 29
arai 29
atten 29
endid 29
etin 29
ffer 29
frica 29
hin 29
hne 29
ikon 29
inge 29
iso 29
issa 29
key 29
kontrol 29
lament 29
odob 29
otte 29
plin 29
rami 29
vor 29
ény 29
▁2,4 29
▁Bil 29
▁Gauz 29
▁Mess 29
▁Mit 29
▁Mu 29
▁Odbor 29
▁cli 29
▁commer 29
▁drama 29
▁intellig 29
▁modul 29
▁mold 29
▁nato 29
▁oly 29
▁pozdrav 29
▁radic 29
▁rang 29
▁reside 29
▁testi 29
▁tram 29
▁ug 29
▁verb 29
aman 28
angs 28
aton 28
auf 28
ego 28
ello 28
esto 28
gal 28
ijat 28
imos 28
ior 28
klus 28
kost 28
lek 28
orra 28
oste 28
rs 28
uas 28
ulg 28
upa 28
upt 28
ákat 28
ára 28
äß 28
Ř 28
Α 28
▁2,5 28
▁Agu 28
▁Gab 28
▁Ham 28
▁Han 28
▁Harmon 28
▁Hä 28
▁Infra 28
▁Kap 28
▁Met 28
▁Republ 28
▁Swobod 28
▁Traut 28
▁Var 28
▁abil 28
▁absol 28
▁adapta 28
▁dollar 28
▁elev 28
▁haz 28
▁hurt 28
▁legit 28
▁mayor 28
▁narod 28
▁podal 28
▁rent 28
▁sensib 28
▁stad 28
IV 27
PC 27
adern 27
agna 27
ajo 27
anta 27
asem 27
aut 27
cchi 27
chi 27
erc 27
erian 27
esse 27
iera 27
mus 27
olt 27
ppe 27
rej 27
rotu 27
uma 27
velop 27
vig 27
wand 27
ós 27
řeba 27
ředn 27
▁Dim 27
▁Ger 27
▁Isl 27
▁Persp 27
▁Protok 27
▁Qual 27
▁Represent 27
▁Stand 27
▁bord 27
▁cri 27
▁desig 27
▁dus 27
▁enem 27
▁interc 27
▁kil 27
▁nu 27
▁pow 27
▁sanit 27
▁sezn 27
▁ster 27
▁torn 27
▁tut 27
Atlant 26
akas 26
amos 26
apan 26
ardo 26
eko 26
eline 26
emat 26
estic 26
fes 26
hend 26
iais 26
ibliž 26
idual 26
iller 26
lever 26
mal 26
minist 26
ocrat 26
orno 26
orten 26
rift 26
servat 26
tok 26
udo 26
ün 26
▁Afgh 26
▁Argument 26
▁Chi 26
▁Congratul 26
▁Dimension 26
▁Jac 26
▁Manu 26
▁Mot 26
▁PC 26
▁Sl 26
▁Technolog 26
▁Thun 26
▁Wei 26
▁achie 26
▁bef 26
▁biod 26
▁ble 26
▁bás 26
▁dia 26
▁disk 26
▁fora 26
▁gig 26
▁jum 26
▁kas 26
▁mechanisme 26
▁plane 26
▁que 26
▁reflex 26
▁syr 26
▁tor 26
▁tranz 26
.- 25
alan 25
asa 25
atie 25
bol 25
bé 25
emene 25
forum 25
gr 25
idest 25
integ 25
lia 25
odost 25
orr 25
otr 25
rim 25
riv 25
rzej 25
sten 25
udem 25
vropsk 25
ça 25
öl 25
▁30- 25
▁Europa 25
▁Hand 25
▁Ja 25
▁Mitch 25
▁Oc 25
▁Pi 25
▁Prakt 25
▁Que 25
▁Salafran 25
▁Transp 25
▁Vis 25
▁Zach 25
▁aeg 25
▁asocia 25
▁bog 25
▁bě 25
▁coin 25
▁ec 25
▁faktu 25
▁forb 25
▁hij 25
▁incl 25
▁influenza 25
▁kandidat 25
▁kys 25
▁lap 25
▁meg 25
▁neuro 25
▁ombudsman 25
▁pret 25
▁raj 25
▁sim 25
▁transg 25
▁vic 25
AP 24
aczy 24
amt 24
anik 24
azon 24
chto 24
cre 24
egra 24
eken 24
elli 24
etta 24
etty 24
gor 24
hoz 24
ico 24
kum 24
lage 24
lust 24
olla 24
orre 24
ossa 24
redo 24
ressed 24
rong 24
sted 24
teen 24
ulas 24
usiness 24
volve 24
ász 24
ço 24
ör 24
üt 24
ńska 24
▁Brow 24
▁Dej 24
▁Ern 24
▁Ni 24
▁Politik 24
▁Precis 24
▁Respekt 24
▁Sper 24
▁Spo 24
▁Systems 24
▁Tag 24
▁aspira 24
▁au 24
▁bilan 24
▁equilib 24
▁fer 24
▁flexib 24
▁gol 24
▁guvern 24
▁imig 24
▁incentiv 24
▁inval 24
▁mir 24
▁modal 24
▁pur 24
▁salute 24
▁ses 24
▁unb 24
▁vicepre 24
▁walk 24
DS 23
IB 23
St 23
adest 23
ados 23
ationale 23
atoria 23
deck 23
elev 23
elin 23
eria 23
hardt 23
hest 23
ictvím 23
ighed 23
ilien 23
imata 23
inds 23
inek 23
inos 23
irem 23
kos 23
kuš 23
lade 23
lod 23
mem 23
nam 23
pil 23
ready 23
rench 23
rzy 23
ton 23
union 23
vare 23
vech 23
vej 23
vir 23
viz 23
▁12.00 23
▁Dar 23
▁Deb 23
▁EA 23
▁Ide 23
▁Interior 23
▁Irán 23
▁Kor 23
▁Pal 23
▁Tal 23
▁Tran 23
▁ambici 23
▁anc 23
▁climat 23
▁combust 23
▁dostoj 23
▁ecol 23
▁effica 23
▁guar 23
▁ham 23
▁impa 23
▁infer 23
▁infr 23
▁jam 23
▁kot 23
▁listop 23
▁masse 23
▁obe 23
▁observat 23
▁profesional 23
▁regener 23
▁sand 23
▁sus 23
▁unific 23
AA 22
Afr 22
Afrika 22
agas 22
agen 22
alni 22
amble 22
ansk 22
dop 22
ebb 22
eleg 22
emn 22
ende 22
essen 22
hodob 22
idi 22
ikor 22
imbab 22
izin 22
ló 22
nologie 22
ogene 22
omit 22
post 22
rael 22
ritt 22
roš 22
still 22
tte 22
ultura 22
umer 22
usse 22
xis 22
yky 22
álok 22
ç 22
ód 22
ęd 22
▁Ander 22
▁Bra 22
▁Erd 22
▁Floren 22
▁Fort 22
▁Herr 22
▁Maced 22
▁Mayst 22
▁Num 22
▁Seb 22
▁Sinn 22
▁Somal 22
▁Tud 22
▁consens 22
▁desk 22
▁expend 22
▁het 22
▁imped 22
▁indiv 22
▁intim 22
▁kli 22
▁kuk 22
▁lek 22
▁lett 22
▁osi 22
▁pest 22
▁reprezenta 22
▁tuk 22
▁wal 22
▁žalost 22
IL 21
LEX 21
antos 21
card 21
eker 21
hard 21
ikul 21
invest 21
iser 21
itz 21
ndia 21
ondo 21
onio 21
quer 21
rev 21
roc 21
tim 21
tur 21
â 21
ür 21
▁20- 21
▁Aqu 21
▁Bericht 21
▁Chod 21
▁Diamand 21
▁Emp 21
▁Gold 21
▁PE 21
▁See 21
▁Tav 21
▁Tob 21
▁anno 21
▁antidem 21
▁assim 21
▁bis 21
▁dav 21
▁defender 21
▁intensific 21
▁interloc 21
▁jok 21
▁ka 21
▁konvent 21
▁para 21
▁pois 21
▁pref 21
▁preoccup 21
▁principe 21
▁rav 21
▁reduk 21
▁sine 21
adox 20
alais 20
alder 20
avi 20
cken 20
crit 20
demokrat 20
dist 20
ein 20
elj 20
heer 20
idelines 20
igers 20
inno 20
iony 20
mist 20
noby 20
tel 20
tis 20
ttes 20
viv 20
yll 20
ę 20
ū 20
▁AKP 20
▁Ca 20
▁Defin 20
▁Emiss 20
▁Ens 20
▁Fried 20
▁Hal 20
▁Mechanismus 20
▁Need 20
▁Pon 20
▁Ren 20
▁Term 20
▁Tunisi 20
▁Vo 20
▁asoci 20
▁aug 20
▁bilanci 20
▁contempl 20
▁conver 20
▁deklar 20
▁europ 20
▁fest 20
▁guver 20
▁indu 20
▁instala 20
▁kong 20
▁lav 20
▁malt 20
▁miles 20
▁monetar 20
▁odli 20
▁petrol 20
▁prin 20
▁techn 20
▁terrib 20
▁tip 20
▁tul 20
▁vet 20
▁vzta 20
Fra 19
adal 19
ago 19
ahl 19
ahn 19
angel 19
anne 19
anost 19
arkt 19
aría 19
assani 19
bind 19
czy 19
dic 19
ekan 19
ekul 19
enh 19
iture 19
jak 19
kap 19
kušen 19
loc 19
nia 19
niz 19
ocs 19
okument 19
ozy 19
pros 19
publ 19
rony 19
ryb 19
sequ 19
▁BE 19
▁Bow 19
▁Chc 19
▁Konk 19
▁Lab 19
▁Maz 19
▁Norm 19
▁OS 19
▁Pow 19
▁SM 19
▁Sud 19
▁Sur 19
▁São 19
▁Trag 19
▁amp 19
▁dej 19
▁dens 19
▁fr 19
▁inn 19
▁litu 19
▁mam 19
▁más 19
▁perspekt 19
▁pic 19
▁plate 19
▁pochod 19
▁potre 19
▁pror 19
▁prá 19
▁rag 19
▁registr 19
▁reun 19
▁ring 19
▁sist 19
▁span 19
▁spra 19
▁stemming 19
▁superior 19
▁teritori 19
▁unders 19
▁čten 19
ahler 18
alg 18
alia 18
atz 18
ał 18
bec 18
cei 18
char 18
cia 18
conom 18
inik 18
ină 18
ll 18
mach 18
oce 18
oder 18
olid 18
opa 18
oure 18
romáž 18
ser 18
ske 18
ép 18
öder 18
čni 18
▁Abs 18
▁Ciolo 18
▁Deut 18
▁Dubl 18
▁Flexibil 18
▁Hab 18
▁Hohen 18
▁Hong 18
▁Initi 18
▁Klein 18
▁Kro 18
▁Nas 18
▁Pozd 18
▁Schw 18
▁Sr 18
▁Struktur 18
▁Sum 18
▁Tar 18
▁Vil 18
▁Vác 18
▁Zapater 18
▁Zar 18
▁analog 18
▁divid 18
▁doll 18
▁ere 18
▁esp 18
▁eventu 18
▁fór 18
▁geog 18
▁inacc 18
▁infant 18
▁innovat 18
▁konst 18
▁las 18
▁letu 18
▁lucrat 18
▁moh 18
▁numer 18
▁ombud 18
▁quest 18
▁spravedl 18
▁stro 18
▁tarif 18
▁tie 18
▁vs 18
▁znes 18
aler 17
alific 17
anas 17
ando 17
antas 17
apu 17
asin 17
cup 17
door 17
ejm 17
falls 17
fte 17
fur 17
hos 17
idente 17
innost 17
laz 17
mise 17
nav 17
nyt 17
onen 17
poň 17
rez 17
rover 17
roveň 17
stek 17
stoj 17
uard 17
ámec 17
ân 17
▁Almun 17
▁Běl 17
▁Casa 17
▁Centr 17
▁Gbag 17
▁Hu 17
▁Medi 17
▁Norte 17
▁Og 17
▁Sing 17
▁Tym 17
▁Vot 17
▁Wa 17
▁accent 17
▁apport 17
▁asc 17
▁atent 17
▁bind 17
▁cann 17
▁cargo 17
▁cess 17
▁conse 17
▁dale 17
▁devo 17
▁doživ 17
▁gan 17
▁hag 17
▁instal 17
▁kle 17
▁lip 17
▁mini 17
▁mos 17
▁okres 17
▁opport 17
▁presup 17
▁sab 17
▁sev 17
▁sie 17
▁til 17
▁vou 17
▁zví 17
, 16
Amer 16
TS 16
apa 16
area 16
avan 16
azione 16
bém 16
chez 16
cional 16
erge 16
erner 16
errero 16
ffe 16
ilder 16
inar 16
kot 16
nie 16
ogh 16
oor 16
organisation 16
pie 16
rk 16
romě 16
rosan 16
tier 16
uen 16
ulla 16
utat 16
zai 16
ère 16
éria 16
ďar 16
şe 16
Ν 16
Ο 16
▁Anal 16
▁Cad 16
▁Capp 16
▁Core 16
▁Elekt 16
▁Existen 16
▁Lis 16
▁Mă 16
▁Nistelroo 16
▁Ph 16
▁Poh 16
▁Relig 16
▁Republik 16
▁Verhe 16
▁Vor 16
▁Zad 16
▁aber 16
▁bedro 16
▁bij 16
▁conclus 16
▁din 16
▁dura 16
▁eu 16
▁fundament 16
▁horas 16
▁interrog 16
▁kons 16
▁lug 16
▁lum 16
▁motive 16
▁mul 16
▁nac 16
▁pac 16
▁pul 16
▁registro 16
▁repre 16
▁sir 16
▁stark 16
▁tid 16
▁usklad 16
▁zapleten 16
▁zost 16
Presid 15
TP 15
_ 15
adz 15
ais 15
ajal 15
amet 15
anal 15
atto 15
božen 15
don 15
eres 15
eret 15
etti 15
igur 15
istu 15
jim 15
kan 15
lene 15
lexibil 15
lut 15
oben 15
omobil 15
pte 15
resent 15
rš 15
sl 15
utek 15
uva 15
viser 15
yg 15
ól 15
ła 15
łasz 15
šev 15
šiř 15
žeme 15
▁Beh 15
▁Bul 15
▁Bulg 15
▁Bus 15
▁Cec 15
▁Europejskiego 15
▁Gratul 15
▁Integration 15
▁Kontrol 15
▁Koordin 15
▁Pres 15
▁Rum 15
▁Sama 15
▁Ser 15
▁Sign 15
▁cir 15
▁elektri 15
▁enorm 15
▁filosof 15
▁gast 15
▁handicap 15
▁hi 15
▁industrializ 15
▁internacion 15
▁invi 15
▁kla 15
▁lak 15
▁mol 15
▁oko 15
▁podneb 15
▁posta 15
▁prep 15
▁privilegi 15
▁procedury 15
▁pyt 15
▁redes 15
▁sequ 15
▁sesji 15
▁sow 15
▁tah 15
▁tribunal 15
▁vit 15
▁à 15
2- 14
accept 14
amar 14
anja 14
anza 14
ativen 14
atore 14
bij 14
cat 14
elig 14
entu 14
ervo 14
eza 14
ias 14
icia 14
icij 14
ieve 14
imit 14
iž 14
jul 14
lane 14
lete 14
medi 14
nika 14
omb 14
richt 14
ril 14
rokov 14
seen 14
ted 14
trepr 14
ulle 14
ulling 14
yse 14
ysk 14
Ó 14
öld 14
ć 14
šč 14
▁Albert 14
▁Bot 14
▁Busutt 14
▁Dummy 14
▁EK 14
▁Eind 14
▁Gelder 14
▁Investig 14
▁Kandid 14
▁Khadraou 14
▁Ké 14
▁Roh 14
▁Sach 14
▁Stock 14
▁Stre 14
▁Verde 14
▁autent 14
▁ax 14
▁cub 14
▁diferencia 14
▁elimina 14
▁fol 14
▁hub 14
▁iv 14
▁mant 14
▁ministru 14
▁monop 14
▁nacion 14
▁nig 14
▁norma 14
▁opportun 14
▁overst 14
▁planes 14
▁potr 14
▁prez 14
▁principi 14
▁reinst 14
▁rub 14
▁sklen 14
▁son 14
▁splet 14
▁stip 14
▁tel 14
▁toč 14
▁ubez 14
▁ulov 14
▁vaj 14
▁zal 14
PP 13
SS 13
aal 13
alec 13
anie 13
anim 13
astro 13
azat 13
bir 13
cs 13
dre 13
elić 13
emeni 13
enství 13
enz 13
erea 13
etech 13
evol 13
gust 13
hit 13
iche 13
iché 13
ienie 13
iran 13
jata 13
kow 13
lis 13
lud 13
mel 13
moč 13
mun 13
nemu 13
ność 13
něž 13
opřed 13
osvět 13
rans 13
rata 13
rias 13
rosi 13
soce 13
sz 13
uds 13
uja 13
ulta 13
unci 13
xid 13
zon 13
zone 13
zym 13
ánk 13
ási 13
ê 13
ò 13
Đ 13
ők 13
ρ 13
▁Dat 13
▁Die 13
▁Evident 13
▁FE 13
▁Hom 13
▁Informe 13
▁Innov 13
▁Krist 13
▁Kur 13
▁Lie 13
▁Mind 13
▁Ok 13
▁Organ 13
▁Rand 13
▁Rein 13
▁Spor 13
▁Tah 13
▁Wal 13
▁bedre 13
▁brak 13
▁denn 13
▁forti 13
▁fronti 13
▁garan 13
▁incit 13
▁kit 13
▁lad 13
▁mód 13
▁narkot 13
▁oportun 13
▁practic 13
▁pragm 13
▁precis 13
▁przer 13
▁repr 13
▁requis 13
▁revel 13
▁standarde 13
▁transmit 13
▁void 13
▁wznow 13
@ 12
In 12
abe 12
adto 12
aid 12
alla 12
altar 12
asta 12
aus 12
avor 12
bus 12
ción 12
edon 12
emist 12
eringer 12
eči 12
fas 12
gel 12
henko 12
hez 12
idst 12
imir 12
izen 12
jad 12
jih 12
laví 12
lemen 12
lová 12
mény 12
nor 12
ogu 12
opot 12
osan 12
ouver 12
overn 12
ratt 12
rengt 12
ronti 12
rukt 12
sho 12
strö 12
usa 12
ussa 12
uu 12
veni 12
verb 12
ytte 12
zub 12
ánd 12
ö 12
ørg 12
ühr 12
četně 12
ī 12
ł 12
ő 12
žnost 12
ε 12
▁Ah 12
▁Alla 12
▁Bö 12
▁Charta 12
▁Cháv 12
▁Delor 12
▁Door 12
▁Eg 12
▁Garr 12
▁Lamass 12
▁Miss 12
▁Ny 12
▁Organis 12
▁Position 12
▁Py 12
▁Tul 12
▁Wol 12
▁affront 12
▁armi 12
▁atrib 12
▁atten 12
▁autoriz 12
▁av 12
▁bene 12
▁cong 12
▁cz 12
▁das 12
▁diskr 12
▁eleg 12
▁fare 12
▁foren 12
▁god 12
▁grie 12
▁ház 12
▁iz 12
▁ju 12
▁kav 12
▁kry 12
▁kum 12
▁mart 12
▁nur 12
▁perf 12
▁planeta 12
▁pras 12
▁preci 12
▁ramp 12
▁signi 12
▁stabilis 12
▁série 12
▁uso 12
▁viv 12
▁wet 12
MP 11
amas 11
andi 11
apt 11
arom 11
aterial 11
atte 11
avar 11
centr 11
emble 11
erden 11
eses 11
evere 11
gem 11
ikající 11
ilie 11
imar 11
inud 11
lato 11
onom 11
oter 11
peten 11
politik 11
reform 11
rend 11
rir 11
ruch 11
tes 11
ugen 11
unge 11
ungs 11
wart 11
zov 11
ä 11
óta 11
ô 11
öv 11
úr 11
ľ 11
řesťan 11
ško 11
ι 11
€ 11
▁Autor 11
▁Drž 11
▁Esta 11
▁Gl 11
▁Inv 11
▁Ker 11
▁Len 11
▁Moment 11
▁Nek 11
▁Niz 11
▁Parti 11
▁Tanno 11
▁Zak 11
▁administra 11
▁cad 11
▁chi 11
▁destina 11
▁dose 11
▁dram 11
▁economis 11
▁firma 11
▁ira 11
▁jednej 11
▁kau 11
▁krav 11
▁kurs 11
▁luk 11
▁manif 11
▁mont 11
▁méd 11
▁natur 11
▁načrt 11
▁nost 11
▁otrok 11
▁prima 11
▁quasi 11
▁recipro 11
▁residu 11
▁sekt 11
▁sesión 11
▁sof 11
▁sti 11
▁sui 11
▁sunt 11
▁tag 11
▁tek 11
▁tulen 11
▁veter 11
▁Í 11
ampagne 10
amped 10
anka 10
anst 10
anto 10
anut 10
ană 10
armon 10
arv 10
aso 10
bak 10
chio 10
contro 10
dest 10
egan 10
eira 10
emia 10
endum 10
evast 10
halen 10
hang 10
ido 10
inda 10
inde 10
inea 10
inkov 10
iste 10
ivel 10
jan 10
kre 10
leti 10
lys 10
nap 10
num 10
ogo 10
onden 10
orda 10
rept 10
resc 10
ruc 10
unii 10
uso 10
uste 10
utan 10
yka 10
ã 10
ég 10
ía 10
ítan 10
ór 10
üm 10
ša 10
ţa 10
▁AI 10
▁Asp 10
▁Au 10
▁Bosni 10
▁Bru 10
▁Come 10
▁Conf 10
▁Der 10
▁Dich 10
▁Dum 10
▁Eh 10
▁Energie 10
▁Fjell 10
▁Fru 10
▁Fundament 10
▁Grossetê 10
▁Mut 10
▁Ménd 10
▁Narod 10
▁Neu 10
▁Német 10
▁OC 10
▁Rati 10
▁Referendum 10
▁Rez 10
▁Ri 10
▁Slova 10
▁Tek 10
▁Ves 10
▁Wiel 10
▁bew 10
▁dias 10
▁dna 10
▁eig 10
▁energetic 10
▁fles 10
▁fork 10
▁hem 10
▁hv 10
▁impoz 10
▁integr 10
▁kad 10
▁kompro 10
▁konver 10
▁laps 10
▁leis 10
▁lent 10
▁lon 10
▁loot 10
▁mel 10
▁modell 10
▁obl 10
▁oddal 10
▁perifer 10
▁petro 10
▁pozit 10
▁pozval 10
▁prakti 10
▁propon 10
▁socialista 10
▁stolet 10
▁tack 10
▁teen 10
▁ura 10
▁vah 10
▁veil 10
▁wol 10
▁zato 10
▁zdol 10
▁Ál 10
▁Ö 10
-0 9
andid 9
anse 9
avana 9
aver 9
aza 9
chos 9
degener 9
dering 9
edia 9
eging 9
enden 9
enut 9
erim 9
erz 9
ffen 9
gram 9
hn 9
icas 9
idar 9
ikov 9
ilia 9
indust 9
isto 9
izont 9
jam 9
jer 9
lang 9
lici 9
luz 9
nev 9
nikov 9
oge 9
omme 9
ostas 9
ozici 9
paign 9
pens 9
pid 9
president 9
rapporte 9
stro 9
tage 9
top 9
tw 9
ufact 9
ukrom 9
yy 9
zia 9
är 9
éka 9
íp 9
ób 9
ög 9
üh 9
ś 9
şi 9
α 9
▁AL 9
▁Alc 9
▁Berlus 9
▁Cho 9
▁Globaliz 9
▁Holl 9
▁Inf 9
▁Inform 9
▁Ist 9
▁Nin 9
▁Palestina 9
▁Plen 9
▁Popular 9
▁Rah 9
▁Refer 9
▁Sor 9
▁Stan 9
▁Unit 9
▁breed 9
▁cali 9
▁clandest 9
▁concret 9
▁demograf 9
▁fiss 9
▁frontier 9
▁habitu 9
▁hac 9
▁junto 9
▁mur 9
▁nod 9
▁osnov 9
▁pani 9
▁pokaz 9
▁pomo 9
▁popula 9
▁poten 9
▁quer 9
▁realiza 9
▁sein 9
▁sic 9
▁socioe 9
▁strat 9
▁suma 9
▁sved 9
▁vp 9
▁zanes 9
▁É 9
▁Žel 9
* 8
ME 8
abb 8
ako 8
antes 8
arer 8
arie 8
aro 8
arten 8
bag 8
bolov 8
edu 8
egi 8
elar 8
elas 8
eles 8
erne 8
eso 8
ezni 8
fre 8
gang 8
gio 8
heid 8
hran 8
idas 8
ijk 8
iken 8
ilib 8
inti 8
irá 8
itas 8
jav 8
lä 8
mb 8
mente 8
mest 8
oga 8
olte 8
onta 8
ospa 8
otto 8
ovale 8
ovar 8
rice 8
rás 8
splan 8
spor 8
tar 8
tici 8
unnit 8
vrop 8
was 8
yku 8
ándor 8
ë 8
óc 8
óg 8
Β 8
Ε 8
σ 8
τ 8
▁Aktiv 8
▁Art 8
▁Birm 8
▁Caspar 8
▁Ce 8
▁Ein 8
▁Es 8
▁Gol 8
▁Gruz 8
▁Guant 8
▁Hait 8
▁Irskem 8
▁Itä 8
▁Kultur 8
▁Landes 8
▁Liv 8
▁Lí 8
▁Mai 8
▁Mam 8
▁Mis 8
▁Nacional 8
▁Ost 8
▁PES 8
▁Pöt 8
▁Repubblica 8
▁Saj 8
▁UE 8
▁Von 8
▁Wort 8
▁Zi 8
▁affin 8
▁alla 8
▁anul 8
▁arra 8
▁bast 8
▁bos 8
▁folk 8
▁hangs 8
▁hed 8
▁hoz 8
▁incapac 8
▁ist 8
▁kraje 8
▁lih 8
▁ly 8
▁mater 8
▁naft 8
▁objekt 8
▁obstá 8
▁oct 8
▁ons 8
▁perse 8
▁posk 8
▁priv 8
▁ros 8
▁sket 8
▁slot 8
▁stap 8
▁stren 8
▁televis 8
▁unele 8
▁vu 8
▁zadost 8
▁zahl 8
▁časov 8
At 7
Gu 7
Re 7
VP 7
ansko 7
antu 7
apak 7
arek 7
asser 7
asso 7
atia 7
atoriu 7
avia 7
blem 7
cke 7
cze 7
eiro 7
ekom 7
elep 7
elij 7
elta 7
encia 7
esia 7
etur 7
eval 7
gia 7
ibli 7
iby 7
igua 7
iligen 7
ilm 7
imen 7
isia 7
ismy 7
izmu 7
kest 7
mata 7
meno 7
mut 7
niza 7
onos 7
oon 7
osk 7
osto 7
oza 7
presid 7
rato 7
rete 7
ribun 7
rite 7
roduk 7
ropor 7
rst 7
strateg 7
tet 7
udet 7
usia 7
uvi 7
von 7
zenie 7
zul 7
ß 7
ávě 7
ök 7
úl 7
ül 7
čno 7
▁AV 7
▁Aso 7
▁Aus 7
▁Barcel 7
▁Carta 7
▁Ci 7
▁Germ 7
▁Jednak 7
▁Kons 7
▁Lin 7
▁Los 7
▁Nabuc 7
▁Pass 7
▁Penal 7
▁Prim 7
▁Programm 7
▁Spa 7
▁TE 7
▁Top 7
▁Vize 7
▁Wel 7
▁accomp 7
▁cik 7
▁compart 7
▁consol 7
▁dei 7
▁dubb 7
▁dup 7
▁egal 7
▁fum 7
▁godz 7
▁ilegal 7
▁interior 7
▁kok 7
▁ké 7
▁lac 7
▁loom 7
▁lud 7
▁mes 7
▁meta 7
▁mikrok 7
▁mira 7
▁momento 7
▁nevo 7
▁nukle 7
▁oka 7
▁overd 7
▁partic 7
▁pel 7
▁percep 7
▁procedura 7
▁pud 7
▁přistěh 7
▁ram 7
▁salut 7
▁salv 7
▁soc 7
▁spec 7
▁spod 7
▁stadi 7
▁stale 7
▁stam 7
▁só 7
▁tahan 7
▁trim 7
▁tuh 7
▁twe 7
▁vend 7
▁vesel 7
▁vine 7
▁volna 7
▁vul 7
▁zez 7
▁zo 7
▁zostało 7
▁è 7
▁žensk 7
= 6
En 6
Euro 6
LO 6
OL 6
Q 6
adru 6
aire 6
aja 6
amalla 6
ampi 6
arder 6
atura 6
bes 6
blick 6
bring 6
chia 6
ciu 6
eler 6
emale 6
enem 6
ensa 6
enso 6
eras 6
erk 6
ffet 6
gru 6
hak 6
houd 6
ichi 6
icii 6
ijo 6
iks 6
ikä 6
indu 6
inev 6
inse 6
iral 6
ischar 6
ismo 6
istel 6
ix 6
izm 6
jalla 6
kil 6
lio 6
liž 6
mals 6
mond 6
mos 6
mä 6
norm 6
note 6
oblig 6
ohn 6
onii 6
onte 6
opera 6
oren 6
orium 6
oso 6
otan 6
owie 6
problem 6
program 6
raou 6
rud 6
rü 6
sak 6
stabil 6
stol 6
tog 6
ták 6
tó 6
ultur 6
umen 6
urat 6
utel 6
utz 6
uus 6
vih 6
wen 6
zio 6
É 6
ário 6
än 6
ès 6
ídu 6
ø 6
út 6
ătă 6
ěkud 6
žene 6
ǎ 6
▁Balc 6
▁Chor 6
▁Dah 6
▁Diam 6
▁EIP 6
▁Eurozone 6
▁Glas 6
▁Guilla 6
▁Harm 6
▁Hr 6
▁Id 6
▁Io 6
▁Koh 6
▁Konflik 6
▁Mens 6
▁Mog 6
▁Mug 6
▁Naj 6
▁Neuv 6
▁Opposition 6
▁Perm 6
▁Rich 6
▁Sek 6
▁Standards 6
▁Strukt 6
▁Sus 6
▁Syd 6
▁Volks 6
▁Was 6
▁Ya 6
▁Zeit 6
▁amen 6
▁aust 6
▁aval 6
▁azy 6
▁bug 6
▁competitiv 6
▁conced 6
▁daw 6
▁della 6
▁dese 6
▁es 6
▁etab 6
▁eurozó 6
▁fatt 6
▁fis 6
▁frit 6
▁gy 6
▁głosowania 6
▁habe 6
▁hens 6
▁imigran 6
▁inner 6
▁jur 6
▁kog 6
▁kred 6
▁laten 6
▁libre 6
▁limb 6
▁limite 6
▁lingua 6
▁mac 6
▁mechanizmu 6
▁memb 6
▁mín 6
▁nalož 6
▁někol 6
▁odby 6
▁odm 6
▁oft 6
▁ore 6
▁osa 6
▁oto 6
▁pant 6
▁peri 6
▁pobla 6
▁poin 6
▁posit 6
▁propriet 6
▁recom 6
▁restr 6
▁riv 6
▁roh 6
▁rut 6
▁seduta 6
▁seine 6
▁sensibil 6
▁sme 6
▁sober 6
▁tale 6
▁tenh 6
▁toe 6
▁totalitar 6
▁turism 6
▁vpl 6
▁í 6
▁žr 6
MS 5
aban 5
abi 5
agem 5
agi 5
amm 5
anden 5
anj 5
api 5
arsi 5
asia 5
avaz 5
duje 5
ejo 5
ellem 5
ellent 5
emet 5
enteen 5
entes 5
eros 5
esar 5
estruct 5
etan 5
ettu 5
evi 5
fond 5
geb 5
hren 5
hány 5
ichern 5
idere 5
iec 5
iei 5
iero 5
iets 5
iges 5
iona 5
ioni 5
istra 5
itari 5
iten 5
itts 5
ivad 5
ivil 5
kel 5
kim 5
kul 5
leb 5
mere 5
nies 5
nition 5
ogi 5
oleč 5
onga 5
onst 5
otas 5
owa 5
pool 5
praš 5
rati 5
rebren 5
resid 5
rij 5
ráci 5
seb 5
sei 5
skim 5
system 5
tere 5
toon 5
ugos 5
ukt 5
umi 5
uras 5
uret 5
zad 5
zent 5
zza 5
zó 5
Å 5
áró 5
ása 5
ástro 5
ída 5
ília 5
ók 5
ί 5
δ 5
κ 5
▁AK 5
▁Agora 5
▁Als 5
▁Biz 5
▁Def 5
▁Din 5
▁Dz 5
▁Ent 5
▁Herz 5
▁Italia 5
▁Kapital 5
▁Klima 5
▁Lud 5
▁Lug 5
▁Länder 5
▁Magyar 5
▁Occ 5
▁Partido 5
▁País 5
▁Personal 5
▁Produk 5
▁Qui 5
▁Ris 5
▁Sec 5
▁Sektor 5
▁Them 5
▁Unions 5
▁Vert 5
▁Zimbab 5
▁aj 5
▁ambas 5
▁artik 5
▁autob 5
▁behov 5
▁bent 5
▁bred 5
▁cant 5
▁concurrent 5
▁conto 5
▁denunci 5
▁dirig 5
▁ech 5
▁env 5
▁envi 5
▁exer 5
▁famili 5
▁financi 5
▁fom 5
▁hak 5
▁halu 5
▁handl 5
▁heel 5
▁honor 5
▁hun 5
▁internacional 5
▁jede 5
▁ker 5
▁konkret 5
▁kár 5
▁lah 5
▁lan 5
▁lung 5
▁medie 5
▁medio 5
▁negativa 5
▁negocia 5
▁nucle 5
▁očit 5
▁paro 5
▁partnere 5
▁pati 5
▁podrá 5
▁ponder 5
▁prek 5
▁programov 5
▁propor 5
▁protek 5
▁punct 5
▁rectific 5
▁recuper 5
▁refere 5
▁rog 5
▁sag 5
▁scop 5
▁sul 5
▁surg 5
▁tard 5
▁tav 5
▁uno 5
▁vind 5
▁vita 5
▁vro 5
▁zahod 5
▁ê 5
-00 4
Ab 4
NP 4
abad 4
aco 4
acă 4
agy 4
ait 4
alom 4
amid 4
anek 4
anh 4
anno 4
aram 4
arf 4
arse 4
asad 4
asian 4
atil 4
atom 4
atos 4
azio 4
bne 4
bona 4
cate 4
cc 4
cij 4
edik 4
eil 4
enen 4
entro 4
erein 4
ergi 4
erings 4
erw 4
eset 4
etro 4
etto 4
etz 4
europ 4
evad 4
flik 4
gas 4
geh 4
gruppe 4
handling 4
icin 4
ieni 4
ieu 4
igem 4
igy 4
ilen 4
ilised 4
ilk 4
ilä 4
inta 4
inte 4
ios 4
isme 4
isse 4
issen 4
itta 4
izar 4
jon 4
ków 4
ležit 4
lich 4
lle 4
mini 4
neh 4
nen 4
nien 4
norod 4
nym 4
nă 4
ober 4
odust 4
ogli 4
okat 4
olar 4
oliber 4
ording 4
orit 4
ozi 4
prezent 4
project 4
rank 4
reira 4
remen 4
rene 4
rica 4
rici 4
rico 4
rul 4
rét 4
schau 4
sman 4
sor 4
sper 4
stens 4
tid 4
toe 4
ulties 4
urf 4
usin 4
utta 4
vaj 4
verg 4
váh 4
warte 4
won 4
yna 4
zan 4
zej 4
zik 4
zing 4
zne 4
áll 4
álni 4
ää 4
énd 4
ése 4
ês 4
ña 4
ño 4
ół 4
ös 4
ús 4
ły 4
ņ 4
Ő 4
ście 4
Š 4
škem 4
ν 4
υ 4
▁AC 4
▁APE 4
▁Aliment 4
▁Allgeme 4
▁BNP 4
▁Banco 4
▁Bere 4
▁Commiss 4
▁Cum 4
▁Cz 4
▁Deleg 4
▁Drag 4
▁Eco 4
▁Eig 4
▁Fisch 4
▁Fischere 4
▁Gau 4
▁Ges 4
▁Grund 4
▁Hay 4
▁Hi 4
▁Hil 4
▁Ida 4
▁Ih 4
▁Kim 4
▁Kle 4
▁Konflikt 4
▁Libert 4
▁Luft 4
▁Lös 4
▁Meh 4
▁Monet 4
▁Nagy 4
▁Nah 4
▁Nob 4
▁Nos 4
▁Premier 4
▁Qim 4
▁Rep 4
▁Rezolu 4
▁Rol 4
▁Samoz 4
▁Sel 4
▁Sitzung 4
▁Só 4
▁Treb 4
▁Vers 4
▁Welt 4
▁Wi 4
▁Wij 4
▁Zo 4
▁ade 4
▁adresa 4
▁altern 4
▁ambicioz 4
▁americ 4
▁ampli 4
▁aux 4
▁avan 4
▁aviz 4
▁bem 4
▁bland 4
▁cele 4
▁cin 4
▁clim 4
▁conqu 4
▁conservat 4
▁converg 4
▁disponibil 4
▁durabil 4
▁ecc 4
▁ein 4
▁elast 4
▁enf 4
▁estrang 4
▁europe 4
▁evolu 4
▁exces 4
▁flux 4
▁fog 4
▁garanta 4
▁gaze 4
▁gene 4
▁generaliz 4
▁geograf 4
▁ger 4
▁grad 4
▁gén 4
▁hadd 4
▁hir 4
▁ideje 4
▁ign 4
▁ik 4
▁incidente 4
▁indisp 4
▁inne 4
▁inoc 4
▁inund 4
▁irán 4
▁jatk 4
▁jel 4
▁jug 4
▁kant 4
▁kem 4
▁kohez 4
▁lec 4
▁lign 4
▁litt 4
▁lég 4
▁mañana 4
▁misd 4
▁mit 4
▁mob 4
▁novo 4
▁nr 4
▁omen 4
▁overtu 4
▁pala 4
▁pali 4
▁pang 4
▁paździer 4
▁pea 4
▁pens 4
▁polt 4
▁pru 4
▁qui 4
▁realista 4
▁rezon 4
▁rit 4
▁rug 4
▁sang 4
▁somet 4
▁sunn 4
▁szczeg 4
▁sé 4
▁tales 4
▁ted 4
▁tres 4
▁tug 4
▁tyh 4
▁ung 4
▁vali 4
▁valida 4
▁vele 4
▁voy 4
▁vé 4
▁Ł 4
Ru 3
VA 3
WI 3
acen 3
ahan 3
akk 3
aksin 3
alaf 3
allet 3
amia 3
amme 3
ande 3
anin 3
anos 3
anow 3
atien 3
atul 3
bej 3
borg 3
bred 3
cco 3
chien 3
cida 3
cir 3
csi 3
drag 3
draw 3
egel 3
egen 3
egr 3
elekt 3
else 3
eltu 3
elv 3
emm 3
emž 3
ereign 3
erse 3
essa 3
ettem 3
fiz 3
gev 3
gos 3
haal 3
halt 3
ház 3
ibet 3
igd 3
ija 3
iler 3
ilist 3
illet 3
imul 3
into 3
inv 3
isca 3
ische 3
jati 3
junkt 3
kozy 3
kti 3
laus 3
lema 3
lko 3
mand 3
mechan 3
mm 3
nica 3
nikami 3
nine 3
obili 3
obra 3
ocol 3
odst 3
ohen 3
olitik 3
ommen 3
openh 3
oras 3
orde 3
organis 3
orus 3
otoč 3
owe 3
ptember 3
ratul 3
rež 3
ribu 3
rigo 3
rito 3
roh 3
sam 3
satz 3
som 3
stag 3
such 3
sus 3
sv 3
tach 3
tam 3
tex 3
tio 3
udest 3
uis 3
uno 3
unten 3
urid 3
uten 3
utto 3
uß 3
voud 3
warz 3
ynth 3
zak 3
zata 3
zymy 3
áro 3
æk 3
éli 3
óm 3
ów 3
öll 3
čne 3
śnie 3
ţi 3
žal 3
ˇ 3
Μ 3
μ 3
χ 3
ό 3
▁Alg 3
▁Alk 3
▁Alt 3
▁Atal 3
▁Azer 3
▁Canc 3
▁Cham 3
▁Corb 3
▁Eu 3
▁Europar 3
▁Evropo 3
▁Hat 3
▁Hö 3
▁Ich 3
▁Internetu 3
▁Jour 3
▁Jug 3
▁Kind 3
▁Lei 3
▁Liz 3
▁Ombuds 3
▁Opp 3
▁Ori 3
▁PN 3
▁Para 3
▁Partito 3
▁Prem 3
▁Privat 3
▁Samo 3
▁Sap 3
▁Seg 3
▁Sit 3
▁Svet 3
▁Sán 3
▁Tai 3
▁Ts 3
▁Uc 3
▁Uhr 3
▁Uns 3
▁Vest 3
▁Volk 3
▁Zag 3
▁actu 3
▁ajat 3
▁aktive 3
▁ambient 3
▁anim 3
▁aran 3
▁arre 3
▁baz 3
▁bien 3
▁biot 3
▁blot 3
▁brev 3
▁buc 3
▁cob 3
▁constru 3
▁cup 3
▁curs 3
▁direktiva 3
▁drum 3
▁dupl 3
▁eff 3
▁ega 3
▁ero 3
▁especial 3
▁essa 3
▁etn 3
▁excel 3
▁fam 3
▁fie 3
▁fik 3
▁finaliz 3
▁fiz 3
▁friv 3
▁fér 3
▁gav 3
▁gem 3
▁gle 3
▁grandi 3
▁graves 3
▁hava 3
▁hinge 3
▁hool 3
▁hu 3
▁idej 3
▁immers 3
▁incontro 3
▁inic 3
▁integ 3
▁inver 3
▁invert 3
▁jog 3
▁kak 3
▁lop 3
▁maiden 3
▁mala 3
▁mechanizmus 3
▁nous 3
▁orde 3
▁particul 3
▁patente 3
▁peaks 3
▁peg 3
▁pij 3
▁polity 3
▁posluš 3
▁premier 3
▁primit 3
▁proporcion 3
▁propri 3
▁razie 3
▁ripresa 3
▁sar 3
▁scor 3
▁senza 3
▁sik 3
▁skal 3
▁sklep 3
▁solicit 3
▁solo 3
▁sosp 3
▁svet 3
▁teem 3
▁tin 3
▁toes 3
▁tos 3
▁trak 3
▁tud 3
▁tám 3
▁ulter 3
▁valor 3
▁volil 3
▁volt 3
▁vos 3
▁weig 3
▁wird 3
▁zapis 3
▁Ø 3
▁él 3
▁Šef 3
▁ši 3
▁Žal 3
20- 2
AG 2
FT 2
KB 2
Kore 2
UE 2
adar 2
adda 2
adores 2
adze 2
agne 2
aht 2
aik 2
aika 2
ajas 2
ając 2
aldem 2
alista 2
alizmu 2
allo 2
alne 2
alta 2
amientos 2
ancen 2
andon 2
andus 2
anes 2
anga 2
anji 2
annon 2
arbeit 2
ariam 2
arla 2
arne 2
arrol 2
asite 2
astele 2
aston 2
asz 2
atorium 2
atro 2
atti 2
avond 2
azioni 2
bare 2
baren 2
blica 2
bourg 2
cev 2
chter 2
ciem 2
cza 2
ców 2
dag 2
dea 2
ebru 2
edor 2
eer 2
egn 2
elda 2
elui 2
elve 2
emar 2
emas 2
emel 2
enten 2
erci 2
erer 2
error 2
esed 2
esin 2
esség 2
estos 2
etes 2
etten 2
ezik 2
ezte 2
fah 2
fert 2
hank 2
hias 2
hid 2
hores 2
hund 2
iam 2
icen 2
icher 2
ică 2
idega 2
iedad 2
iedade 2
ienza 2
iert 2
ieten 2
ień 2
igi 2
iket 2
ikko 2
ikum 2
illen 2
ilom 2
imia 2
imina 2
indi 2
inete 2
inim 2
initi 2
inner 2
inni 2
innon 2
intes 2
inárod 2
irea 2
irme 2
isas 2
isches 2
isión 2
ismar 2
istas 2
iszt 2
iteer 2
itk 2
itur 2
ità 2
izmus 2
izo 2
kast 2
kie 2
kö 2
labor 2
leen 2
leet 2
lei 2
leven 2
liw 2
lje 2
lungen 2
lő 2
mens 2
ministeri 2
misi 2
mous 2
naj 2
nea 2
niki 2
occup 2
oin 2
olečnou 2
olj 2
oluk 2
omest 2
onderd 2
onec 2
ordo 2
orta 2
ortar 2
osas 2
osten 2
oton 2
otta 2
otřebí 2
owanie 2
owań 2
parti 2
partner 2
plice 2
plos 2
programm 2
projekt 2
prot 2
quad 2
rama 2
reich 2
reif 2
resso 2
reza 2
rhem 2
rios 2
ritte 2
ruck 2
sein 2
sete 2
smar 2
spre 2
ssel 2
sze 2
teres 2
tien 2
tos 2
tsch 2
udas 2
udes 2
uga 2
ugi 2
umas 2
umt 2
untar 2
untas 2
uo 2
urre 2
urul 2
ură 2
usti 2
ustus 2
veren 2
vete 2
vise 2
volver 2
vos 2
wir 2
yce 2
ynder 2
ysti 2
zam 2
zar 2
zare 2
zimy 2
zion 2
zuk 2
zw 2
zywa 2
Ö 2
ße 2
árd 2
ária 2
árok 2
ãos 2
äss 2
æ 2
élem 2
ész 2
ío 2
ócios 2
óli 2
õ 2
öd 2
öff 2
öt 2
ött 2
ør 2
ù 2
úbl 2
ück 2
üs 2
ütt 2
ăr 2
Ć 2
đ 2
ı 2
ķ 2
ĺ 2
Ľ 2
łow 2
łowie 2
łąc 2
ō 2
ől 2
œ 2
Ś 2
ştin 2
ţ 2
ŵ 2
žnosti 2
Π 2
β 2
γ 2
η 2
π 2
ς 2
ύ 2
ώ 2
▁2010- 2
▁Alan 2
▁Alian 2
▁Allianz 2
▁Anerkennung 2
▁Ans 2
▁Arbeits 2
▁Auswärt 2
▁BDP 2
▁Banken 2
▁Bek 2
▁Bew 2
▁Cies 2
▁Comiss 2
▁Constitu 2
▁Conven 2
▁Corte 2
▁Das 2
▁Energia 2
▁Esper 2
▁Essa 2
▁Eurora 2
▁Familien 2
▁Folg 2
▁França 2
▁Frau 2
▁Fukush 2
▁Führ 2
▁GL 2
▁Gdy 2
▁Geb 2
▁Georgie 2
▁Grazie 2
▁Gren 2
▁Gü 2
▁Głos 2
▁Hän 2
▁Jahr 2
▁Jahre 2
▁Janeiro 2
▁Janu 2
▁Jur 2
▁Kimber 2
▁Kolejnym 2
▁Kontext 2
▁Koz 2
▁Kraft 2
▁Kö 2
▁Lad 2
▁Lambsdor 2
▁Latina 2
▁Leit 2
▁Lub 2
▁Luxemburg 2
▁Macht 2
▁Malm 2
▁McCre 2
▁Meg 2
▁Mehr 2
▁Milli 2
▁Mom 2
▁Mond 2
▁NU 2
▁PO 2
▁Partn 2
▁Polonia 2
▁Przewodniczący 2
▁Präsident 2
▁Pu 2
▁Regime 2
▁Reprezent 2
▁Saks 2
▁Salaf 2
▁Sei 2
▁Senhor 2
▁Shal 2
▁Soc 2
▁Sok 2
▁Sul 2
▁Swed 2
▁Süd 2
▁Tale 2
▁Teg 2
▁Tijd 2
▁Trab 2
▁Tür 2
▁Vielfalt 2
▁Voor 2
▁Wider 2
▁Wir 2
▁Wy 2
▁Zato 2
▁Zielen 2
▁Zu 2
▁Zuk 2
▁abi 2
▁adicional 2
▁agr 2
▁ah 2
▁ai 2
▁alg 2
▁alkal 2
▁aller 2
▁alo 2
▁alte 2
▁analy 2
▁armo 2
▁auch 2
▁audi 2
▁beder 2
▁bev 2
▁bili 2
▁bitten 2
▁brug 2
▁byrok 2
▁ci 2
▁concer 2
▁conten 2
▁così 2
▁credo 2
▁deci 2
▁delin 2
▁dell 2
▁dir 2
▁direktiv 2
▁dobra 2
▁dort 2
▁držav 2
▁edif 2
▁eer 2
▁einmal 2
▁ella 2
▁emisi 2
▁erg 2
▁eso 2
▁etabl 2
▁evro 2
▁facile 2
▁familia 2
▁favor 2
▁finale 2
▁fisc 2
▁font 2
▁fors 2
▁garanci 2
▁gaz 2
▁gel 2
▁genu 2
▁geop 2
▁geschlossen 2
▁giver 2
▁globalis 2
▁goed 2
▁gut 2
▁głos 2
▁głosowanie 2
▁hald 2
▁hasta 2
▁hin 2
▁hip 2
▁hoch 2
▁hoe 2
▁hoop 2
▁hul 2
▁ich 2
▁inclus 2
▁incor 2
▁indem 2
▁informat 2
▁infra 2
▁ingen 2
▁ini 2
▁inim 2
▁instrumenty 2
▁interno 2
▁ism 2
▁jetzt 2
▁joust 2
▁jurid 2
▁keel 2
▁kein 2
▁kelet 2
▁ki 2
▁kie 2
▁kir 2
▁klim 2
▁kohe 2
▁konserv 2
▁koń 2
▁köszönöm 2
▁landm 2
▁lang 2
▁leden 2
▁ling 2
▁liz 2
▁lui 2
▁lup 2
▁magh 2
▁mais 2
▁mang 2
▁mening 2
▁mie 2
▁militari 2
▁mond 2
▁mondiale 2
▁morale 2
▁morem 2
▁morte 2
▁moč 2
▁mund 2
▁nauk 2
▁neiz 2
▁nemen 2
▁nin 2
▁normative 2
▁novi 2
▁nyug 2
▁oorlog 2
▁ora 2
▁oszt 2
▁paket 2
▁parad 2
▁pare 2
▁parlamentar 2
▁parole 2
▁participa 2
▁pian 2
▁piano 2
▁podej 2
▁podpr 2
▁pog 2
▁pokoju 2
▁politica 2
▁politico 2
▁pomys 2
▁porządku 2
▁potem 2
▁prezen 2
▁probe 2
▁pronunci 2
▁prora 2
▁prosil 2
▁prz 2
▁prze 2
▁punktem 2
▁punti 2
▁rak 2
▁rall 2
▁razón 2
▁reclam 2
▁redres 2
▁reformer 2
▁religi 2
▁repar 2
▁rodz 2
▁roman 2
▁rév 2
▁różnorod 2
▁sali 2
▁sano 2
▁saú 2
▁siempre 2
▁sis 2
▁skom 2
▁sod 2
▁solu 2
▁soy 2
▁spro 2
▁stanu 2
▁stare 2
▁sue 2
▁sued 2
▁suger 2
▁suk 2
▁swo 2
▁szy 2
▁sól 2
▁także 2
▁tali 2
▁teat 2
▁termo 2
▁tes 2
▁tragedie 2
▁traj 2
▁transi 2
▁treb 2
▁ts 2
▁tund 2
▁tym 2
▁uważam 2
▁vec 2
▁veh 2
▁verg 2
▁vergessen 2
▁verv 2
▁verz 2
▁vlag 2
▁welt 2
▁wiecz 2
▁wyja 2
▁wz 2
▁zaji 2
▁zakoń 2
▁zale 2
▁zamknię 2
▁zatem 2
▁zbud 2
▁zin 2
▁zon 2
▁zor 2
▁zwei 2
▁às 2
▁ét 2
▁Ś 2
▁ś 2
▁Še 2
▁Špan 2
▁še 2
▁Ţ 2
& 1
Parlament 1
SZ 1
aa 1
aan 1
abili 1
acceptable 1
agens 1
aggio 1
aglio 1
ajad 1
ajat 1
akul 1
alik 1
almat 1
alue 1
ambi 1
ameni 1
amental 1
ample 1
andel 1
anom 1
antast 1
anze 1
arlament 1
aron 1
ationer 1
atok 1
bbi 1
bbl 1
bef 1
beg 1
beh 1
bei 1
bene 1
bile 1
bine 1
blu 1
brit 1
bym 1
cier 1
cte 1
cto 1
culos 1
dad 1
dene 1
dig 1
eben 1
edan 1
egener 1
egre 1
eik 1
eim 1
elek 1
elte 1
emata 1
emente 1
emiss 1
emming 1
endab 1
endit 1
enkin 1
ereze 1
ergia 1
erij 1
erile 1
erin 1
erior 1
ervat 1
esch 1
etet 1
ezt 1
fern 1
fog 1
gere 1
gez 1
haust 1
heen 1
heria 1
hmen 1
hode 1
iai 1
iak 1
iben 1
ickl 1
icos 1
icul 1
idores 1
ierne 1
iging 1
iju 1
ikas 1
iker 1
ikus 1
ilea 1
ileg 1
imas 1
imente 1
imista 1
inas 1
infrastrukt 1
institution 1
intr 1
iones 1
iore 1
isce 1
isel 1
isele 1
iselle 1
istem 1
isv 1
itam 1
iterr 1
itom 1
itura 1
itvami 1
ivea 1
ión 1
jala 1
jali 1
javi 1
jič 1
jt 1
já 1
jár 1
katastro 1
kee 1
keen 1
kit 1
ksa 1
kuse 1
kut 1
lande 1
lasi 1
laste 1
leks 1
leten 1
lij 1
liku 1
lop 1
loč 1
mag 1
maiden 1
mea 1
meet 1
mej 1
minister 1
mog 1
nach 1
nder 1
neje 1
nier 1
nim 1
nio 1
nion 1
noch 1
nyi 1
ocar 1
oco 1
odat 1
ohes 1
oista 1
okk 1
olg 1
olise 1
oló 1
omia 1
omis 1
ommiss 1
onej 1
ontrakt 1
onut 1
opu 1
orio 1
osit 1
ospe 1
ovati 1
owever 1
owi 1
ozione 1
oče 1
plica 1
pois 1
politi 1
pris 1
procedure 1
proces 1
quem 1
rado 1
ranno 1
rask 1
ratég 1
rede 1
regl 1
rele 1
renz 1
rer 1
rije 1
ronter 1
roo 1
roon 1
rti 1
schaft 1
sd 1
sdor 1
sf 1
sia 1
sibile 1
sichts 1
sin 1
sod 1
speriode 1
spr 1
stest 1
stria 1
stron 1
struktur 1
stw 1
ttal 1
tuk 1
ubar 1
uestas 1
ujem 1
ukas 1
ukat 1
uko 1
ukoko 1
uks 1
ulen 1
ulp 1
umis 1
unami 1
unas 1
unde 1
ungsantrag 1
unie 1
unto 1
urde 1
urgers 1
urii 1
uror 1
uskri 1
ustan 1
usten 1
utte 1
után 1
uvat 1
vaa 1
vern 1
vero 1
vind 1
vist 1
volu 1
xemb 1
xte 1
xto 1
yen 1
ymist 1
zap 1
zione 1
ába 1
ánt 1
äre 1
ély 1
ének 1
ézi 1
ì 1
î 1
ój 1
óp 1
óż 1
ôte 1
öm 1
örde 1
új 1
ük 1
ą 1
ąc 1
Ě 1
ěkuji 1
Ĺ 1
ńskim 1
ŕ 1
ź 1
że 1
žar 1
ʻ 1
Ι 1
ζ 1
▁2009. 1
▁2011- 1
▁2011. 1
▁Abst 1
▁Aff 1
▁Afg 1
▁Afganistan 1
▁Alli 1
▁Aspekt 1
▁Bed 1
▁Beg 1
▁Best 1
▁Bras 1
▁Brasil 1
▁Bulgar 1
▁Cash 1
▁Cather 1
▁Conferencia 1
▁Danes 1
▁Deutschland 1
▁Dial 1
▁Dél 1
▁Engagement 1
▁Entsch 1
▁Entschließung 1
▁Ere 1
▁Europeo 1
▁Europese 1
▁Europäischen 1
▁Evrope 1
▁Exter 1
▁Fah 1
▁Finanz 1
▁Fir 1
▁Fol 1
▁Fronte 1
▁Galile 1
▁Geor 1
▁Hisp 1
▁Internationale 1
▁Keh 1
▁Konsens 1
▁Lament 1
▁Las 1
▁Litu 1
▁Lop 1
▁Math 1
▁Moja 1
▁Monten 1
▁Noord 1
▁OMC 1
▁Parlamento 1
▁Parlaments 1
▁Raz 1
▁Rend 1
▁Russ 1
▁SOLV 1
▁Schwe 1
▁Sell 1
▁Señor 1
▁Spre 1
▁Stras 1
▁Ukrainan 1
▁Una 1
▁Unión 1
▁Uno 1
▁Vast 1
▁Völker 1
▁Wert 1
▁Zwei 1
▁abb 1
▁ace 1
▁adopte 1
▁adozione 1
▁agrár 1
▁ain 1
▁aktual 1
▁ala 1
▁amigos 1
▁ampl 1
▁appell 1
▁apr 1
▁asyl 1
▁baj 1
▁baza 1
▁bede 1
▁behal 1
▁bele 1
▁beno 1
▁bese 1
▁biti 1
▁bort 1
▁bru 1
▁byg 1
▁carb 1
▁celor 1
▁celu 1
▁cland 1
▁clima 1
▁concord 1
▁concre 1
▁coresp 1
▁czerw 1
▁deli 1
▁deloc 1
▁demok 1
▁demokrati 1
▁desider 1
▁deten 1
▁deut 1
▁dice 1
▁diz 1
▁dl 1
▁dniu 1
▁dood 1
▁dopo 1
▁dz 1
▁eduk 1
▁eli 1
▁elk 1
▁ember 1
▁enam 1
▁entw 1
▁erkl 1
▁ese 1
▁euroop 1
▁european 1
▁eurot 1
▁exigen 1
▁expres 1
▁fab 1
▁facilita 1
▁farma 1
▁faz 1
▁feb 1
▁fel 1
▁felic 1
▁flus 1
▁forf 1
▁franc 1
▁fry 1
▁für 1
▁ges 1
▁geste 1
▁hay 1
▁heb 1
▁heren 1
▁herr 1
▁hil 1
▁hinter 1
▁hog 1
▁imam 1
▁inclusiv 1
▁incont 1
▁increm 1
▁indig 1
▁indok 1
▁ingl 1
▁instrumentu 1
▁insu 1
▁interna 1
▁interne 1
▁inve 1
▁jal 1
▁jasna 1
▁jaz 1
▁jednolit 1
▁jedy 1
▁joc 1
▁jord 1
▁js 1
▁juni 1
▁kasu 1
▁kett 1
▁kim 1
▁kord 1
▁kriit 1
▁krimina 1
▁kut 1
▁lado 1
▁leb 1
▁liste 1
▁lub 1
▁lím 1
▁macroeconom 1
▁maja 1
▁mani 1
▁manifesta 1
▁mare 1
▁mari 1
▁mayo 1
▁mec 1
▁mechanizm 1
▁mell 1
▁milieu 1
▁milli 1
▁minu 1
▁mite 1
▁muerte 1
▁muka 1
▁mutat 1
▁nag 1
▁naved 1
▁navn 1
▁neil 1
▁nemr 1
▁nepre 1
▁nezakon 1
▁nie 1
▁nota 1
▁nova 1
▁num 1
▁nun 1
▁obeh 1
▁objek 1
▁objet 1
▁obu 1
▁oder 1
▁odpr 1
▁odvis 1
▁offens 1
▁og 1
▁ohran 1
▁okt 1
▁opart 1
▁opis 1
▁organi 1
▁ose 1
▁pah 1
▁pari 1
▁partes 1
▁patrim 1
▁peat 1
▁pení 1
▁perg 1
▁periodo 1
▁persona 1
▁persp 1
▁pett 1
▁pid 1
▁pik 1
▁pis 1
▁plač 1
▁plur 1
▁pluri 1
▁pode 1
▁podem 1
▁politike 1
▁postos 1
▁povez 1
▁prace 1
▁practici 1
▁pravil 1
▁pravo 1
▁praw 1
▁precedente 1
▁prem 1
▁pren 1
▁promo 1
▁propus 1
▁prosti 1
▁punt 1
▁rapport 1
▁rau 1
▁ream 1
▁recep 1
▁rech 1
▁reeks 1
▁registre 1
▁reto 1
▁rif 1
▁ril 1
▁rim 1
▁rozma 1
▁russ 1
▁salvag 1
▁samen 1
▁sana 1
▁sap 1
▁sarc 1
▁saud 1
▁seiner 1
▁sella 1
▁senhor 1
▁senhora 1
▁seno 1
▁sessão 1
▁sint 1
▁situa 1
▁skle 1
▁sok 1
▁solic 1
▁sond 1
▁spil 1
▁spraw 1
▁spun 1
▁stim 1
▁strutt 1
▁subl 1
▁suf 1
▁sug 1
▁supl 1
▁sust 1
▁svo 1
▁svobodo 1
▁tako 1
▁tart 1
▁teh 1
▁tih 1
▁ting 1
▁tipp 1
▁tod 1
▁toliko 1
▁toot 1
▁tote 1
▁tradu 1
▁transpar 1
▁transportu 1
▁trov 1
▁trud 1
▁tukem 1
▁tér 1
▁ultima 1
▁unas 1
▁unser 1
▁unver 1
▁usu 1
▁vand 1
▁vas 1
▁vesz 1
▁veszt 1
▁viet 1
▁vist 1
▁vista 1
▁voce 1
▁vog 1
▁volte 1
▁vor 1
▁vora 1
▁wilde 1
▁wiz 1
▁ya 1
▁zapos 1
▁zawi 1
▁zi 1
▁¡ 1
▁á 1
▁ä 1
▁ó 1
▁М 1
madeupword0000 0
madeupword0001 0
