en 1
▁d 1
er 1
▁, 1
▁a 1
▁p 1
▁s 1
in 1
st 1
an 1
▁t 1
re 1
on 1
▁. 1
el 1
▁m 1
or 1
at 1
▁v 1
is 1
▁e 1
▁n 1
it 1
ro 1
▁c 1
▁o 1
ar 1
al 1
▁de 1
▁k 1
et 1
▁l 1
ch 1
es 1
os 1
un 1
ie 1
ent 1
em 1
▁f 1
il 1
▁h 1
ra 1
▁b 1
om 1
am 1
as 1
▁in 1
▁j 1
ol 1
▁z 1
▁w 1
ed 1
id 1
▁E 1
ad 1
im 1
eg 1
ci 1
▁g 1
ul 1
ic 1
ik 1
ig 1
us 1
ot 1
ion 1
▁re 1
ut 1
qu 1
he 1
od 1
te 1
ist 1
ia 1
▁P 1
iv 1
le 1
rop 1
ak 1
ur 1
на 1
est 1
ing 1
▁un 1
ov 1
▁en 1
ek 1
ud 1
▁qu 1
▁S 1
um 1
▁pro 1
▁п 1
▁la 1
la 1
ri 1
▁с 1
▁i 1
▁al 1
▁A 1
av 1
▁con 1
▁st 1
▁se 1
ap 1
urop 1
og 1
▁an 1
ij 1
ter 1
▁на 1
▁di 1
▁na 1
▁to 1
ни 1
ost 1
▁on 1
то 1
end 1
▁C 1
▁D 1
and 1
▁the 1
sk 1
▁M 1
ich 1
та 1
▁I 1
▁que 1
▁pr 1
ab 1
are 1
ament 1
▁for 1
op 1
ва 1
ok 1
ра 1
ow 1
▁д 1
те 1
ni 1
▁- 1
▁el 1
ev 1
res 1
▁и 1
aj 1
ne 1
ct 1
ir 1
és 1
но 1
ere 1
▁r 1
▁par 1
ag 1
▁Europ 1
▁U 1
iss 1
▁T 1
sp 1
ust 1
ru 1
▁com 1
ре 1
ez 1
▁ja 1
▁do 1
▁K 1
iz 1
ão 1
▁о 1
▁) 1
▁в 1
▁( 1
to 1
▁del 1
se 1
▁î 1
▁er 1
▁der 1
▁da 1
▁at 1
▁y 1
▁B 1
ej 1
▁die 1
az 1
▁sp 1
за 1
▁van 1
ta 1
▁în 1
ce 1
▁u 1
ast 1
no 1
ke 1
▁V 1
не 1
▁R 1
ord 1
si 1
▁te 1
ort 1
ст 1
▁of 1
▁est 1
ell 1
▁L 1
▁per 1
▁et 1
ung 1
▁ne 1
▁su 1
▁2 1
ob 1
apos 1
ze 1
▁ra 1
li 1
ny 1
▁pre 1
rat 1
zy 1
ní 1
▁is 1
ti 1
▁N 1
uk 1
ál 1
ás 1
▁к 1
je 1
▁im 1
▁op 1
▁ma 1
▁за 1
me 1
▁az 1
▁pol 1
▁th 1
▁og 1
▁as 1
▁and 1
▁G 1
ón 1
ente 1
▁по 1
ää 1
▁es 1
▁ob 1
▁H 1
de 1
ele 1
ou 1
▁ver 1
ро 1
▁да 1
ione 1
oz 1
ate 1
lament 1
ja 1
▁und 1
ale 1
▁& 1
▁F 1
▁ac 1
▁Par 1
ens 1
ess 1
▁af 1
ind 1
lem 1
▁je 1
▁sz 1
ме 1
ran 1
▁om 1
ine 1
uro 1
na 1
▁za 1
▁20 1
ten 1
ри 1
▁het 1
▁me 1
tä 1
ho 1
ts 1
▁vo 1
ber 1
omis 1
io 1
ver 1
▁W 1
▁be 1
▁den 1
▁si 1
ui 1
sz 1
eb 1
ier 1
▁so 1
gy 1
▁EU 1
omm 1
▁pod 1
ien 1
▁um 1
ica 1
cz 1
▁am 1
че 1
▁от 1
▁O 1
ите 1
ия 1
ass 1
up 1
for 1
▁és 1
▁ro 1
ond 1
▁em 1
ac 1
kt 1
ка 1
ation 1
ea 1
port 1
▁ex 1
▁ar 1
ít 1
▁med 1
▁no 1
sen 1
ле 1
ah 1
ég 1
ção 1
ile 1
▁J 1
ii 1
▁le 1
şi 1
▁pos 1
▁е 1
rav 1
pl 1
▁Parlament 1
än 1
▁reg 1
ih 1
▁europ 1
▁př 1
ла 1
▁polit 1
ega 1
ado 1
▁od 1
ant 1
▁fin 1
oc 1
ka 1
▁să 1
ben 1
len 1
ér 1
ici 1
oh 1
▁che 1
▁ab 1
▁os 1
▁il 1
ada 1
ett 1
ma 1
▁ter 1
ág 1
▁por 1
ogy 1
ang 1
ли 1
да 1
▁los 1
▁para 1
▁Europe 1
cia 1
▁til 1
▁by 1
▁inter 1
▁pa 1
ów 1
yt 1
▁Un 1
ult 1
quot 1
den 1
ción 1
▁şi 1
▁or 1
▁dat 1
ти 1
во 1
ве 1
▁sk 1
▁1 1
át 1
▁ко 1
und 1
▁mo 1
▁hogy 1
ise 1
ly 1
▁ž 1
ati 1
isch 1
▁dem 1
ug 1
▁we 1
ali 1
▁kon 1
▁: 1
der 1
ред 1
ego 1
▁vi 1
▁pu 1
ve 1
án 1
nost 1
mi 1
uj 1
idad 1
▁ü 1
ommiss 1
▁Z 1
aan 1
vo 1
▁се 1
▁ad 1
zi 1
ff 1
vrop 1
▁Euro 1
ks 1
▁б 1
▁een 1
▁nu 1
▁ap 1
▁voor 1
con 1
▁po 1
rit 1
ма 1
ft 1
ко 1
▁cont 1
▁finan 1
▁meg 1
▁au 1
ige 1
áv 1
ende 1
int 1
▁ki 1
▁In 1
▁co 1
▁des 1
icht 1
gen 1
resid 1
ill 1
▁tä 1
be 1
ning 1
ato 1
▁г 1
▁val 1
▁pe 1
▁ú 1
iti 1
▁Euroop 1
ür 1
itu 1
▁съ 1
pa 1
erg 1
ji 1
én 1
nie 1
ym 1
ativ 1
▁una 1
▁ein 1
▁that 1
▁det 1
▁tak 1
▁kö 1
ied 1
ám 1
мо 1
sch 1
▁ka 1
du 1
lo 1
ych 1
ese 1
bl 1
ми 1
ви 1
▁cons 1
▁č 1
bi 1
▁este 1
ei 1
ър 1
ban 1
▁cu 1
za 1
▁kan 1
ние 1
itt 1
lich 1
ge 1
ora 1
use 1
zt 1
ár 1
iet 1
▁prop 1
ista 1
ento 1
wa 1
▁sol 1
ito 1
ste 1
ers 1
ard 1
ül 1
▁mu 1
val 1
po 1
ite 1
red 1
cion 1
vropsk 1
so 1
▁las 1
rem 1
ados 1
▁200 1
▁tra 1
▁Presid 1
ku 1
▁ik 1
ani 1
▁ag 1
ili 1
▁zu 1
ně 1
ijn 1
▁va 1
▁ра 1
ect 1
▁не 1
ely 1
cial 1
▁ha 1
eren 1
pro 1
▁nie 1
▁men 1
ju 1
amente 1
▁sa 1
ekt 1
amo 1
▁că 1
ém 1
ht 1
▁care 1
że 1
ск 1
▁ind 1
▁ser 1
reb 1
entru 1
sa 1
emb 1
isi 1
elt 1
▁he 1
är 1
hr 1
ces 1
▁wir 1
▁pot 1
▁li 1
▁pra 1
ante 1
fic 1
ön 1
tt 1
▁že 1
▁pentru 1
▁tem 1
▁dis 1
▁Europa 1
unt 1
▁ist 1
nen 1
▁St 1
ení 1
▁Uni 1
ko 1
äl 1
▁т 1
ól 1
ede 1
men 1
▁пред 1
▁é 1
▁res 1
all 1
зи 1
elij 1
▁prob 1
elle 1
де 1
▁int 1
iden 1
hed 1
▁ve 1
▁че 1
ąc 1
▁econ 1
ais 1
cht 1
▁energ 1
iem 1
▁! 1
ys 1
▁pri 1
ken 1
ib 1
▁import 1
▁sam 1
▁että 1
ita 1
▁das 1
ice 1
jen 1
▁von 1
▁leg 1
▁over 1
▁ch 1
▁nem 1
ilor 1
ци 1
ania 1
ram 1
го 1
пе 1
▁Con 1
▁до 1
pod 1
▁dos 1
ater 1
ive 1
▁resp 1
ør 1
ide 1
▁ud 1
ните 1
form 1
▁egy 1
ých 1
▁dass 1
ät 1
▁som 1
ще 1
▁har 1
nak 1
▁bet 1
▁inst 1
ros 1
▁Е 1
lan 1
▁ge 1
ét 1
▁ri 1
ki 1
▁min 1
▁из 1
▁på 1
esta 1
ori 1
ди 1
și 1
ert 1
ven 1
▁jak 1
▁про 1
oll 1
ern 1
zen 1
▁Commiss 1
ave 1
▁ol 1
ott 1
га 1
же 1
mo 1
▁ei 1
ści 1
igt 1
▁part 1
▁wer 1
▁mil 1
né 1
▁UE 1
▁prz 1
ura 1
ont 1
▁met 1
ore 1
▁то 1
ec 1
ния 1
vet 1
ului 1
ões 1
ity 1
ike 1
▁iz 1
▁ent 1
▁ка 1
вро 1
ään 1
▁mod 1
ida 1
ata 1
nd 1
▁lu 1
ло 1
ure 1
ina 1
по 1
va 1
▁roz 1
alt 1
▁się 1
abil 1
▁mi 1
ös 1
ване 1
lu 1
ene 1
unk 1
▁въ 1
▁Est 1
▁it 1
▁wh 1
▁European 1
vol 1
ido 1
▁võ 1
▁tod 1
▁wy 1
▁; 1
▁für 1
▁tran 1
▁tr 1
fer 1
▁all 1
▁pred 1
▁dire 1
anie 1
си 1
▁și 1
aks 1
pp 1
▁problem 1
pr 1
▁acest 1
go 1
▁En 1
ospod 1
▁kom 1
▁mit 1
▁bi 1
ност 1
ami 1
▁prog 1
uró 1
▁że 1
inen 1
ari 1
area 1
gan 1
ika 1
▁при 1
azione 1
tó 1
▁De 1
cess 1
ки 1
▁Komis 1
▁Se 1
ument 1
▁Evropsk 1
▁sob 1
▁us 1
rž 1
▁gen 1
ţi 1
esk 1
▁din 1
▁are 1
ingen 1
lat 1
▁parlament 1
edn 1
▁201 1
vis 1
▁sch 1
enh 1
▁vil 1
eh 1
ioni 1
жа 1
▁aan 1
ico 1
mer 1
rateg 1
се 1
▁raz 1
ane 1
▁word 1
oč 1
esti 1
pt 1
art 1
ová 1
▁Euroopa 1
sta 1
áll 1
kl 1
00 1
raw 1
▁vol 1
▁kter 1
▁mis 1
cí 1
▁gl 1
emos 1
ala 1
▁uma 1
itä 1
jo 1
ischen 1
▁у 1
eks 1
▁auf 1
▁è 1
erne 1
uks 1
kon 1
▁della 1
▁dec 1
lig 1
ря 1
▁inc 1
▁Ver 1
▁alle 1
▁lo 1
▁tot 1
imi 1
▁conc 1
lag 1
▁this 1
▁vast 1
▁mai 1
▁któ 1
ava 1
lik 1
▁comp 1
alm 1
uss 1
▁Presidente 1
▁przy 1
ono 1
aliz 1
ca 1
urópa 1
eme 1
▁ku 1
led 1
па 1
▁об 1
ue 1
▁pom 1
ando 1
äs 1
▁cr 1
wi 1
▁act 1
yst 1
rij 1
nosti 1
▁zijn 1
ire 1
eten 1
we 1
nk 1
▁quest 1
▁imp 1
▁а 1
▁como 1
▁ho 1
era 1
uld 1
▁av 1
ím 1
iten 1
▁dies 1
che 1
aten 1
▁euro 1
▁ot 1
ry 1
igen 1
ba 1
elijk 1
uv 1
isen 1
ær 1
▁situ 1
▁kun 1
▁not 1
▁ju 1
hat 1
▁vor 1
▁sobre 1
▁man 1
▁europe 1
nych 1
land 1
wo 1
▁non 1
isk 1
▁aut 1
amos 1
▁econom 1
ény 1
anje 1
ies 1
▁tö 1
zione 1
▁Pr 1
▁Comis 1
▁před 1
ron 1
▁Ar 1
▁my 1
els 1
ért 1
ano 1
ök 1
▁kell 1
▁pi 1
anto 1
▁ре 1
elm 1
ска 1
мен 1
eld 1
ęd 1
вропе 1
ren 1
▁deb 1
rod 1
вропей 1
ute 1
egen 1
▁% 1
ana 1
▁ta 1
▁bud 1
▁bes 1
cs 1
▁wa 1
att 1
▁pres 1
▁treb 1
▁form 1
▁ko 1
▁hat 1
min 1
ията 1
ру 1
▁sv 1
gi 1
ità 1
▁sem 1
▁ed 1
ív 1
elen 1
▁ty 1
pe 1
▁ikke 1
isten 1
▁hab 1
▁ni 1
▁Com 1
▁/ 1
▁have 1
▁ved 1
▁mar 1
pre 1
ila 1
▁var 1
▁prin 1
▁ca 1
urópai 1
ider 1
iva 1
yv 1
ções 1
▁vot 1
iej 1
ga 1
ime 1
alo 1
ungen 1
ís 1
chen 1
ima 1
ith 1
▁fel 1
nic 1
▁Parlamento 1
ident 1
lj 1
ade 1
чи 1
▁tul 1
rom 1
yn 1
ger 1
hd 1
▁mer 1
20 1
hte 1
▁Al 1
▁раз 1
ische 1
owa 1
▁jest 1
▁drž 1
yw 1
▁dei 1
▁ole 1
▁bel 1
uje 1
▁esp 1
osta 1
▁não 1
zn 1
▁à 1
nih 1
▁ich 1
▁rec 1
še 1
▁tar 1
▁bo 1
utt 1
▁ning 1
▁nos 1
об 1
ía 1
ering 1
▁sig 1
por 1
▁С 1
▁tag 1
ше 1
тел 1
▁als 1
ság 1
▁kor 1
ejsk 1
vest 1
bo 1
mis 1
cy 1
▁nad 1
▁koh 1
▁vä 1
her 1
ча 1
ase 1
▁seg 1
ány 1
ação 1
ikk 1
él 1
ád 1
prav 1
▁js 1
oni 1
▁Kommiss 1
ame 1
ced 1
ста 1
▁ef 1
▁ten 1
cie 1
▁cre 1
▁with 1
▁Re 1
▁poz 1
its 1
elor 1
▁jo 1
▁gr 1
▁nä 1
▁eine 1
vor 1
nem 1
ete 1
sti 1
ret 1
ss 1
▁ur 1
pres 1
▁An 1
▁? 1
ini 1
▁под 1
▁niet 1
hod 1
vat 1
▁zd 1
ép 1
amento 1
amis 1
ła 1
eri 1
itate 1
eli 1
else 1
▁fa 1
▁jed 1
▁tud 1
▁ale 1
rol 1
▁prav 1
imo 1
▁strateg 1
▁werden 1
▁aby 1
▁priv 1
▁мо 1
▁heb 1
▁land 1
ema 1
▁са 1
ua 1
ilo 1
ner 1
▁П 1
ák 1
▁amely 1
olu 1
ual 1
ick 1
ha 1
▁komis 1
▁nas 1
vi 1
áz 1
що 1
▁tut 1
ната 1
ille 1
▁gospod 1
▁nicht 1
бо 1
▁пре 1
erd 1
ycz 1
let 1
tre 1
nek 1
▁Cons 1
▁Pro 1
▁dell 1
ék 1
că 1
▁си 1
▁pop 1
▁cz 1
ella 1
ší 1
▁maj 1
▁mus 1
▁ut 1
▁ny 1
idade 1
▁vel 1
het 1
eda 1
▁ris 1
inn 1
uden 1
rib 1
▁program 1
istä 1
ство 1
rio 1
▁tam 1
uri 1
ighed 1
ля 1
▁spraw 1
▁fra 1
heid 1
eni 1
▁mor 1
▁Euroopan 1
ící 1
▁köz 1
kk 1
▁Jeg 1
▁jä 1
▁uit 1
▁worden 1
aja 1
ajo 1
iske 1
▁Me 1
ség 1
▁region 1
nej 1
år 1
one 1
▁organ 1
une 1
rad 1
bb 1
сти 1
це 1
ino 1
man 1
ăr 1
ión 1
▁más 1
▁cl 1
▁ce 1
▁това 1
jem 1
taa 1
▁Kommission 1
▁han 1
asta 1
▁ci 1
elo 1
ńst 1
▁3 1
▁К 1
▁Ma 1
les 1
сно 1
▁demok 1
kö 1
лед 1
▁intern 1
вропейск 1
▁пра 1
lement 1
▁mind 1
lus 1
ovat 1
iste 1
fr 1
zie 1
ela 1
▁polít 1
pi 1
▁ще 1
▁memb 1
enti 1
▁mul 1
▁dar 1
▁kos 1
co 1
▁tu 1
czy 1
ivo 1
▁м 1
▁nov 1
üs 1
▁ass 1
▁dom 1
▁ze 1
▁dan 1
▁kol 1
atud 1
▁prote 1
▁pov 1
ras 1
▁El 1
▁post 1
▁vy 1
aria 1
▁We 1
old 1
ită 1
бва 1
ří 1
рябва 1
▁bez 1
ment 1
▁cel 1
ske 1
▁sel 1
zo 1
▁tek 1
ky 1
nik 1
▁Det 1
▁бъ 1
ales 1
▁soci 1
ör 1
anja 1
õig 1
▁gar 1
ги 1
▁stat 1
▁те 1
gl 1
▁which 1
мис 1
ności 1
▁sen 1
▁transp 1
ciones 1
▁país 1
ържа 1
▁aj 1
▁Union 1
▁eff 1
▁dal 1
▁disc 1
▁fav 1
▁spe 1
▁jeg 1
▁will 1
ole 1
▁väl 1
ито 1
ario 1
▁kl 1
хо 1
▁Europese 1
ama 1
▁pow 1
▁ace 1
▁prim 1
▁europea 1
▁toim 1
▁naj 1
err 1
olog 1
rag 1
▁ме 1
akt 1
▁pon 1
endo 1
ero 1
enn 1
▁vý 1
elő 1
sio 1
▁fo 1
▁ez 1
▁ok 1
▁inform 1
▁lid 1
▁Estados 1
▁sul 1
ign 1
que 1
▁social 1
▁glob 1
hem 1
▁has 1
ink 1
▁bl 1
äm 1
ub 1
▁които 1
▁rela 1
uie 1
▁па 1
▁Ich 1
iei 1
жда 1
▁dob 1
ald 1
ación 1
cer 1
szy 1
ъл 1
hand 1
▁prze 1
▁та 1
▁dit 1
▁parte 1
▁skal 1
ünk 1
▁invest 1
▁ф 1
almente 1
ăm 1
ého 1
tern 1
▁produ 1
▁teh 1
issa 1
olit 1
idas 1
assa 1
▁uns 1
isa 1
▁го 1
este 1
zia 1
▁Ik 1
▁pan 1
pan 1
▁esta 1
plic 1
ări 1
õh 1
cji 1
▁fund 1
ring 1
ions 1
leg 1
▁let 1
▁pal 1
ên 1
cha 1
ement 1
zet 1
▁fi 1
oli 1
▁comun 1
▁EN 1
amen 1
▁biz 1
▁delle 1
▁To 1
лен 1
▁де 1
▁konk 1
ję 1
▁držav 1
▁трябва 1
▁gro 1
▁raport 1
ára 1
▁В 1
täv 1
▁onder 1
▁evropsk 1
▁” 1
▁alt 1
▁selle 1
▁La 1
ът 1
ember 1
put 1
▁pers 1
my 1
▁jäsen 1
uman 1
▁deze 1
▁ø 1
ások 1
tal 1
▁sist 1
ric 1
▁sup 1
esz 1
▁princi 1
vel 1
▁dru 1
▁ir 1
eret 1
imento 1
▁като 1
▁über 1
▁kä 1
▁ke 1
▁geb 1
▁pun 1
stru 1
ител 1
uf 1
ních 1
сто 1
dy 1
olg 1
▁financi 1
▁col 1
▁Europä 1
▁ste 1
érd 1
▁As 1
▁sich 1
sed 1
ije 1
▁DE 1
ět 1
entes 1
ler 1
di 1
ето 1
жи 1
by 1
▁Europejsk 1
▁ст 1
▁prod 1
ło 1
▁hebben 1
▁ao 1
uste 1
ijo 1
▁kap 1
ást 1
ování 1
▁infor 1
adas 1
▁ook 1
▁auch 1
las 1
▁pří 1
ând 1
ism 1
▁comm 1
▁beg 1
▁importante 1
get 1
▁Î 1
▁sc 1
ня 1
orm 1
wer 1
▁Senh 1
▁Comiss 1
▁mais 1
chte 1
žit 1
ví 1
▁cs 1
oj 1
▁kans 1
▁dur 1
дател 1
▁oc 1
▁Европейск 1
del 1
sm 1
▁отно 1
hal 1
▁wi 1
▁zak 1
koz 1
▁държа 1
▁jot 1
ében 1
ща 1
▁liber 1
▁væ 1
▁jel 1
▁neg 1
▁5 1
▁tom 1
▁The 1
▁kas 1
▁sub 1
▁her 1
lativ 1
▁lah 1
tu 1
itet 1
▁legis 1
▁see 1
▁Ch 1
▁num 1
▁zw 1
ellen 1
utta 1
idar 1
▁necess 1
ezet 1
ция 1
ctor 1
▁bij 1
ena 1
jon 1
usta 1
tr 1
▁kr 1
ank 1
▁trebuie 1
▁Európai 1
ват 1
▁În 1
ins 1
ým 1
▁democ 1
▁sind 1
▁Т 1
▁ин 1
ara 1
▁aus 1
▁moeten 1
sib 1
gel 1
▁но 1
▁inf 1
▁prior 1
ič 1
▁Г 1
ți 1
▁Az 1
▁hyv 1
hen 1
▁nat 1
als 1
▁nap 1
▁zap 1
▁ч 1
▁kõ 1
enia 1
▁regul 1
▁Ко 1
▁въз 1
isu 1
ñor 1
szág 1
slag 1
▁š 1
▁def 1
▁alla 1
▁haben 1
ől 1
ść 1
▁Er 1
▁Vi 1
▁ev 1
ду 1
▁sm 1
▁integ 1
▁ś 1
eft 1
yk 1
avad 1
▁Na 1
▁acord 1
▁was 1
▁trat 1
▁Sch 1
ons 1
ket 1
pos 1
▁EL 1
▁wsp 1
▁pl 1
ates 1
nov 1
äär 1
▁Европейския 1
▁2009 1
лю 1
▁nel 1
▁asp 1
ona 1
tság 1
▁gru 1
uw 1
▁important 1
ată 1
ân 1
▁ih 1
▁kot 1
ят 1
▁wie 1
▁trab 1
▁Reg 1
rok 1
▁consider 1
▁2020 1
bej 1
▁teg 1
▁President 1
▁ai 1
atie 1
▁sunt 1
▁mog 1
jet 1
zit 1
isse 1
ós 1
▁human 1
▁Evrop 1
▁tudi 1
age 1
▁wird 1
▁hu 1
olut 1
ann 1
itar 1
▁sono 1
rument 1
▁elő 1
imm 1
▁ker 1
▁hal 1
▁kui 1
▁wo 1
▁contin 1
bor 1
▁gospodar 1
▁Wir 1
▁skup 1
lt 1
▁yhte 1
▁waar 1
▁2010 1
▁Н 1
▁vu 1
able 1
▁fond 1
ottság 1
kin 1
pra 1
sto 1
ija 1
▁nog 1
▁Li 1
usi 1
ystem 1
▁Es 1
æl 1
▁ig 1
essa 1
▁liik 1
▁бе 1
ject 1
erv 1
нието 1
iliz 1
nego 1
ването 1
▁go 1
▁mon 1
про 1
▁Lis 1
eva 1
▁proced 1
▁Fra 1
da 1
▁zag 1
oor 1
eket 1
▁hand 1
inte 1
unn 1
imin 1
ání 1
ód 1
sedn 1
egu 1
▁Bar 1
▁lä 1
det 1
▁frem 1
▁kri 1
со 1
esi 1
▁4 1
ats 1
icas 1
zą 1
öt 1
par 1
ência 1
rei 1
▁państ 1
▁Unione 1
cu 1
ства 1
▁Commission 1
ży 1
osti 1
ew 1
▁jog 1
пра 1
ása 1
▁které 1
ăt 1
▁stabil 1
▁ak 1
кти 1
▁rend 1
ling 1
erea 1
pu 1
agy 1
wod 1
▁tur 1
▁acc 1
ţii 1
▁Th 1
▁sus 1
idades 1
sten 1
▁ess 1
enden 1
kow 1
lam 1
▁prov 1
▁adop 1
ха 1
št 1
▁mig 1
▁Mr 1
▁neces 1
lov 1
▁gest 1
cio 1
eit 1
iver 1
▁Biz 1
▁gli 1
▁partic 1
ající 1
ното 1
▁heeft 1
▁które 1
▁pää 1
ony 1
▁ben 1
мисията 1
▁politik 1
▁ord 1
ivel 1
isis 1
▁rig 1
▁cor 1
▁Ha 1
akse 1
tw 1
nega 1
▁also 1
▁merc 1
omen 1
▁zá 1
▁Por 1
▁jako 1
▁kra 1
ząc 1
▁coop 1
ck 1
øre 1
zitter 1
rov 1
▁conf 1
ор 1
седател 1
gu 1
▁cap 1
ular 1
owi 1
ică 1
▁stand 1
fel 1
▁dů 1
▁úr 1
ламен 1
uto 1
ést 1
nök 1
▁бъде 1
▁mag 1
itte 1
ły 1
▁amb 1
▁pok 1
chten 1
▁wil 1
ész 1
▁fog 1
entr 1
ip 1
▁países 1
olj 1
odo 1
▁prom 1
кре 1
esso 1
šč 1
▁lev 1
▁zem 1
▁mõ 1
▁áll 1
▁best 1
ungs 1
urs 1
tö 1
ational 1
ked 1
▁più 1
ük 1
iment 1
▁need 1
nym 1
tek 1
▁kesk 1
▁tal 1
▁door 1
▁sell 1
ezi 1
▁jelent 1
▁plan 1
▁entre 1
▁mak 1
▁gi 1
▁alg 1
▁Die 1
hoz 1
▁przed 1
кто 1
over 1
ěl 1
▁komiss 1
ské 1
ât 1
idu 1
▁Comisión 1
▁Herr 1
▁ust 1
amp 1
▁zas 1
acji 1
äsident 1
▁mom 1
så 1
▁Commissie 1
lev 1
▁mö 1
▁ette 1
▁myös 1
▁må 1
▁oh 1
би 1
зо 1
waż 1
alla 1
lä 1
▁olem 1
▁sie 1
že 1
▁bev 1
ance 1
▁Comissão 1
▁19 1
▁rez 1
▁fut 1
idän 1
▁cer 1
ule 1
▁Bizottság 1
anti 1
▁contrib 1
öl 1
▁questo 1
lad 1
mp 1
лу 1
▁vál 1
▁trans 1
▁proces 1
▁bizt 1
isesti 1
▁Ber 1
cional 1
▁real 1
óm 1
▁også 1
▁term 1
▁end 1
▁oma 1
ран 1
▁zur 1
▁dla 1
▁Mit 1
▁proj 1
ady 1
зна 1
▁id 1
uda 1
▁belang 1
▁FR 1
▁Der 1
▁apo 1
нето 1
▁sta 1
▁Ab 1
▁så 1
▁cas 1
▁dot 1
cto 1
▁kw 1
▁Gr 1
ontos 1
elj 1
cze 1
ude 1
▁dov 1
▁pla 1
ges 1
itos 1
▁formand 1
▁come 1
ować 1
▁nam 1
ал 1
▁ant 1
▁du 1
▁todos 1
▁zad 1
owych 1
▁Het 1
mes 1
▁kont 1
▁zo 1
▁czł 1
▁wij 1
▁ovat 1
iar 1
ektor 1
rz 1
urile 1
▁dok 1
▁out 1
uksen 1
voisa 1
illa 1
▁tym 1
aren 1
▁vah 1
imp 1
▁práv 1
▁denne 1
▁crisis 1
▁pog 1
ça 1
alik 1
ъм 1
esse 1
▁predsedn 1
▁Senhor 1
ско 1
▁stát 1
▁tre 1
▁õig 1
▁има 1
uni 1
▁relat 1
per 1
stat 1
gt 1
▁política 1
ved 1
aság 1
olo 1
▁Aus 1
▁sin 1
▁jej 1
▁gener 1
▁стра 1
▁dez 1
▁demokrat 1
ivi 1
enie 1
itut 1
▁rol 1
rá 1
erm 1
cho 1
▁nõ 1
▁oraz 1
▁ins 1
▁kül 1
▁autor 1
anz 1
tte 1
uer 1
wodnic 1
▁under 1
▁Комисията 1
ep 1
▁председател 1
▁nev 1
heit 1
▁Präsident 1
▁exist 1
bién 1
▁posit 1
owania 1
▁bych 1
olt 1
▁would 1
jih 1
▁vz 1
▁refer 1
azd 1
▁maar 1
orte 1
▁put 1
▁Liss 1
reg 1
olitik 1
▁redu 1
wodnicząc 1
män 1
коно 1
▁nost 1
вя 1
ninger 1
▁luc 1
▁té 1
▁car 1
▁contra 1
elu 1
nes 1
▁Q 1
▁ges 1
вър 1
▁jav 1
▁lahko 1
рламен 1
▁szám 1
kez 1
▁stan 1
▁sector 1
▁perm 1
▁európai 1
▁odp 1
enta 1
ial 1
▁поли 1
▁organiz 1
вите 1
▁fol 1
lichen 1
icos 1
astă 1
amise 1
iemb 1
▁kann 1
ations 1
▁pass 1
▁mě 1
fici 1
rze 1
éz 1
▁би 1
cias 1
uta 1
ţia 1
ležit 1
ním 1
avat 1
▁2008 1
▁dop 1
niej 1
estä 1
ţie 1
▁solidar 1
ąz 1
med 1
▁IT 1
▁publ 1
▁sec 1
▁мно 1
ach 1
▁Unie 1
▁instrument 1
▁unter 1
гово 1
andus 1
anju 1
кла 1
▁Unión 1
ěd 1
юз 1
▁keh 1
kom 1
▁dev 1
apa 1
сич 1
ną 1
ási 1
▁mot 1
▁przez 1
▁europeo 1
ome 1
▁полити 1
itatea 1
yd 1
▁Member 1
szer 1
rt 1
▁člen 1
▁Co 1
illä 1
itev 1
idos 1
▁esc 1
▁prev 1
ése 1
▁mas 1
▁võim 1
icz 1
▁Ü 1
▁person 1
ional 1
▁jedn 1
▁nej 1
lap 1
▁cam 1
ings 1
elijke 1
nolog 1
ának 1
▁wordt 1
▁Vor 1
řeb 1
▁prec 1
ski 1
▁respect 1
▁kunnen 1
hmen 1
biamo 1
uest 1
▁předsed 1
▁akt 1
▁въпро 1
▁consum 1
вата 1
stä 1
nos 1
ложе 1
▁princip 1
▁tõ 1
▁spre 1
▁medlem 1
▁це 1
▁Europeia 1
æn 1
▁Europäischen 1
▁dre 1
▁wor 1
▁respons 1
ibil 1
▁Ez 1
řed 1
ans 1
▁кон 1
▁partner 1
▁está 1
arte 1
▁bil 1
nia 1
▁kép 1
una 1
▁No 1
▁qual 1
▁Y 1
▁będ 1
asti 1
▁kosk 1
alis 1
▁ext 1
oka 1
lie 1
ům 1
▁Commissione 1
▁Voor 1
ază 1
▁съюз 1
▁from 1
sko 1
▁direct 1
гра 1
ator 1
iche 1
bém 1
▁bas 1
▁forma 1
▁gev 1
oks 1
etto 1
yen 1
log 1
▁fost 1
şed 1
▁there 1
ére 1
śmy 1
uren 1
ningen 1
ijd 1
▁vis 1
ността 1
са 1
▁bed 1
▁poli 1
rke 1
▁económ 1
lasti 1
itor 1
sem 1
ában 1
▁talo 1
▁dette 1
▁cond 1
▁loc 1
ării 1
ange 1
▁tas 1
str 1
▁up 1
▁garant 1
fica 1
▁Dem 1
üt 1
▁seda 1
eksi 1
▁Parlement 1
▁prof 1
▁Sz 1
▁lehet 1
ommen 1
▁põh 1
alta 1
▁zm 1
▁fundament 1
▁această 1
▁azt 1
▁realiz 1
▁mill 1
minist 1
keit 1
▁всич 1
▁fac 1
tävä 1
öv 1
▁rah 1
žen 1
ámog 1
▁diese 1
▁art 1
ozd 1
▁einer 1
▁energia 1
xt 1
▁adopt 1
▁Sign 1
azioni 1
▁utiliz 1
apt 1
▁decis 1
asi 1
org 1
▁União 1
used 1
iego 1
▁fun 1
bar 1
lut 1
tio 1
▁Съ 1
▁sho 1
ové 1
mény 1
azdaság 1
tség 1
iga 1
ative 1
ски 1
▁müs 1
irj 1
▁serv 1
пи 1
▁uk 1
▁иска 1
▁ban 1
▁kön 1
ír 1
▁много 1
▁О 1
▁hier 1
▁naš 1
▁Arvoisa 1
kség 1
▁sik 1
▁energet 1
съ 1
▁anche 1
▁must 1
▁Europea 1
▁vir 1
rie 1
▁our 1
rh 1
innen 1
▁Mitgl 1
▁kapcs 1
▁към 1
▁član 1
▁poroč 1
▁privind 1
ationale 1
▁musí 1
▁ня 1
▁8 1
fog 1
ту 1
▁moet 1
amme 1
▁sek 1
▁mond 1
раз 1
▁wszy 1
▁mell 1
ose 1
▁ни 1
liament 1
▁rów 1
▁müssen 1
▁norm 1
щи 1
▁should 1
ális 1
owie 1
▁nagy 1
van 1
ary 1
▁Lissab 1
▁indust 1
▁след 1
▁também 1
ionen 1
▁puhem 1
ford 1
kim 1
▁stru 1
▁ref 1
mä 1
▁И 1
▁ř 1
itel 1
▁forb 1
▁cum 1
▁ál 1
osten 1
▁just 1
▁sop 1
lij 1
kel 1
▁sua 1
▁üh 1
esm 1
ün 1
aci 1
▁ga 1
▁deput 1
isia 1
oht 1
▁рабо 1
▁speci 1
cil 1
▁miemb 1
ionale 1
▁mult 1
▁vastu 1
ţă 1
emente 1
▁result 1
var 1
imat 1
▁informa 1
▁докла 1
▁puhemies 1
▁człon 1
▁ti 1
oma 1
sst 1
▁6 1
▁spo 1
beit 1
▁bu 1
▁Voorzitter 1
avo 1
eze 1
▁but 1
ály 1
okat 1
▁7 1
▁Da 1
ict 1
ések 1
▁jsou 1
▁relativ 1
▁lug 1
ärj 1
urt 1
▁proto 1
ók 1
ób 1
▁prost 1
▁Stati 1
ska 1
▁att 1
▁täh 1
ба 1
▁nuest 1
emp 1
▁iss 1
inst 1
▁ně 1
▁være 1
▁nav 1
ismo 1
▁което 1
▁count 1
▁can 1
▁támog 1
čno 1
uksia 1
▁може 1
▁sou 1
roz 1
ural 1
гу 1
▁tej 1
ogu 1
▁są 1
esen 1
essä 1
▁спо 1
▁več 1
ittä 1
▁prac 1
ades 1
▁kapcsol 1
ød 1
ního 1
▁reform 1
▁kes 1
клю 1
tscha 1
ets 1
▁Ac 1
sioon 1
▁PL 1
▁también 1
▁Tur 1
▁tego 1
▁nim 1
▁oike 1
ific 1
emo 1
▁käs 1
áj 1
▁kat 1
ný 1
▁praw 1
▁It 1
▁zv 1
▁Señor 1
▁vse 1
eti 1
▁urm 1
any 1
▁system 1
▁hely 1
▁particular 1
▁its 1
▁biztos 1
ivat 1
▁debate 1
▁more 1
▁pak 1
▁hv 1
king 1
▁presid 1
▁Uniun 1
▁wel 1
▁mens 1
▁drept 1
▁któr 1
iu 1
▁kar 1
iko 1
000 1
mente 1
▁Mitglied 1
▁essere 1
af 1
▁fie 1
ära 1
▁ali 1
▁bek 1
ande 1
при 1
▁war 1
aszt 1
▁való 1
▁szab 1
emm 1
voj 1
æiske 1
▁zn 1
▁soll 1
sze 1
ffen 1
▁dost 1
▁union 1
mesri 1
omo 1
су 1
lio 1
rouw 1
ési 1
▁ul 1
▁vé 1
▁lis 1
klad 1
▁agric 1
ror 1
zu 1
▁possib 1
▁Sie 1
▁gy 1
▁ország 1
▁Min 1
▁sistem 1
ühr 1
▁rapp 1
▁membri 1
▁wszyst 1
жду 1
chod 1
do 1
▁Д 1
uur 1
▁disp 1
zenia 1
▁ret 1
▁Parliament 1
uti 1
▁zal 1
▁mater 1
ář 1
▁deg 1
▁For 1
▁modo 1
ział 1
ją 1
ender 1
▁vez 1
▁tako 1
iter 1
▁proti 1
nit 1
▁compro 1
▁sal 1
▁nek 1
ejm 1
▁institu 1
heer 1
ovor 1
práv 1
▁10 1
▁vores 1
▁подкре 1
plo 1
▁cost 1
ając 1
▁sociale 1
ld 1
бе 1
▁civ 1
ző 1
ker 1
▁lor 1
▁pas 1
tev 1
lamend 1
oleč 1
▁joka 1
stav 1
▁Gru 1
▁ah 1
▁arbej 1
ръ 1
▁oly 1
ná 1
▁kaik 1
▁кой 1
▁activ 1
▁stran 1
▁resolu 1
row 1
ænd 1
▁ви 1
дат 1
anza 1
▁ми 1
▁liikmesri 1
▁jäsenval 1
ieve 1
app 1
▁Je 1
ytu 1
emen 1
onder 1
▁Te 1
▁uw 1
▁bei 1
▁käyt 1
▁verb 1
▁този 1
ovo 1
▁ва 1
ských 1
met 1
▁tagáll 1
▁zar 1
▁še 1
▁ES 1
oval 1
olleg 1
tere 1
▁aplic 1
▁On 1
▁nach 1
▁och 1
▁tärke 1
▁deve 1
▁támogat 1
elf 1
▁veel 1
▁sein 1
ügy 1
liche 1
æg 1
▁moż 1
hi 1
▁członkow 1
▁parti 1
ress 1
▁finanč 1
▁коя 1
▁einen 1
ail 1
rea 1
▁mat 1
▁ellen 1
▁който 1
god 1
vik 1
▁2011 1
▁sod 1
hez 1
jud 1
emme 1
спо 1
tag 1
▁която 1
▁kok 1
resc 1
▁miembros 1
▁bý 1
член 1
▁É 1
▁zagot 1
ének 1
▁betre 1
▁követ 1
▁zaj 1
▁States 1
▁most 1
▁tech 1
стве 1
iel 1
цията 1
▁szer 1
▁aga 1
▁toet 1
pad 1
▁Barro 1
▁möchte 1
▁jsem 1
chos 1
▁inim 1
ędzy 1
▁been 1
▁członkowsk 1
dés 1
▁aos 1
▁favor 1
ativa 1
urg 1
łos 1
▁dest 1
eden 1
vir 1
▁process 1
шение 1
▁vagy 1
urilor 1
▁jotka 1
stand 1
▁Ir 1
orevol 1
▁pare 1
▁protec 1
▁cooper 1
imme 1
umento 1
▁Unió 1
Memb 1
ската 1
▁této 1
▁sia 1
▁probl 1
▁juhat 1
▁interna 1
▁dieser 1
▁Elnök 1
ivers 1
ction 1
ænk 1
ném 1
ęp 1
▁ста 1
▁ЕС 1
▁alc 1
рите 1
ché 1
▁espe 1
▁viol 1
▁cred 1
▁dirit 1
до 1
staaten 1
▁podpor 1
owe 1
▁const 1
skab 1
▁koskev 1
▁gew 1
кономи 1
▁olyan 1
anda 1
elser 1
▁Trat 1
ară 1
▁000 1
rug 1
istan 1
▁besch 1
▁bene 1
▁předsedající 1
unto 1
los 1
▁compet 1
staten 1
ári 1
▁ма 1
kor 1
▁desp 1
▁europejsk 1
▁czy 1
▁kérd 1
ettava 1
▁mol 1
▁meie 1
▁също 1
ierung 1
▁kapcsolat 1
▁между 1
ical 1
iera 1
▁bard 1
feren 1
▁ens 1
ório 1
▁sy 1
▁juhataja 1
▁demokra 1
▁wz 1
irm 1
▁medidas 1
aga 1
emy 1
▁durch 1
▁kohta 1
▁So 1
▁continu 1
uma 1
▁report 1
▁global 1
▁být 1
▁bef 1
čin 1
undo 1
▁present 1
▁Kommissionen 1
ţa 1
▁új 1
gang 1
▁Fin 1
ef 1
▁san 1
▁you 1
▁porque 1
▁predsednik 1
▁ry 1
▁spor 1
▁lep 1
▁politica 1
ún 1
▁väga 1
strukt 1
▁alap 1
imy 1
▁komission 1
ální 1
▁resolut 1
▁Б 1
▁saj 1
rob 1
zung 1
izi 1
▁mă 1
▁vigt 1
ärjest 1
цио 1
▁infra 1
ření 1
▁their 1
alog 1
▁jih 1
cul 1
▁Panie 1
▁cele 1
isiin 1
lige 1
▁sistema 1
ivos 1
rift 1
ised 1
▁wur 1
elho 1
▁repres 1
zent 1
▁Ein 1
▁mid 1
etaan 1
▁9 1
owanie 1
▁zpráv 1
änder 1
▁дей 1
ulg 1
▁zav 1
ęk 1
▁gu 1
ital 1
▁trabal 1
au 1
▁hen 1
кра 1
nou 1
▁vég 1
▁interes 1
▁érd 1
öö 1
mist 1
ário 1
▁hun 1
▁sag 1
oto 1
eleid 1
ór 1
owego 1
ian 1
▁între 1
▁europä 1
ieren 1
iones 1
▁puol 1
▁ric 1
▁smo 1
ząd 1
▁meer 1
ível 1
▁Am 1
▁gerne 1
▁przewodnicząc 1
▁dag 1
▁werk 1
▁równie 1
▁mí 1
▁Is 1
erer 1
▁disse 1
ittel 1
▁Ne 1
▁всички 1
▁pes 1
uch 1
▁problema 1
▁икономи 1
▁jas 1
лага 1
set 1
▁Den 1
vu 1
▁ast 1
▁gennem 1
▁А 1
▁така 1
членки 1
atkoz 1
▁tagállam 1
▁ví 1
▁grup 1
▁debat 1
roč 1
▁lavor 1
▁fapt 1
ijnheer 1
adores 1
kov 1
▁membre 1
raz 1
▁Евро 1
▁mida 1
ksi 1
ejo 1
▁sõ 1
▁bre 1
▁bude 1
▁Frau 1
ова 1
▁külön 1
▁cri 1
üg 1
▁sis 1
▁ned 1
geb 1
▁lugar 1
▁Evropské 1
ordin 1
▁like 1
gev 1
▁mož 1
▁гра 1
owy 1
gram 1
sstater 1
▁selv 1
bre 1
▁относно 1
sel 1
praš 1
juk 1
▁lidstaten 1
▁str 1
▁cui 1
▁solu 1
▁nivel 1
ład 1
▁sekä 1
kr 1
▁tega 1
▁commiss 1
wiąz 1
Membros 1
▁Komise 1
▁comb 1
▁tanto 1
▁również 1
▁ide 1
▁liv 1
nacz 1
▁projekt 1
▁ö 1
chter 1
igheder 1
▁preşed 1
▁naar 1
stell 1
ükség 1
▁kons 1
viselő 1
aná 1
col 1
ství 1
▁тази 1
hor 1
▁дру 1
ają 1
amy 1
▁gre 1
eling 1
▁defin 1
sä 1
▁riik 1
lal 1
cept 1
▁náv 1
kal 1
▁kut 1
▁dej 1
wie 1
kra 1
▁aqu 1
▁stø 1
▁společ 1
▁onze 1
ции 1
вен 1
▁suur 1
obil 1
iks 1
▁muito 1
▁тези 1
▁eg 1
▁relazione 1
imos 1
▁Unter 1
▁degli 1
alais 1
▁verd 1
amist 1
▁belangrij 1
▁Europees 1
wor 1
▁ös 1
▁mere 1
▁фи 1
▁økon 1
▁Kon 1
šení 1
▁problém 1
üsim 1
▁Mitgliedstaaten 1
enda 1
▁one 1
uksi 1
▁rad 1
ról 1
▁ons 1
▁както 1
pet 1
▁která 1
inder 1
▁kod 1
лко 1
▁futuro 1
panek 1
▁také 1
▁осно 1
▁gazdaság 1
▁skute 1
rå 1
▁irány 1
tet 1
owej 1
пред 1
kem 1
сте 1
▁szükség 1
ходи 1
▁especial 1
▁Parlamentu 1
▁terror 1
dat 1
▁kasut 1
cent 1
▁control 1
pis 1
ítás 1
вет 1
▁zam 1
▁Rom 1
▁proposta 1
usam 1
▁Mens 1
ones 1
▁questa 1
▁tár 1
▁înt 1
▁arv 1
▁toate 1
▁quanto 1
▁érdek 1
tschaft 1
▁ov 1
volv 1
▁hel 1
nu 1
stüt 1
äh 1
▁środ 1
úbl 1
▁kater 1
▁Европа 1
▁potreb 1
▁tě 1
▁vš 1
ärg 1
▁nez 1
▁lim 1
▁ang 1
dem 1
ваме 1
▁institut 1
itiv 1
▁primer 1
chts 1
▁PT 1
▁red 1
vent 1
зе 1
▁bere 1
▁Па 1
▁hoz 1
▁üle 1
▁lucru 1
▁können 1
kod 1
▁poss 1
iku 1
▁pob 1
aniu 1
мож 1
vé 1
▁sor 1
▁dere 1
▁Il 1
▁mahd 1
ране 1
arm 1
ují 1
áci 1
ős 1
▁Ob 1
rig 1
lou 1
fin 1
▁sprawozd 1
ossa 1
enso 1
▁fontos 1
ser 1
▁equ 1
▁Gospod 1
ordo 1
▁very 1
iszt 1
▁dy 1
▁Barroso 1
ove 1
▁2007 1
▁sprawie 1
▁wicht 1
ół 1
▁informe 1
▁hyvä 1
▁roku 1
▁dam 1
▁abs 1
▁siitä 1
▁maat 1
▁vpraš 1
ność 1
ärk 1
▁työ 1
▁Ra 1
ných 1
▁ped 1
▁andere 1
▁dotycz 1
▁diff 1
▁sim 1
▁sprem 1
ша 1
ków 1
▁aber 1
▁15 1
▁finanzi 1
tat 1
▁mes 1
▁živ 1
вам 1
jš 1
▁neuv 1
▁diesem 1
▁Ho 1
▁responsabil 1
chan 1
ish 1
▁ceea 1
▁meget 1
▁munk 1
miss 1
▁Hr 1
ikka 1
▁noi 1
▁hvor 1
▁най 1
▁nego 1
▁dod 1
▁moramo 1
▁asi 1
▁intéz 1
▁EUR 1
▁caso 1
eta 1
orden 1
▁standard 1
tel 1
uran 1
▁unie 1
ratég 1
iect 1
iene 1
▁são 1
wad 1
▁onorevol 1
▁medlemsstater 1
▁fig 1
▁rev 1
▁deres 1
mu 1
atto 1
▁democrat 1
▁által 1
ortun 1
iji 1
joni 1
▁М 1
▁crit 1
asu 1
atel 1
▁jsme 1
▁sektor 1
şte 1
ello 1
▁politika 1
▁ehd 1
▁gez 1
aal 1
ovan 1
juč 1
▁inici 1
out 1
▁ţ 1
▁сво 1
▁powin 1
вия 1
▁toda 1
▁rat 1
▁mun 1
enza 1
циал 1
ließ 1
нан 1
▁geme 1
▁sest 1
▁parlamentin 1
ljen 1
▁trebui 1
rodu 1
▁fej 1
ството 1
amat 1
▁bodo 1
▁Intern 1
adi 1
▁oper 1
▁ou 1
atori 1
▁krit 1
ota 1
▁svo 1
▁relatório 1
▁inde 1
▁support 1
abb 1
net 1
▁verslag 1
▁ven 1
▁Med 1
iger 1
isp 1
▁legisla 1
▁kõik 1
ähr 1
▁muss 1
▁Ges 1
стоя 1
▁fre 1
cep 1
ong 1
▁възмож 1
▁conte 1
▁Europeu 1
▁nella 1
ereen 1
▁Sp 1
▁via 1
iset 1
▁dist 1
ките 1
▁mahdoll 1
▁pros 1
fen 1
▁lang 1
ever 1
▁foarte 1
iteit 1
▁vše 1
▁ELi 1
ца 1
ště 1
ries 1
ace 1
▁nende 1
▁komm 1
▁siis 1
нията 1
▁gra 1
plica 1
nud 1
rar 1
▁má 1
▁ér 1
ént 1
▁zou 1
▁mille 1
siooni 1
▁ли 1
▁contribu 1
▁aspect 1
▁azon 1
▁muut 1
▁Mar 1
▁Parlamentet 1
▁cél 1
▁centr 1
▁Europejskiej 1
lear 1
ørg 1
▁který 1
вни 1
▁mercado 1
elig 1
ragen 1
üh 1
▁Europeo 1
чита 1
▁Um 1
▁Signor 1
▁refor 1
▁sil 1
▁szeret 1
нал 1
ügyi 1
▁szól 1
▁töö 1
vit 1
ume 1
ując 1
▁tiet 1
▁ember 1
▁object 1
▁vl 1
iseen 1
▁compl 1
▁comer 1
eder 1
elem 1
след 1
▁sehr 1
ai 1
üü 1
из 1
vod 1
▁minist 1
▁państw 1
fe 1
ustatud 1
▁these 1
ők 1
▁saav 1
▁noch 1
▁finans 1
encia 1
▁br 1
▁Pol 1
vend 1
▁minden 1
owied 1
▁transport 1
▁ус 1
▁oli 1
▁Or 1
amine 1
▁12 1
▁tor 1
őség 1
▁contro 1
ities 1
▁Unii 1
▁paesi 1
små 1
lep 1
▁signi 1
yy 1
▁защо 1
▁države 1
intre 1
▁vid 1
▁budou 1
scha 1
▁uni 1
▁zich 1
▁jur 1
▁may 1
▁финан 1
▁miet 1
aje 1
▁agre 1
sejo 1
usel 1
▁Pre 1
▁kind 1
▁Menschen 1
oare 1
▁tulev 1
рт 1
zel 1
▁base 1
ják 1
▁návrh 1
ój 1
eč 1
eres 1
▁gegen 1
overn 1
gest 1
▁tah 1
▁RO 1
abe 1
▁kirj 1
▁зна 1
unkt 1
▁requ 1
▁mutta 1
▁acu 1
дъл 1
▁empres 1
▁Jah 1
▁produk 1
▁Po 1
igi 1
▁eller 1
▁sent 1
ikan 1
lex 1
▁amelyek 1
heden 1
▁Si 1
▁sh 1
usk 1
▁Bür 1
▁kul 1
▁olul 1
mar 1
amaan 1
ен 1
▁discuss 1
▁sulla 1
anud 1
▁komisar 1
inie 1
elar 1
rot 1
▁Em 1
▁държави 1
▁Des 1
▁god 1
hu 1
ria 1
ții 1
▁risp 1
▁vonatkoz 1
jší 1
▁kak 1
yl 1
can 1
▁tegen 1
▁mód 1
▁energie 1
▁tämän 1
▁pelo 1
etă 1
▁alk 1
cei 1
ihin 1
▁pou 1
ition 1
▁arra 1
▁sau 1
▁Le 1
рламент 1
endar 1
ból 1
ged 1
▁pia 1
▁democra 1
▁abord 1
emenea 1
▁Pane 1
▁zum 1
▁son 1
ides 1
▁kwest 1
▁küsim 1
▁väh 1
▁бъдат 1
▁Este 1
▁legislativ 1
ací 1
▁grund 1
▁asemenea 1
▁já 1
ospodář 1
▁consegu 1
▁ед 1
ку 1
▁По 1
▁hall 1
▁tart 1
▁30 1
▁nebo 1
ziej 1
▁administ 1
▁product 1
▁esit 1
▁actual 1
last 1
▁З 1
udar 1
ými 1
ikker 1
skih 1
almaz 1
▁todo 1
voor 1
▁ult 1
▁kult 1
▁pró 1
▁unionin 1
▁javas 1
▁introdu 1
▁bør 1
▁vě 1
ható 1
han 1
▁Af 1
ortug 1
isti 1
фе 1
intă 1
▁ambi 1
▁koska 1
▁elekt 1
isty 1
▁erity 1
ró 1
lav 1
iert 1
▁tän 1
▁pero 1
▁vaj 1
▁még 1
▁últ 1
▁drug 1
▁Lissabon 1
▁señor 1
▁tová 1
hol 1
▁mellem 1
▁или 1
▁wat 1
war 1
▁kah 1
▁nur 1
érték 1
▁suc 1
▁preoc 1
▁valam 1
etti 1
▁strukt 1
▁át 1
▁ezt 1
avaz 1
kend 1
▁obč 1
ios 1
kti 1
▁Qu 1
ieden 1
▁ani 1
▁countries 1
ople 1
▁hanno 1
▁poliit 1
▁Asht 1
▁exc 1
▁ger 1
▁jäsenvaltio 1
atte 1
narod 1
ørgsmå 1
▁geen 1
▁Conselho 1
ents 1
дин 1
su 1
▁stor 1
állal 1
▁kraj 1
icy 1
ţin 1
▁Mijnheer 1
ienia 1
▁faz 1
▁pat 1
wij 1
stva 1
unta 1
▁tutti 1
imiento 1
pid 1
uncil 1
▁képviselő 1
iglio 1
ről 1
▁lõ 1
▁proble 1
egi 1
▁między 1
▁doc 1
▁sopim 1
▁nii 1
▁propos 1
стта 1
anos 1
▁důležit 1
▁oblasti 1
▁če 1
▁aceste 1
▁hospodář 1
обходи 1
ität 1
▁preg 1
▁cad 1
staw 1
▁Council 1
▁само 1
▁oder 1
▁Rus 1
▁appro 1
ся 1
▁acuerd 1
▁menn 1
▁situation 1
▁bem 1
▁voi 1
arom 1
czeg 1
▁rze 1
▁altern 1
usammen 1
тре 1
▁Consejo 1
▁Dire 1
ши 1
jev 1
▁Ashton 1
usv 1
▁mej 1
▁glede 1
▁pomemb 1
zer 1
▁efter 1
▁слу 1
▁olen 1
▁libert 1
▁ná 1
▁přij 1
▁Bericht 1
▁zelo 1
owan 1
ските 1
hts 1
seen 1
▁сре 1
▁economic 1
ările 1
▁efect 1
▁desen 1
ключ 1
кт 1
▁momento 1
entar 1
▁Consili 1
пъл 1
▁majandus 1
ciał 1
ostaria 1
okrat 1
▁new 1
▁Consiglio 1
▁år 1
▁betænk 1
▁Comisiei 1
pen 1
osto 1
▁they 1
rito 1
ärast 1
▁special 1
ytt 1
▁mik 1
▁maail 1
ytä 1
arbej 1
bes 1
lar 1
ură 1
▁państwa 1
▁při 1
▁even 1
igkeit 1
▁assz 1
▁solic 1
ars 1
▁ве 1
▁zač 1
raf 1
▁Raad 1
erim 1
▁Mad 1
pie 1
▁Č 1
ações 1
publ 1
▁soov 1
rate 1
▁võt 1
▁conse 1
▁27 1
heen 1
▁także 1
zioni 1
isto 1
▁Komisji 1
stre 1
▁több 1
lá 1
ares 1
ías 1
▁kez 1
▁mint 1
▁ukre 1
twikk 1
▁schrift 1
ście 1
▁aast 1
anak 1
ilup 1
ását 1
▁отношение 1
▁upor 1
ektiv 1
▁tai 1
űkö 1
чни 1
▁zul 1
antes 1
▁aik 1
öm 1
▁Europeană 1
▁õigus 1
ката 1
▁dep 1
▁zapew 1
elk 1
▁Europäische 1
ots 1
▁mez 1
ova 1
▁See 1
▁aliment 1
inden 1
ote 1
▁Fond 1
▁въпрос 1
▁pela 1
▁wenn 1
ително 1
▁ди 1
ласу 1
anu 1
▁ek 1
▁Fran 1
gende 1
▁miel 1
enen 1
ával 1
▁számára 1
▁päät 1
upra 1
▁añ 1
gio 1
▁økonomis 1
▁sic 1
fik 1
руд 1
▁Egy 1
▁meet 1
ín 1
▁eest 1
▁dim 1
зиск 1
▁cit 1
anne 1
arrol 1
▁landen 1
ală 1
▁public 1
issä 1
icher 1
▁gel 1
▁държавите 1
jer 1
▁halu 1
cije 1
▁før 1
mb 1
▁stem 1
▁otáz 1
▁off 1
aza 1
▁svilup 1
▁măs 1
▁europæiske 1
▁citt 1
abile 1
amn 1
▁innov 1
▁kompro 1
▁mensen 1
ette 1
▁ontwikk 1
▁przyję 1
nim 1
▁предложе 1
▁со 1
usa 1
мата 1
реме 1
łe 1
▁pomoc 1
▁cla 1
▁asszony 1
rado 1
▁dintre 1
▁zat 1
▁moh 1
schaft 1
▁who 1
ellä 1
▁occ 1
ország 1
▁доклад 1
▁Gre 1
▁meidän 1
før 1
▁Täm 1
ély 1
ivät 1
▁fam 1
▁há 1
▁solo 1
ço 1
▁vig 1
▁dori 1
alk 1
haj 1
avia 1
itud 1
our 1
▁deci 1
ъп 1
íd 1
of 1
wier 1
▁wszystk 1
stvo 1
▁вър 1
▁deter 1
щата 1
▁või 1
чно 1
uit 1
▁cos 1
▁pä 1
asz 1
▁Per 1
▁žel 1
▁pén 1
▁poslan 1
▁jul 1
mon 1
▁ots 1
now 1
obod 1
uses 1
▁dezvol 1
▁pid 1
▁hr 1
▁NL 1
▁This 1
ñora 1
▁käsit 1
▁económica 1
▁Bürger 1
▁tale 1
▁versch 1
aka 1
▁rest 1
▁aval 1
▁annak 1
▁kdy 1
▁ż 1
ött 1
▁oportun 1
▁exp 1
▁loro 1
▁às 1
ppen 1
▁keskust 1
▁kuiten 1
▁udvik 1
▁puh 1
nienia 1
▁moment 1
õtt 1
føre 1
▁apro 1
▁ident 1
▁valamint 1
▁use 1
▁Das 1
▁muy 1
рност 1
ensch 1
ické 1
velop 1
▁gran 1
skr 1
▁määr 1
õl 1
▁kuul 1
▁people 1
▁inclu 1
▁ihr 1
▁plen 1
▁цел 1
▁Schen 1
ného 1
nios 1
uwe 1
▁economis 1
▁timp 1
▁daar 1
▁Comisia 1
▁piir 1
лз 1
▁rezolu 1
agi 1
▁следва 1
▁hay 1
▁гражда 1
▁inclus 1
▁spørgsmå 1
▁я 1
▁incl 1
▁nemzet 1
▁kil 1
▁cal 1
▁develop 1
▁cir 1
læg 1
▁civil 1
▁dol 1
woord 1
▁nuc 1
▁eb 1
▁Arbeit 1
yz 1
▁cult 1
▁един 1
öz 1
halt 1
▁Schengen 1
▁Taná 1
▁га 1
▁habe 1
▁velmi 1
▁about 1
ră 1
▁eesm 1
▁dacă 1
▁obec 1
▁arut 1
тира 1
▁něk 1
▁tý 1
▁ettepanek 1
ož 1
▁sitä 1
▁ber 1
amiseks 1
acer 1
▁eer 1
▁huom 1
ále 1
ését 1
▁públ 1
▁dv 1
▁obyw 1
▁tema 1
▁będzie 1
▁diritti 1
▁ji 1
▁dział 1
uesto 1
▁cí 1
▁разви 1
▁kuin 1
▁необходи 1
ниче 1
▁koost 1
▁zagotov 1
▁olisi 1
▁Р 1
▁Svet 1
▁aang 1
▁US 1
▁peaks 1
iny 1
▁cur 1
▁важ 1
▁všech 1
astro 1
▁Her 1
▁emp 1
leich 1
▁cittad 1
▁deber 1
▁work 1
▁bardzo 1
olla 1
õt 1
▁Ind 1
▁prot 1
hold 1
▁kanssa 1
▁liikmesriik 1
▁segu 1
▁muk 1
▁Nie 1
ãos 1
ците 1
▁înc 1
rul 1
▁energi 1
łu 1
▁repre 1
▁Rå 1
▁spos 1
emi 1
▁икономиче 1
▁На 1
▁beca 1
▁because 1
▁durante 1
ovanje 1
ütt 1
▁efici 1
ozi 1
▁razprav 1
▁tark 1
opp 1
atele 1
▁toh 1
▁apoy 1
ikus 1
▁european 1
▁szavaz 1
imer 1
▁vom 1
▁nell 1
▁ble 1
etud 1
iksi 1
▁other 1
iselt 1
ible 1
▁yh 1
▁dokument 1
ující 1
▁aten 1
▁mijn 1
▁grav 1
glich 1
czegól 1
▁zdrav 1
▁partici 1
▁hozz 1
tain 1
▁saavut 1
ores 1
veis 1
ælles 1
▁peri 1
ące 1
▁ade 1
▁polity 1
▁viz 1
arem 1
ële 1
imb 1
хме 1
▁За 1
▁jät 1
esc 1
▁Entw 1
▁Inter 1
iaal 1
äälet 1
hoit 1
▁ciud 1
▁няко 1
▁kv 1
▁Ents 1
▁main 1
▁inv 1
▁zah 1
uard 1
jam 1
▁transpar 1
▁bomo 1
isc 1
▁seu 1
▁mand 1
▁sos 1
▁ehdot 1
▁jäl 1
atakse 1
▁asig 1
рен 1
▁сме 1
bra 1
ßna 1
▁Mus 1
▁obst 1
TO 1
fond 1
blem 1
бле 1
▁spol 1
▁ya 1
bon 1
wend 1
nio 1
▁faptul 1
▁attu 1
▁Ä 1
▁poten 1
atu 1
ild 1
íme 1
uen 1
isin 1
▁Part 1
▁годи 1
pä 1
▁кри 1
▁samen 1
стви 1
▁dohod 1
rzy 1
▁tagállamok 1
éd 1
▁implement 1
rony 1
wir 1
▁besk 1
▁hyvin 1
▁pénz 1
▁Това 1
evrouw 1
-20 1
▁predlog 1
▁kontrol 1
▁empresas 1
▁jelentés 1
toz 1
▁olla 1
jt 1
▁odpowied 1
▁Ex 1
▁пости 1
▁rel 1
▁alue 1
▁tuleb 1
▁nieuwe 1
▁hist 1
▁11 1
▁senh 1
eno 1
ussen 1
giv 1
▁kuid 1
▁sosten 1
▁megál 1
▁national 1
род 1
▁policy 1
▁far 1
▁сред 1
änd 1
▁már 1
▁algun 1
▁treba 1
▁bis 1
ickl 1
▁regi 1
rü 1
ouw 1
▁kry 1
▁desarrol 1
▁oblig 1
▁Land 1
▁natur 1
uz 1
lijk 1
akor 1
▁dialog 1
▁Pod 1
yj 1
▁Rady 1
ększ 1
ůs 1
▁izv 1
▁jejich 1
▁Ö 1
ader 1
ület 1
▁fore 1
▁Liidu 1
▁време 1
соб 1
▁együtt 1
▁într 1
▁ljud 1
▁dieses 1
▁vonatkozó 1
ogo 1
▁być 1
▁hyväks 1
etzt 1
▁prá 1
obb 1
▁Ukra 1
▁dezvolt 1
nan 1
ем 1
▁fakt 1
▁zullen 1
act 1
▁tych 1
▁przewodniczący 1
▁który 1
▁beslut 1
liv 1
▁же 1
stellen 1
▁foi 1
øl 1
zenie 1
▁propun 1
ху 1
▁nor 1
ieważ 1
▁AL 1
čit 1
▁cittadini 1
elv 1
ösen 1
▁2006 1
▁app 1
▁köl 1
▁Pan 1
▁ciudad 1
ious 1
▁szem 1
▁mehr 1
▁mechan 1
▁érdekében 1
▁tavo 1
▁oblik 1
nö 1
elet 1
▁indiv 1
▁предста 1
▁estamos 1
kit 1
▁py 1
▁nuev 1
▁pesso 1
rael 1
▁objet 1
ход 1
полз 1
▁project 1
▁now 1
▁derechos 1
cut 1
ável 1
▁time 1
▁lavoro 1
▁noast 1
▁Portug 1
▁ont 1
▁aasta 1
▁asupra 1
ků 1
▁effect 1
ěr 1
▁quando 1
▁integra 1
ře 1
anj 1
▁goed 1
handling 1
ará 1
ült 1
▁sov 1
▁Vert 1
ţiei 1
nę 1
▁debe 1
▁обла 1
▁ru 1
▁direitos 1
▁ihre 1
pol 1
▁lub 1
▁actu 1
alu 1
zak 1
▁kör 1
konn 1
▁nagu 1
▁Afr 1
▁Tratado 1
oci 1
ronte 1
▁Tanács 1
▁rati 1
▁regional 1
nyt 1
śli 1
▁poder 1
ích 1
▁nome 1
▁Cu 1
▁közös 1
▁rav 1
▁pap 1
▁tempo 1
▁nød 1
ior 1
▁skuteč 1
▁25 1
▁беше 1
▁coopera 1
ktion 1
▁področ 1
zza 1
▁budget 1
itui 1
ruik 1
▁popul 1
▁mennesk 1
▁unei 1
▁vkl 1
▁úgy 1
▁facto 1
▁Energ 1
yks 1
вета 1
▁asia 1
▁gond 1
ție 1
nung 1
enas 1
resent 1
▁kaas 1
aisu 1
olgál 1
▁gazdasági 1
▁Grund 1
▁ori 1
▁samo 1
oport 1
anst 1
über 1
▁mno 1
oliit 1
фи 1
ąd 1
▁liitt 1
▁zde 1
▁He 1
lapod 1
▁bylo 1
▁szóló 1
▁komisjon 1
▁einem 1
udo 1
áme 1
▁zast 1
▁amend 1
fore 1
kond 1
▁üks 1
▁vert 1
▁mezi 1
mány 1
izione 1
▁ost 1
▁clar 1
▁kodan 1
▁acuerdo 1
čas 1
▁waż 1
▁mel 1
▁rész 1
oby 1
▁volt 1
▁escrito 1
▁pens 1
▁what 1
от 1
▁sodel 1
▁benefici 1
▁ans 1
▁wspól 1
▁capac 1
▁все 1
ското 1
▁wurde 1
▁fundamental 1
▁uporab 1
▁naše 1
▁opat 1
▁processo 1
▁подкрепа 1
▁nacional 1
▁Gu 1
▁fr 1
▁humanos 1
DE 1
ßnahmen 1
▁съм 1
cja 1
uesta 1
▁хо 1
flik 1
▁Ser 1
ues 1
▁garanti 1
ţiile 1
ția 1
nje 1
▁rights 1
peč 1
▁only 1
▁cent 1
▁seis 1
iamo 1
▁initi 1
▁împ 1
▁Uniunea 1
▁tört 1
▁estas 1
рламента 1
▁nyt 1
▁инте 1
▁mobil 1
▁dog 1
▁elect 1
▁komisjoni 1
▁slu 1
▁Mon 1
▁sar 1
▁esto 1
aste 1
▁protože 1
▁sido 1
▁през 1
endada 1
adus 1
вече 1
ondere 1
igheid 1
▁2013 1
ister 1
▁mora 1
rer 1
töön 1
▁sikre 1
bia 1
isión 1
тите 1
▁perust 1
▁lov 1
▁bilo 1
▁státy 1
▁Entwickl 1
лан 1
▁dotycząc 1
▁svet 1
разу 1
▁govern 1
▁state 1
▁dr 1
lim 1
eira 1
nut 1
▁.. 1
▁напра 1
▁Od 1
▁pel 1
▁pen 1
▁viel 1
▁impa 1
▁politici 1
▁international 1
гна 1
spolitik 1
▁Zato 1
▁uno 1
volvimento 1
▁fir 1
isel 1
▁sred 1
ope 1
zem 1
už 1
ikult 1
вител 1
▁vaik 1
▁związ 1
▁direkt 1
▁expres 1
ratul 1
otta 1
ależy 1
▁nač 1
ingu 1
▁erő 1
sche 1
▁had 1
vær 1
cen 1
pak 1
oko 1
▁mal 1
▁vaid 1
ță 1
▁тя 1
rama 1
esség 1
egev 1
zien 1
▁landb 1
▁steun 1
▁tap 1
▁secur 1
▁konkuren 1
▁tussen 1
openh 1
ostav 1
ají 1
▁willen 1
▁eval 1
▁Mi 1
prowad 1
ému 1
▁urmare 1
▁głos 1
ationen 1
щите 1
▁ponieważ 1
gere 1
▁blij 1
▁ye 1
▁todas 1
▁fælles 1
▁maks 1
▁difer 1
egd 1
▁без 1
▁yks 1
фор 1
▁lig 1
▁derfor 1
▁potřeb 1
▁sign 1
raag 1
▁cidad 1
▁tovább 1
ritt 1
▁Auf 1
▁want 1
▁гаран 1
▁swo 1
▁acestea 1
▁inten 1
тни 1
eln 1
▁vista 1
assen 1
▁Do 1
▁puheen 1
▁medi 1
▁oleks 1
bij 1
▁ann 1
▁cetă 1
▁wol 1
▁belangrijk 1
▁hens 1
▁dalla 1
nt 1
▁Rådet 1
▁mitte 1
▁lø 1
ated 1
▁element 1
▁Problem 1
mat 1
▁Bez 1
▁preocup 1
▁permit 1
▁hacer 1
▁Austatud 1
▁zgod 1
▁Komisja 1
▁csak 1
▁jednak 1
▁със 1
▁verg 1
▁forsk 1
ettu 1
▁gøre 1
▁europei 1
inda 1
▁beh 1
arse 1
vez 1
iven 1
▁recon 1
▁naz 1
rost 1
▁проце 1
lő 1
unci 1
▁sat 1
▁zab 1
▁persp 1
▁отгово 1
▁telj 1
yse 1
▁Ag 1
▁opatření 1
▁ние 1
▁situa 1
▁trg 1
▁jõ 1
▁Senhora 1
łem 1
ária 1
▁don 1
▁fatto 1
cyj 1
isiä 1
áh 1
▁wię 1
ensa 1
▁støtte 1
ahel 1
▁industri 1
рга 1
rimin 1
▁milj 1
vět 1
täm 1
führ 1
osi 1
▁ay 1
ration 1
▁respe 1
▁odlo 1
▁zoals 1
▁mio 1
zení 1
▁bar 1
▁pitä 1
▁estab 1
▁probleem 1
ovi 1
esto 1
▁mij 1
ята 1
aría 1
▁aplica 1
▁aş 1
▁interven 1
üüd 1
▁exem 1
▁opin 1
▁põhj 1
▁европейск 1
▁év 1
arios 1
▁tijd 1
▁fors 1
▁rapporte 1
▁199 1
▁odg 1
▁mener 1
▁nationale 1
▁org 1
eken 1
ден 1
▁tid 1
ůsob 1
▁punto 1
▁Dle 1
▁паза 1
▁organis 1
▁face 1
rát 1
▁puolesta 1
▁državlj 1
▁prostřed 1
▁potrze 1
schap 1
▁recht 1
ksom 1
unud 1
latego 1
bet 1
ços 1
ług 1
▁Nu 1
▁rahoit 1
ode 1
▁znacz 1
▁celu 1
▁maken 1
разуме 1
▁kuitenkin 1
▁omdat 1
ítés 1
usten 1
skega 1
▁mening 1
▁europäischen 1
uji 1
▁пробле 1
▁ří 1
▁záv 1
reich 1
▁clim 1
iner 1
▁né 1
cos 1
▁nõuk 1
▁във 1
▁hecho 1
▁forslag 1
▁megállapod 1
joht 1
▁noss 1
▁megfel 1
▁if 1
liwo 1
▁elab 1
▁interess 1
▁comunit 1
jat 1
гле 1
amenti 1
▁cadrul 1
bere 1
▁össz 1
upă 1
usz 1
has 1
iek 1
▁sost 1
ším 1
▁Parlamend 1
▁współ 1
▁Vorsch 1
cij 1
▁confl 1
▁kys 1
зда 1
▁biztosít 1
ris 1
▁Sin 1
▁conv 1
▁figy 1
▁molto 1
ibt 1
pri 1
ńsk 1
nimi 1
▁precis 1
▁sprij 1
miso 1
▁ään 1
▁szabad 1
rd 1
▁At 1
▁diesen 1
▁perché 1
▁get 1
ót 1
▁Sam 1
доб 1
▁Irland 1
▁polg 1
rog 1
llä 1
▁astfel 1
ństwa 1
ление 1
▁rozhod 1
PE 1
▁zosta 1
ujeme 1
ally 1
▁Sen 1
owever 1
ţion 1
uh 1
ety 1
▁14 1
▁signific 1
▁rag 1
▁extrem 1
▁Parlamentul 1
onság 1
▁sytu 1
zyst 1
ieke 1
fogad 1
ąg 1
▁prakt 1
▁favore 1
▁políticas 1
▁Nem 1
▁Rat 1
▁ciudadanos 1
▁territ 1
kke 1
entemente 1
вно 1
▁fl 1
▁18 1
▁хора 1
ká 1
▁progres 1
▁constru 1
▁Organ 1
halten 1
бли 1
▁demon 1
▁sviluppo 1
essen 1
▁wichtig 1
▁internationale 1
▁pier 1
aniem 1
▁право 1
▁Uniunii 1
▁... 1
▁such 1
▁opini 1
▁glas 1
▁13 1
pend 1
not 1
▁stato 1
▁prive 1
▁relig 1
▁finansi 1
нер 1
рат 1
▁tunn 1
▁nás 1
▁statele 1
▁andre 1
väl 1
eny 1
▁só 1
ovala 1
▁pana 1
мите 1
▁arbejd 1
▁Evropske 1
istas 1
▁servici 1
chto 1
ääd 1
▁však 1
▁základ 1
amin 1
▁költség 1
mise 1
▁direkti 1
ween 1
▁Sol 1
▁obi 1
nehmen 1
▁Не 1
▁diver 1
лаго 1
▁kérdés 1
▁Europene 1
łów 1
▁lar 1
▁mia 1
▁questão 1
▁прие 1
ørende 1
bud 1
▁trabalho 1
▁eset 1
вропейската 1
▁rahv 1
iska 1
bolj 1
▁jon 1
▁obs 1
▁fal 1
nější 1
▁szerint 1
▁zwischen 1
▁Kos 1
▁blev 1
egy 1
▁tämä 1
oru 1
▁създа 1
▁intézked 1
ivea 1
▁нас 1
▁peame 1
▁sum 1
øj 1
▁krize 1
▁poate 1
▁between 1
kä 1
oria 1
ster 1
▁финансо 1
▁HU 1
oden 1
▁alter 1
▁tan 1
ición 1
sled 1
▁unterstüt 1
▁Komisija 1
ásban 1
▁poolt 1
▁absolut 1
xto 1
estión 1
usega 1
oarece 1
com 1
▁conclus 1
▁zp 1
să 1
▁sur 1
▁reci 1
▁posibil 1
gr 1
▁zij 1
▁eines 1
untos 1
abili 1
alikult 1
▁országok 1
▁jelen 1
otr 1
▁edu 1
▁hlas 1
anç 1
oksi 1
▁represent 1
lust 1
▁coh 1
▁sok 1
▁minim 1
▁cidadãos 1
ysl 1
úly 1
▁log 1
▁richt 1
nymi 1
▁прави 1
isme 1
▁nye 1
▁До 1
elsen 1
▁използ 1
▁economische 1
▁помо 1
▁орга 1
alen 1
▁onorevole 1
miot 1
▁Š 1
▁vie 1
sat 1
▁condi 1
fl 1
▁crisi 1
▁få 1
▁øn 1
cción 1
▁ír 1
▁alleen 1
▁może 1
▁div 1
▁kryzy 1
▁sporaz 1
▁tööt 1
▁vs 1
▁nes 1
rej 1
ulta 1
▁peab 1
▁парламент 1
ároz 1
▁perso 1
idt 1
eding 1
iseks 1
▁nevo 1
▁materia 1
cev 1
▁stos 1
lagen 1
dz 1
▁világ 1
▁opt 1
issen 1
znál 1
▁saa 1
▁következ 1
anstalt 1
▁into 1
nings 1
▁niez 1
▁mogelijk 1
muk 1
▁občan 1
▁abych 1
▁как 1
▁trakt 1
▁forbind 1
▁spørgsmål 1
ул 1
▁Länder 1
cem 1
imas 1
▁jaar 1
▁take 1
▁helyzet 1
▁hä 1
komst 1
▁afg 1
▁market 1
▁lét 1
nić 1
▁lok 1
▁opport 1
▁nei 1
▁Dom 1
cont 1
rent 1
olle 1
fah 1
▁vyt 1
▁tím 1
▁cat 1
▁Zusammen 1
ohl 1
olare 1
oit 1
▁pag 1
▁agricult 1
▁meu 1
▁last 1
▁Prin 1
▁suo 1
▁mennesker 1
▁any 1
▁rám 1
łecz 1
▁laat 1
▁citiz 1
▁още 1
▁rov 1
▁dz 1
▁няма 1
▁parlamentu 1
tiin 1
itve 1
▁deoarece 1
▁caz 1
usele 1
▁zakres 1
isf 1
▁lud 1
жо 1
▁ment 1
▁szczegól 1
jal 1
hy 1
jav 1
izar 1
▁ră 1
ospa 1
▁gover 1
ittää 1
▁тър 1
▁Bulg 1
▁abbiamo 1
utz 1
esa 1
rade 1
▁uud 1
▁mayor 1
▁migli 1
▁aument 1
▁afect 1
▁parlamend 1
▁meil 1
▁zaradi 1
lko 1
▁isso 1
▁wnios 1
▁twe 1
řej 1
bym 1
▁agreement 1
▁již 1
▁vedere 1
▁tote 1
mig 1
egno 1
▁zakon 1
ival 1
ну 1
▁země 1
▁Olen 1
▁споразуме 1
▁NA 1
ily 1
▁port 1
stup 1
richt 1
uridad 1
преде 1
úl 1
▁CO 1
▁mejor 1
étel 1
erede 1
▁tylko 1
▁javaslat 1
▁era 1
ßen 1
rage 1
▁Rad 1
urança 1
▁total 1
▁uč 1
ieniu 1
▁næ 1
▁Pani 1
ors 1
▁hin 1
▁Republ 1
▁aff 1
alan 1
▁válság 1
▁siin 1
ună 1
▁echter 1
▁specific 1
olk 1
▁len 1
▁gebruik 1
▁ram 1
regelen 1
uló 1
zad 1
▁them 1
jel 1
▁juht 1
ários 1
nout 1
▁stop 1
▁nagyon 1
ärjestelm 1
▁mietinn 1
▁Pe 1
immt 1
▁unui 1
upe 1
▁жи 1
æt 1
▁Gl 1
eval 1
▁obiett 1
ěř 1
stel 1
▁domn 1
▁determin 1
▁njih 1
▁toho 1
▁ain 1
lemény 1
▁sään 1
▁Pa 1
ctie 1
och 1
▁kaikki 1
▁tratt 1
▁fe 1
▁hav 1
▁opportun 1
▁Kom 1
▁regering 1
▁hå 1
▁nar 1
▁jaoks 1
eringen 1
▁přes 1
▁Парламента 1
udell 1
ásokat 1
urgers 1
▁comis 1
▁Ass 1
▁podemos 1
fi 1
aw 1
șed 1
▁facil 1
▁sollten 1
▁ainda 1
igd 1
skem 1
▁członkowskich 1
он 1
▁make 1
▁puud 1
▁crise 1
▁hvis 1
rí 1
тъ 1
▁Men 1
▁госпо 1
front 1
▁Be 1
hav 1
ytän 1
▁защи 1
▁szere 1
erein 1
▁tohoto 1
▁USA 1
▁add 1
▁zb 1
▁grande 1
rim 1
▁cresc 1
▁blevet 1
▁енер 1
▁предпри 1
▁развити 1
▁Internet 1
▁ænd 1
▁arg 1
▁mundo 1
▁preşedinte 1
adro 1
▁viss 1
▁lande 1
▁tiszt 1
▁jotta 1
urar 1
▁Jak 1
racht 1
hin 1
uut 1
▁SK 1
▁unsere 1
ukset 1
ględ 1
▁Os 1
гат 1
▁Esp 1
▁melhor 1
óg 1
iná 1
eto 1
▁50 1
▁quer 1
▁повече 1
▁problemas 1
har 1
▁mani 1
▁oluk 1
▁believe 1
piecze 1
zk 1
▁ş 1
▁accordo 1
▁vain 1
ollega 1
▁konkur 1
ător 1
ty 1
▁szabály 1
okra 1
▁начи 1
▁cil 1
▁tun 1
▁политика 1
eszt 1
sg 1
▁защото 1
▁second 1
▁nici 1
ują 1
elige 1
▁sab 1
▁acordo 1
boa 1
▁azonban 1
atus 1
▁consol 1
▁rozpo 1
чение 1
▁voll 1
▁hy 1
▁Maßnahmen 1
isem 1
ъй 1
ratégia 1
▁citizens 1
▁give 1
▁dl 1
ejmé 1
▁predstav 1
▁Non 1
▁embar 1
▁economia 1
▁sollte 1
alle 1
▁Estado 1
omat 1
▁inov 1
▁domeni 1
▁super 1
▁Iz 1
▁polityki 1
▁områ 1
▁simp 1
▁duid 1
▁върху 1
spro 1
▁fazer 1
▁prezent 1
▁punkt 1
śnie 1
▁propor 1
▁Finanz 1
▁bin 1
uu 1
▁cada 1
cin 1
▁Iran 1
▁fact 1
▁гласу 1
▁prima 1
▁vigtigt 1
▁nadal 1
anno 1
▁plat 1
▁hensyn 1
amista 1
▁zor 1
ujejo 1
▁EC 1
▁konflik 1
oste 1
ämme 1
aty 1
▁történ 1
▁poročilo 1
гне 1
▁Lisboa 1
▁those 1
▁acces 1
▁криза 1
ull 1
▁też 1
▁financei 1
▁ami 1
▁rzecz 1
▁häälet 1
mit 1
▁Dat 1
ichts 1
▁soc 1
▁tekint 1
▁gdy 1
▁spod 1
▁társ 1
гла 1
▁internet 1
ovali 1
▁constitu 1
▁él 1
ringer 1
▁Evropski 1
igung 1
▁cru 1
ack 1
▁desenvolvimento 1
▁uz 1
fter 1
▁financial 1
ieg 1
▁dzi 1
▁legal 1
▁dolg 1
ral 1
▁Ка 1
utat 1
teří 1
iare 1
▁sü 1
▁privire 1
andid 1
▁съще 1
▁estos 1
urezza 1
▁multe 1
▁Европейският 1
politik 1
▁bolj 1
▁Lisab 1
aris 1
▁help 1
halb 1
ására 1
▁concre 1
▁rezult 1
▁pénzügyi 1
▁están 1
ioner 1
▁esper 1
▁Л 1
▁zvezi 1
▁Bel 1
▁пе 1
lant 1
ovanja 1
вод 1
▁изме 1
ergy 1
ța 1
гато 1
▁colleg 1
▁Op 1
▁being 1
bare 1
▁Can 1
cje 1
konom 1
▁mů 1
ważam 1
▁społecz 1
▁zás 1
▁kuten 1
▁pessoas 1
▁stellen 1
až 1
kommen 1
▁Direct 1
спе 1
▁PPE 1
▁svobod 1
▁vasta 1
reas 1
▁член 1
▁investig 1
▁mare 1
▁rând 1
▁võimal 1
▁już 1
ствие 1
▁Tämä 1
stan 1
▁ered 1
▁sed 1
owane 1
▁posk 1
▁aren 1
▁rapporteur 1
emd 1
▁Grupo 1
▁elfogad 1
ærd 1
▁mange 1
▁politycz 1
steem 1
kea 1
▁competen 1
▁реги 1
▁situação 1
▁Pak 1
▁która 1
▁oz 1
inkov 1
▁näit 1
ivamente 1
amb 1
▁clear 1
▁anc 1
▁Kr 1
▁when 1
▁desarrollo 1
▁pož 1
idaan 1
▁overeen 1
рез 1
▁sicurezza 1
▁nep 1
▁ча 1
igh 1
▁wet 1
ével 1
▁sklad 1
▁kapcsolatos 1
ira 1
▁există 1
▁his 1
▁zahte 1
tam 1
▁papel 1
▁administrat 1
▁inden 1
mas 1
▁Ú 1
▁încă 1
▁selles 1
ises 1
▁foly 1
▁blive 1
▁major 1
▁продъл 1
▁Portugal 1
▁final 1
▁člov 1
▁menos 1
▁negocia 1
vál 1
▁sn 1
▁ønsk 1
▁Tak 1
▁orig 1
▁schriftelijk 1
chie 1
читам 1
▁către 1
▁monitor 1
▁tec 1
▁гарантира 1
▁dif 1
▁artik 1
▁coleg 1
▁egész 1
idele 1
się 1
▁musíme 1
▁nod 1
▁во 1
zić 1
▁sid 1
▁szolgál 1
▁Comm 1
▁sots 1
▁star 1
▁dispos 1
rel 1
труд 1
▁precum 1
▁hän 1
▁eivät 1
▁politič 1
▁Dies 1
▁сигу 1
eds 1
▁doen 1
▁една 1
▁therefore 1
пу 1
▁set 1
▁iar 1
agen 1
▁tuk 1
▁fort 1
zeit 1
▁betænkning 1
ств 1
▁mivel 1
▁mich 1
▁nacion 1
▁dav 1
▁prihod 1
▁kolle 1
ionali 1
▁eigen 1
odaj 1
▁illet 1
▁burgers 1
▁exter 1
▁cât 1
zewodnicząc 1
▁anim 1
▁své 1
▁infrastrukt 1
či 1
▁nut 1
▁teljes 1
kül 1
oti 1
▁Съвета 1
▁tomu 1
ligt 1
▁general 1
iveau 1
▁sä 1
ciałbym 1
▁pani 1
hing 1
ове 1
▁Ital 1
lja 1
znam 1
ativo 1
▁különösen 1
▁uden 1
▁bra 1
▁harmon 1
▁Hand 1
▁pode 1
▁правата 1
▁syst 1
▁tehd 1
▁bezpeč 1
oston 1
▁byla 1
▁seus 1
▁ако 1
elleen 1
▁megfelelő 1
uga 1
ziała 1
▁ratka 1
▁Evropa 1
▁dipl 1
▁text 1
▁vključ 1
jä 1
▁преди 1
▁strategia 1
ssä 1
teni 1
▁zach 1
▁despre 1
▁document 1
▁dig 1
▁kysym 1
▁kansalais 1
rakt 1
▁applic 1
▁nom 1
▁conta 1
▁økonomiske 1
liku 1
▁tv 1
▁roh 1
ásra 1
owym 1
ussa 1
▁emis 1
▁политиче 1
▁доб 1
ради 1
▁against 1
▁členských 1
újt 1
etta 1
▁niin 1
vers 1
uc 1
közi 1
▁žen 1
▁China 1
▁gibt 1
▁произ 1
▁tärkeää 1
▁Evropská 1
▁partn 1
лено 1
▁gostaria 1
ujen 1
ief 1
▁á 1
▁мер 1
bil 1
▁čas 1
▁Ih 1
▁ochran 1
orda 1
▁pet 1
▁Ge 1
nunk 1
▁Som 1
▁odpov 1
▁seura 1
▁vak 1
▁Bere 1
▁biti 1
baar 1
ften 1
▁гру 1
éria 1
elingen 1
▁tied 1
ines 1
▁principi 1
▁desde 1
▁strategie 1
postav 1
nice 1
hang 1
▁Inst 1
ař 1
▁доклада 1
▁pokud 1
▁prizad 1
łą 1
wiad 1
ără 1
idel 1
▁należy 1
inik 1
мокра 1
▁acum 1
▁pien 1
▁dezb 1
sid 1
▁Ezért 1
▁temos 1
▁president 1
▁erityisesti 1
stwa 1
▁članic 1
▁gust 1
▁comune 1
ekom 1
вете 1
нима 1
rechten 1
▁Amer 1
opol 1
вид 1
▁talous 1
▁humanit 1
▁změ 1
▁some 1
▁schimb 1
ilib 1
▁vit 1
ffe 1
▁Dit 1
▁sprijin 1
▁współpra 1
opim 1
▁prez 1
▁Á 1
▁uprav 1
▁embargo 1
▁europene 1
▁zmi 1
▁ún 1
▁ба 1
▁akik 1
nék 1
estäni 1
▁SV 1
▁fran 1
▁adott 1
▁pedig 1
▁други 1
if 1
arbeit 1
▁valits 1
jak 1
▁страна 1
▁mert 1
ikkerhed 1
▁Tun 1
▁fordi 1
ská 1
▁trabajo 1
car 1
itare 1
▁musimy 1
▁anal 1
▁muud 1
▁foglal 1
rab 1
▁pracov 1
eiro 1
▁dall 1
yä 1
▁Sta 1
▁tento 1
õttu 1
▁seja 1
▁ț 1
▁fast 1
▁made 1
oče 1
▁aktiv 1
▁putea 1
anstaltninger 1
▁16 1
▁vă 1
ския 1
▁Halu 1
▁Strateg 1
▁puheenjoht 1
ejména 1
▁Ven 1
▁Verd 1
▁includ 1
▁učinkov 1
edeut 1
▁împotr 1
ury 1
▁poliitt 1
▁think 1
itse 1
▁Zeit 1
▁sl 1
▁okre 1
▁kunne 1
▁lop 1
▁prist 1
ments 1
▁бю 1
▁mercato 1
▁bychom 1
▁odgovor 1
▁Jap 1
▁still 1
▁riguard 1
▁political 1
ola 1
▁систе 1
▁žád 1
▁financiële 1
eben 1
▁vrij 1
ционал 1
▁prosp 1
▁senhor 1
▁reš 1
▁musi 1
▁чове 1
▁technolog 1
tanto 1
▁Demokrat 1
unque 1
▁pél 1
▁reag 1
▁suht 1
▁agen 1
▁hele 1
▁kaup 1
ischer 1
▁turval 1
▁eing 1
▁социал 1
▁gondol 1
чните 1
▁dispon 1
ujemy 1
▁presup 1
▁strate 1
care 1
▁tiene 1
▁тъй 1
▁pracy 1
▁sty 1
putados 1
▁diffic 1
raj 1
▁кра 1
▁puede 1
äksi 1
ksomhed 1
égi 1
avan 1
▁uniós 1
▁Pos 1
rekt 1
▁pitäisi 1
roš 1
▁guver 1
▁possibil 1
▁jó 1
ating 1
isuus 1
▁благо 1
▁udvikling 1
▁wszystkich 1
▁yhteis 1
▁Gro 1
asto 1
▁těchto 1
▁ged 1
▁hvil 1
▁tug 1
▁jonka 1
▁nível 1
▁heer 1
▁Als 1
▁než 1
▁naszy 1
inak 1
▁hemos 1
▁beleid 1
▁rakend 1
▁trabaj 1
gar 1
ursos 1
нение 1
▁konkre 1
▁LT 1
ékon 1
▁indic 1
▁obiect 1
▁propuesta 1
▁când 1
▁seguridad 1
angen 1
delen 1
▁Über 1
▁органи 1
izm 1
▁vět 1
▁conj 1
▁sillä 1
▁segurança 1
▁Rah 1
▁ryn 1
▁Rada 1
tid 1
▁pis 1
▁quadro 1
▁net 1
▁destin 1
▁аз 1
▁programa 1
▁idő 1
▁disk 1
▁anderen 1
▁myön 1
▁Di 1
▁фа 1
▁ancora 1
adal 1
▁fisc 1
▁effici 1
íž 1
▁sempre 1
▁dobbiamo 1
▁doar 1
▁pozi 1
▁abychom 1
▁much 1
вят 1
▁наш 1
adamente 1
▁situación 1
kkino 1
▁õ 1
som 1
▁yrit 1
▁služ 1
▁regard 1
▁access 1
agem 1
ници 1
neet 1
odu 1
▁jen 1
▁podjet 1
lož 1
▁próx 1
itoare 1
▁politikai 1
зова 1
▁competitiv 1
рио 1
▁uv 1
▁pomoč 1
ši 1
▁rendel 1
ystä 1
▁importan 1
▁17 1
▁regist 1
мер 1
beleid 1
hm 1
▁suure 1
▁alkalmaz 1
▁kal 1
▁haar 1
▁than 1
▁przysz 1
test 1
adu 1
▁sposób 1
▁jelenleg 1
▁Bes 1
▁apoio 1
uras 1
anov 1
▁подоб 1
▁nõukogu 1
▁well 1
▁eh 1
▁esen 1
▁zajist 1
▁Fund 1
▁forhandling 1
áž 1
eve 1
▁възможност 1
êm 1
ráv 1
ällä 1
▁Gen 1
övő 1
▁emiss 1
arbejde 1
come 1
tion 1
▁необходимо 1
laus 1
▁hea 1
▁äänest 1
▁връ 1
▁végre 1
▁obchod 1
onn 1
▁ostat 1
ným 1
▁Tran 1
▁tekst 1
▁powied 1
▁Komisije 1
▁personas 1
ocrat 1
▁klimat 1
▁lehetőség 1
ţilor 1
ências 1
▁potrzeb 1
▁gustaría 1
▁împotriva 1
▁doel 1
▁tiem 1
▁hod 1
sport 1
▁energy 1
▁energét 1
dá 1
ilt 1
čet 1
atul 1
▁Európa 1
ění 1
osa 1
ravés 1
▁gemeins 1
uję 1
▁članice 1
ward 1
cję 1
onia 1
▁mecan 1
imul 1
oważ 1
aties 1
▁jeho 1
▁zeer 1
▁Tam 1
▁será 1
▁cambi 1
▁Tod 1
▁hor 1
aminen 1
▁estão 1
▁marked 1
▁betrekk 1
nav 1
▁tavoitte 1
oltre 1
▁bank 1
šen 1
▁rem 1
▁Proto 1
▁rid 1
▁bila 1
▁разли 1
▁дне 1
▁další 1
ospe 1
▁vuoksi 1
▁area 1
éseket 1
▁deleg 1
▁določ 1
▁сто 1
ţei 1
▁wyra 1
веде 1
▁kteří 1
▁muncă 1
▁situazione 1
▁fondament 1
esked 1
▁zejména 1
oso 1
uid 1
▁acestui 1
▁Art 1
aisin 1
▁paese 1
▁perman 1
dru 1
▁cht 1
▁států 1
ienie 1
▁sama 1
▁21 1
▁40 1
čen 1
▁osob 1
▁order 1
werking 1
zazione 1
▁future 1
▁zakresie 1
ativas 1
пя 1
▁Ten 1
▁evalu 1
▁vaat 1
▁trad 1
▁forbindelse 1
műkö 1
▁minor 1
▁elimin 1
▁livello 1
▁Entwicklung 1
strateg 1
▁kormány 1
▁illeg 1
▁Br 1
▁им 1
▁kaikk 1
ias 1
▁когато 1
▁yhteisty 1
▁jedoch 1
▁sentido 1
▁staat 1
▁voidaan 1
ikor 1
roug 1
▁podnik 1
spre 1
imes 1
▁presente 1
▁Sk 1
▁voorzitter 1
рта 1
ráci 1
csoport 1
▁důležité 1
roj 1
фекти 1
ният 1
ződés 1
če 1
ulla 1
▁štev 1
▁obd 1
▁normas 1
ső 1
бира 1
▁Cre 1
▁Fru 1
enschapp 1
▁rendelkez 1
▁wym 1
etz 1
▁due 1
akin 1
szön 1
▁sammen 1
icamente 1
▁jat 1
ční 1
▁koos 1
▁osi 1
вните 1
▁nadz 1
▁weiter 1
лно 1
anci 1
ână 1
▁II 1
▁свобо 1
▁neste 1
íl 1
▁antes 1
▁orient 1
▁защита 1
▁medlemsstaterne 1
kent 1
▁euroopp 1
íts 1
äädän 1
bol 1
▁ře 1
lijke 1
insäädän 1
nač 1
оста 1
▁свър 1
▁urg 1
▁paní 1
zę 1
czas 1
▁послед 1
otte 1
▁között 1
emu 1
▁enk 1
otřeb 1
▁minu 1
▁dever 1
▁many 1
▁însă 1
▁say 1
poliit 1
▁przek 1
▁работа 1
▁wür 1
ităţii 1
▁над 1
▁ży 1
▁bezpiecze 1
ěk 1
ahl 1
szak 1
ärra 1
зд 1
▁gas 1
▁komp 1
▁arvat 1
▁Meidän 1
▁miej 1
vám 1
▁Lib 1
▁izvaj 1
▁Przewodnicząc 1
quer 1
▁colleghi 1
oten 1
▁Jos 1
▁eelar 1
▁plaats 1
▁podat 1
▁maatregelen 1
chi 1
iin 1
▁Sicher 1
▁опреде 1
utto 1
edi 1
čun 1
ittäin 1
▁corre 1
onte 1
▁niiden 1
▁revis 1
rada 1
avasti 1
▁случа 1
▁bliver 1
ilu 1
▁damit 1
uttaa 1
elda 1
тен 1
▁priorit 1
▁sit 1
▁вече 1
ilí 1
▁koko 1
▁terület 1
▁tárgy 1
▁Haus 1
oly 1
▁así 1
▁osa 1
▁NATO 1
▁borg 1
▁Wij 1
▁imen 1
▁olema 1
unea 1
▁internacional 1
мент 1
anjem 1
▁saada 1
pov 1
▁gebied 1
▁poskyt 1
umis 1
▁zeg 1
istaa 1
▁teha 1
▁neid 1
igid 1
idores 1
wort 1
▁mili 1
avlj 1
▁fim 1
▁ec 1
sgál 1
▁vita 1
ivas 1
vert 1
▁chi 1
▁elabor 1
▁respon 1
▁разиск 1
▁együttműkö 1
▁conform 1
jm 1
iação 1
▁estable 1
mények 1
▁сътруд 1
дже 1
чна 1
áról 1
▁interno 1
onen 1
стру 1
▁jos 1
izioni 1
inud 1
▁nou 1
▁dific 1
▁jäsenvaltioiden 1
▁ott 1
▁avem 1
ěst 1
▁Če 1
▁пър 1
▁obliki 1
▁Não 1
▁страни 1
ця 1
ihen 1
▁same 1
▁jövő 1
▁președ 1
▁írásban 1
▁szeretném 1
ciw 1
▁după 1
▁druž 1
▁vendar 1
besondere 1
▁monet 1
▁mine 1
uksien 1
▁рам 1
▁basis 1
asin 1
▁folyt 1
lare 1
▁verant 1
▁cohes 1
▁job 1
▁recursos 1
▁zun 1
▁wła 1
▁ees 1
▁prest 1
▁bom 1
nyi 1
ően 1
▁nj 1
köz 1
ogen 1
ște 1
ula 1
▁Im 1
▁kü 1
ettore 1
▁conven 1
ebb 1
лата 1
▁punct 1
rac 1
owiąz 1
aju 1
aksin 1
▁katastro 1
▁могат 1
▁quali 1
▁tež 1
▁collega 1
▁atât 1
▁were 1
▁posled 1
mén 1
▁nodig 1
▁lé 1
▁kur 1
▁pris 1
▁Entsch 1
здра 1
▁součas 1
▁przypad 1
▁reprez 1
▁ønsker 1
értelm 1
usvahel 1
▁obsz 1
▁Presidenta 1
▁kív 1
ască 1
řit 1
rek 1
▁mir 1
▁lung 1
▁tipo 1
▁biztonság 1
▁ekonom 1
▁cał 1
▁settore 1
▁temu 1
▁zona 1
auf 1
▁stanowi 1
▁demonst 1
▁mellett 1
sain 1
▁pierw 1
ures 1
▁espec 1
▁measu 1
▁jossa 1
▁economica 1
-201 1
nię 1
gal 1
▁kompromis 1
ключително 1
▁aceasta 1
ké 1
▁rů 1
▁igen 1
▁vald 1
▁cetăţ 1
▁ever 1
▁apenas 1
▁ville 1
æs 1
▁põl 1
▁ettev 1
▁ohled 1
▁případ 1
bev 1
▁prepar 1
▁popraw 1
▁questione 1
rebbe 1
▁tav 1
▁CS 1
▁Tot 1
sainväl 1
▁zg 1
▁unije 1
amiento 1
program 1
igo 1
mal 1
▁egyet 1
tia 1
▁zorgen 1
▁kommiss 1
▁nik 1
▁nossa 1
▁oleme 1
▁stanov 1
oses 1
ether 1
▁klima 1
▁syn 1
▁których 1
bbi 1
лия 1
isz 1
▁arbejde 1
▁palju 1
ën 1
kład 1
▁Gospa 1
▁veřej 1
▁rád 1
▁regol 1
pool 1
▁inn 1
▁CE 1
▁dön 1
angs 1
erde 1
pite 1
zare 1
▁vähem 1
▁duidelijk 1
ffent 1
▁jednot 1
▁concern 1
▁Pal 1
szerű 1
▁wykor 1
mete 1
ásának 1
▁postop 1
▁законо 1
evad 1
▁sicher 1
▁priprav 1
▁pravic 1
▁Richt 1
▁chiar 1
▁Señora 1
amiseksi 1
▁Signora 1
▁Val 1
▁sowie 1
▁know 1
▁hul 1
▁negoci 1
▁Lo 1
emt 1
▁tätä 1
▁EF 1
atok 1
▁wurden 1
handl 1
ffici 1
▁Europæiske 1
edig 1
▁insp 1
▁debemos 1
▁measures 1
▁joh 1
▁lesz 1
ioon 1
etõttu 1
iteiten 1
vy 1
lau 1
ador 1
▁stør 1
▁nevoie 1
▁However 1
▁hom 1
▁działania 1
ält 1
▁vapa 1
foglal 1
uksessa 1
daj 1
▁дан 1
lum 1
▁right 1
▁commer 1
dan 1
прав 1
▁urmă 1
▁frakt 1
konna 1
weise 1
▁konie 1
iemy 1
▁fenn 1
▁miss 1
▁vedno 1
bior 1
▁eriti 1
iciones 1
idero 1
amer 1
forder 1
▁võimalik 1
bora 1
▁uus 1
iedade 1
▁Parlamentului 1
▁esz 1
olgen 1
▁prora 1
inger 1
onych 1
▁divers 1
▁AC 1
▁Za 1
▁бюдже 1
▁nødvend 1
▁first 1
asse 1
▁predsednica 1
udi 1
bir 1
▁forts 1
▁tax 1
▁přístup 1
▁Europejska 1
▁juba 1
▁päätös 1
aż 1
▁Tre 1
inten 1
aram 1
▁vys 1
▁pomembno 1
ników 1
▁gaat 1
▁bug 1
nienie 1
▁anos 1
ách 1
▁felic 1
▁Evropska 1
▁komen 1
▁Madam 1
▁condu 1
▁človek 1
▁development 1
▁decid 1
▁költségvet 1
rett 1
▁dese 1
▁tässä 1
▁cuestión 1
▁Jed 1
▁sprawozdania 1
inárod 1
▁euros 1
▁particolare 1
żeli 1
ikat 1
▁начин 1
▁evropské 1
ege 1
▁aihe 1
▁internaz 1
▁poliitil 1
sal 1
ppe 1
▁keine 1
▁gospodarcz 1
▁oluline 1
▁way 1
▁ezek 1
rez 1
▁wereld 1
▁бих 1
▁olemme 1
▁прилага 1
ße 1
lin 1
resp 1
ezni 1
▁vab 1
sour 1
▁przedmiot 1
rét 1
каз 1
▁sf 1
▁Paní 1
▁není 1
▁vahv 1
▁predv 1
meid 1
▁analiz 1
▁struktur 1
▁sens 1
▁prawa 1
arde 1
▁limit 1
▁tomto 1
ujemo 1
ститу 1
▁essen 1
▁osiąg 1
rk 1
▁suas 1
▁risolu 1
▁når 1
▁poh 1
▁têm 1
телно 1
▁2012 1
yb 1
▁sær 1
immä 1
ualmente 1
▁ilm 1
▁sond 1
open 1
▁tegev 1
▁Daarom 1
▁Mevrouw 1
inea 1
▁üles 1
вания 1
▁Präsidentin 1
▁vahel 1
▁področju 1
ory 1
éről 1
▁ро 1
▁subl 1
▁agrade 1
▁kus 1
▁grand 1
▁decir 1
▁immer 1
żet 1
▁misure 1
▁тех 1
liwości 1
▁projek 1
▁wprowad 1
▁miejs 1
▁comisar 1
▁ró 1
▁jin 1
örder 1
jed 1
ful 1
▁skr 1
▁altri 1
▁pract 1
▁resolução 1
▁Ira 1
▁zato 1
гия 1
▁lat 1
▁Russ 1
▁vállal 1
▁způsob 1
▁garantire 1
siä 1
▁tiempo 1
▁ong 1
▁aant 1
▁fine 1
▁Parlamendi 1
▁предоста 1
▁enor 1
▁sing 1
▁bilater 1
íamos 1
bez 1
▁aset 1
▁complet 1
jár 1
ností 1
▁huol 1
▁politiky 1
▁koord 1
▁välja 1
ismus 1
▁търго 1
▁gent 1
▁trze 1
▁respecto 1
▁pil 1
▁open 1
▁insbesondere 1
▁años 1
▁мерки 1
▁ontwikkeling 1
▁preven 1
нга 1
uno 1
▁usk 1
▁majd 1
▁brit 1
▁Commissioner 1
ésére 1
▁bew 1
▁rett 1
▁veil 1
▁deputado 1
▁good 1
▁gesch 1
▁Consiliului 1
arv 1
amnă 1
▁връз 1
ză 1
nis 1
▁üt 1
▁koostöö 1
rä 1
jæl 1
▁ül 1
▁обще 1
▁Европейската 1
▁alte 1
▁trgov 1
▁sott 1
▁равни 1
▁cin 1
hores 1
▁chc 1
alne 1
▁deste 1
▁tutto 1
▁działa 1
▁спе 1
▁някои 1
▁оба 1
anych 1
▁sufici 1
▁There 1
▁Kommissar 1
medi 1
organ 1
▁kapcsolatban 1
eles 1
ěděl 1
▁termin 1
uns 1
вна 1
▁pit 1
стано 1
acja 1
▁500 1
ského 1
▁vnit 1
▁létre 1
▁struct 1
▁více 1
пре 1
cere 1
ciem 1
▁pew 1
▁gaan 1
ţional 1
▁Deb 1
▁data 1
itas 1
кон 1
▁обаче 1
▁mää 1
▁gospe 1
▁noastre 1
▁tenemos 1
▁relev 1
▁х 1
ück 1
▁meine 1
▁gek 1
▁programma 1
ţe 1
▁ajal 1
▁foglalkoz 1
rijd 1
▁tol 1
▁stren 1
zoek 1
enten 1
▁lainsäädän 1
uttavia 1
▁rom 1
▁tuto 1
âr 1
wia 1
▁provoc 1
▁føl 1
ických 1
▁toekom 1
leszt 1
▁vraag 1
észet 1
▁test 1
▁efic 1
ikä 1
ienen 1
▁spolup 1
▁turvall 1
ötti 1
unnan 1
ateli 1
▁questi 1
osan 1
▁gennemføre 1
▁rendszer 1
▁zasad 1
народ 1
▁exper 1
▁sano 1
▁Parlaments 1
cra 1
▁czas 1
▁ön 1
собе 1
▁prv 1
▁zdaj 1
▁сътрудниче 1
▁flex 1
▁prag 1
gh 1
enii 1
oarea 1
▁100 1
▁country 1
▁komisař 1
▁ä 1
uol 1
▁stron 1
▁össze 1
▁les 1
▁Dlatego 1
▁toekomst 1
▁rapid 1
nal 1
▁aid 1
▁byl 1
▁anni 1
▁kyse 1
▁globale 1
▁kommissær 1
remo 1
▁kii 1
▁konkrét 1
etään 1
▁posi 1
▁yle 1
kkor 1
ărilor 1
▁acestei 1
yttä 1
▁демокра 1
▁cest 1
▁mesmo 1
árok 1
lijn 1
▁jurid 1
сигу 1
▁ting 1
▁неза 1
▁představ 1
▁priveşte 1
▁Unterstüt 1
▁Los 1
▁tro 1
allinen 1
▁sporazum 1
daw 1
zal 1
▁kle 1
▁heute 1
▁orç 1
▁fără 1
▁práva 1
▁nucle 1
▁finanční 1
cte 1
▁nich 1
wać 1
▁направи 1
-0 1
ribun 1
▁tato 1
▁mål 1
▁fare 1
TA 1
▁cuando 1
▁fu 1
▁път 1
▁zelf 1
▁podstaw 1
▁milion 1
▁Cred 1
▁vedr 1
cza 1
▁kirjalikult 1
hme 1
▁tér 1
ezen 1
für 1
▁ask 1
inek 1
▁kõr 1
useks 1
▁közötti 1
mee 1
▁tyto 1
geving 1
▁nám 1
dě 1
óság 1
igheden 1
▁elv 1
▁seot 1
▁nuestra 1
▁život 1
50 1
▁scop 1
▁toeg 1
▁estar 1
▁odloč 1
▁risoluzione 1
▁aumento 1
менно 1
crit 1
uja 1
▁yhd 1
▁więc 1
▁lahend 1
ässä 1
стъп 1
къ 1
▁ren 1
▁sui 1
▁matéria 1
like 1
▁Geme 1
▁страте 1
▁тран 1
ices 1
▁Nat 1
▁bod 1
▁kval 1
indo 1
▁erf 1
▁apoyo 1
▁ensure 1
ătă 1
▁eens 1
össä 1
endum 1
ozial 1
▁dirett 1
bbl 1
▁miljo 1
▁manten 1
▁politike 1
▁60 1
▁nast 1
▁Ban 1
▁techn 1
▁основа 1
erc 1
ned 1
▁zod 1
▁järg 1
▁tegel 1
▁pisni 1
▁Social 1
▁sett 1
▁nemen 1
▁можем 1
държа 1
pom 1
ciais 1
▁lehető 1
▁arvates 1
▁manif 1
▁sondern 1
lak 1
золю 1
▁rok 1
▁sull 1
▁perspect 1
▁vod 1
kre 1
▁buget 1
▁megold 1
sibil 1
boljš 1
▁ford 1
▁állás 1
▁Program 1
▁răsp 1
▁agora 1
boru 1
▁čin 1
▁członkowskie 1
uróp 1
▁trata 1
кта 1
raft 1
▁ted 1
upeetud 1
entă 1
tart 1
▁discrimin 1
allen 1
▁pose 1
▁stad 1
▁Como 1
▁инфор 1
▁creo 1
▁чрез 1
▁delov 1
evanje 1
▁sino 1
oth 1
iere 1
▁sla 1
▁Invest 1
rap 1
▁ugy 1
elijkheid 1
fts 1
bene 1
▁nun 1
▁behand 1
▁seotud 1
▁effektiv 1
▁tras 1
▁puhul 1
▁recom 1
▁eerste 1
elmi 1
kol 1
▁sagen 1
▁istitu 1
▁Van 1
▁uso 1
ových 1
▁klar 1
▁hozzá 1
▁nostro 1
ps 1
jąc 1
▁già 1
циите 1
▁aplicare 1
▁importantes 1
ßer 1
▁vyj 1
▁срещ 1
▁zlasti 1
usin 1
ernes 1
▁call 1
▁vezet 1
▁globaliz 1
лни 1
Fra 1
gelegen 1
▁благода 1
▁name 1
grund 1
▁tulem 1
staat 1
▁consumidores 1
hip 1
▁siihen 1
▁bur 1
▁independ 1
nies 1
idente 1
▁emberi 1
▁diss 1
щия 1
▁procent 1
▁coordin 1
▁czę 1
otto 1
▁уве 1
imen 1
▁fest 1
ância 1
▁unor 1
konnas 1
▁today 1
úmer 1
iseksi 1
æss 1
▁ри 1
aisesti 1
▁kolleg 1
▁Yhd 1
▁välj 1
anduse 1
ekv 1
eros 1
nesení 1
▁пла 1
uten 1
▁средства 1
rán 1
agę 1
etí 1
▁регио 1
utor 1
ætte 1
▁eri 1
ustada 1
▁elnök 1
▁parten 1
ivad 1
▁commissaris 1
▁lép 1
▁seoses 1
śl 1
▁soud 1
▁správ 1
▁resolution 1
▁развитие 1
▁2004 1
▁obywateli 1
řeba 1
lumaj 1
▁weil 1
▁Rechts 1
łości 1
▁ahora 1
▁podpo 1
ibile 1
▁ALDE 1
▁Europy 1
▁Kui 1
▁sog 1
▁vin 1
ikt 1
zyć 1
éri 1
▁poc 1
▁information 1
árt 1
hout 1
▁offent 1
▁propri 1
каза 1
rouwen 1
isuuden 1
ců 1
▁pogod 1
alaisten 1
▁Jest 1
▁kansainväl 1
▁byly 1
ие 1
intö 1
amisel 1
▁været 1
▁erittäin 1
▁voorstel 1
▁odpowiedzi 1
рането 1
▁razvoj 1
▁rozwo 1
▁бя 1
▁przedsię 1
▁ring 1
▁serie 1
▁взе 1
▁mest 1
▁azok 1
▁regionale 1
▁třeba 1
▁keskustel 1
▁внима 1
▁satisf 1
▁особе 1
▁državah 1
▁í 1
▁jää 1
▁kõige 1
iso 1
▁Energie 1
bero 1
▁motiv 1
anden 1
politi 1
▁sea 1
th 1
▁ду 1
cijo 1
▁cen 1
▁Unterstützung 1
▁europæ 1
▁uved 1
▁съгла 1
▁diritto 1
▁behov 1
▁ambiente 1
idi 1
nění 1
▁suoj 1
gå 1
▁namen 1
erk 1
▁tõh 1
▁täys 1
▁climat 1
▁impres 1
чен 1
▁tev 1
entos 1
▁ám 1
мена 1
▁tend 1
▁handel 1
▁interne 1
▁társadal 1
▁autoridades 1
▁hoje 1
▁FI 1
▁popol 1
isation 1
▁merkit 1
▁Európ 1
äng 1
▁selg 1
něž 1
▁állásfoglal 1
evanja 1
▁funcion 1
séges 1
▁fok 1
▁środków 1
▁progress 1
▁zeměděl 1
▁lucr 1
▁lad 1
ależ 1
това 1
▁votat 1
entie 1
▁onorevoli 1
паз 1
▁binnen 1
▁większ 1
▁mít 1
шения 1
▁bilan 1
▁Szer 1
imenti 1
▁pärast 1
▁komissio 1
til 1
indi 1
▁rámci 1
▁brug 1
ţile 1
ikai 1
▁heel 1
▁assist 1
▁bien 1
▁voted 1
▁raporti 1
▁permitir 1
ye 1
▁akkor 1
▁úč 1
▁dne 1
▁част 1
▁budżet 1
nist 1
▁bal 1
▁Herrn 1
▁tarko 1
▁rozvoj 1
ribu 1
▁Ta 1
▁kaž 1
▁consolid 1
▁европей 1
▁leta 1
▁ub 1
▁tieto 1
▁nossos 1
niejsz 1
▁succes 1
▁ком 1
▁což 1
▁Just 1
▁Entschließ 1
▁тях 1
▁grote 1
misoike 1
▁ora 1
▁pane 1
▁kötel 1
▁throug 1
poš 1
ánd 1
▁eu 1
tien 1
▁bizony 1
▁liikmesriikide 1
endi 1
▁allem 1
▁wirtschaft 1
▁hold 1
toare 1
▁permite 1
stw 1
▁vida 1
нци 1
▁fung 1
▁respeito 1
ości 1
utos 1
ához 1
▁róż 1
▁oggi 1
▁kwestie 1
ahr 1
▁lon 1
▁find 1
▁igual 1
▁maior 1
▁ambici 1
реди 1
▁zon 1
▁bereits 1
▁folytat 1
▁strategii 1
▁kterou 1
jek 1
▁Vendar 1
▁Liber 1
▁joita 1
▁години 1
▁boj 1
atore 1
▁Situ 1
▁brez 1
▁настоя 1
heiten 1
▁nogle 1
▁protection 1
▁lát 1
erming 1
▁bardziej 1
estin 1
▁mass 1
▁volinik 1
▁trattato 1
▁toimi 1
▁europeia 1
rechte 1
▁govor 1
▁instr 1
▁rahvusvahel 1
ög 1
cii 1
ligere 1
▁ilyen 1
▁Ли 1
egurar 1
▁solicit 1
▁obrav 1
▁povez 1
▁väär 1
▁gruppo 1
▁context 1
▁vlád 1
imentos 1
ftig 1
▁years 1
ronti 1
▁eesmärk 1
▁temat 1
▁aantal 1
iding 1
▁tehok 1
▁význam 1
▁interesse 1
xim 1
voer 1
▁opford 1
▁pret 1
zieć 1
▁nimel 1
▁oprav 1
æng 1
▁elnö 1
▁dia 1
улта 1
▁putem 1
äch 1
nă 1
elses 1
ovih 1
▁declar 1
▁nosso 1
▁politieke 1
▁jego 1
wy 1
itim 1
odzi 1
▁simpl 1
rut 1
▁резолю 1
▁impro 1
ăzi 1
▁firm 1
▁partners 1
ację 1
olen 1
▁And 1
rà 1
▁dazu 1
▁mund 1
▁edist 1
▁current 1
зулта 1
▁hvad 1
▁коле 1
schuss 1
▁въпроси 1
atere 1
▁23 1
▁dus 1
▁usnesení 1
▁garantizar 1
▁ezért 1
▁példá 1
▁europeos 1
▁нама 1
▁vytvo 1
aţi 1
bst 1
ozum 1
▁którzy 1
▁tapa 1
▁евро 1
▁érték 1
▁kontro 1
▁0 1
▁Res 1
▁agli 1
▁issue 1
ellt 1
▁fru 1
▁virksomhed 1
▁két 1
▁vul 1
▁mitä 1
anut 1
▁wys 1
▁seisuk 1
anom 1
owieka 1
▁pubbl 1
▁Vertrag 1
got 1
▁alles 1
▁medio 1
manjš 1
▁Para 1
▁csök 1
rin 1
ives 1
▁Kan 1
ecte 1
▁possible 1
пен 1
▁especialmente 1
▁erin 1
urse 1
▁ihm 1
▁Verdrag 1
▁situatie 1
▁tab 1
nutí 1
▁tárgyal 1
▁választ 1
obier 1
▁nekaj 1
mie 1
▁Acest 1
▁дъл 1
▁Esta 1
▁Haiti 1
▁resolución 1
▁Rep 1
▁nostra 1
oro 1
szab 1
▁využ 1
▁jedno 1
▁причи 1
iero 1
▁begrot 1
▁produkt 1
▁Kl 1
▁kmet 1
ee 1
zat 1
▁neuvoston 1
▁Israel 1
▁срещу 1
▁reprezintă 1
ilv 1
ywy 1
▁anvend 1
▁pozor 1
▁gyakor 1
▁where 1
▁segundo 1
▁Ka 1
ított 1
aliok 1
▁podob 1
▁Ad 1
agt 1
▁spodb 1
ţionale 1
▁liittyv 1
▁obdob 1
▁alo 1
▁impact 1
ivă 1
ansa 1
▁секто 1
▁proposal 1
▁motivo 1
▁lih 1
▁będą 1
▁przedsiębior 1
▁okvir 1
пан 1
▁jde 1
▁temelj 1
▁epä 1
▁taloudell 1
▁Commissario 1
nder 1
▁ефекти 1
▁kodanik 1
kív 1
cznie 1
▁парт 1
▁igaz 1
▁rá 1
▁eml 1
▁nasz 1
▁otros 1
▁nyní 1
▁milh 1
▁númer 1
hlas 1
▁votado 1
▁законодател 1
oż 1
ría 1
чава 1
▁mów 1
▁può 1
▁když 1
▁svoje 1
ittee 1
▁formul 1
▁hervor 1
idega 1
▁Treb 1
▁směr 1
▁markt 1
nikov 1
▁meel 1
▁postup 1
ukseen 1
▁guvern 1
▁Europejskiego 1
leo 1
atos 1
eszcze 1
▁hatékon 1
▁gemeenschapp 1
jük 1
ratt 1
ulle 1
▁sige 1
▁Au 1
▁proiz 1
keen 1
▁сега 1
▁свърза 1
▁nuestros 1
hes 1
▁viis 1
več 1
ichter 1
▁senza 1
▁implic 1
▁proteg 1
▁nyky 1
кту 1
▁jim 1
▁koleg 1
mach 1
agement 1
тно 1
▁során 1
▁Mittel 1
▁discussione 1
▁Pri 1
▁elev 1
▁stra 1
▁climát 1
ogi 1
recht 1
▁koordin 1
рани 1
▁demokraat 1
ence 1
erca 1
▁Bereich 1
ić 1
etty 1
▁amelyet 1
▁nood 1
itamos 1
umente 1
▁положе 1
▁erg 1
▁pozitiv 1
▁folyamat 1
▁unii 1
▁wieder 1
ített 1
inta 1
▁проти 1
▁оста 1
řízení 1
▁резулта 1
▁mednarod 1
▁põllumaj 1
▁nemzetközi 1
▁zwi 1
▁discut 1
▁transparen 1
ency 1
usto 1
ämp 1
▁náz 1
forme 1
▁empre 1
▁devono 1
▁outros 1
▁protección 1
ált 1
▁2005 1
▁tener 1
▁módos 1
▁искам 1
▁gestemd 1
▁někter 1
▁týk 1
▁poseb 1
▁histor 1
▁lovgiv 1
▁here 1
▁poveč 1
cjon 1
▁aktu 1
▁novo 1
▁členské 1
erta 1
▁último 1
▁bol 1
▁îmb 1
lát 1
▁paci 1
▁ljudi 1
ífic 1
onment 1
▁denen 1
splan 1
ową 1
hled 1
▁elem 1
▁ту 1
▁mérték 1
emming 1
▁hanem 1
▁rispetto 1
forslag 1
▁belangrijke 1
▁jasno 1
unut 1
▁zeggen 1
▁Señorías 1
щност 1
▁univers 1
▁bilancio 1
wet 1
▁sex 1
▁avea 1
▁feit 1
▁tugev 1
▁viime 1
▁mismo 1
▁moder 1
▁rohkem 1
▁връзка 1
▁особено 1
▁üld 1
▁vielä 1
▁economică 1
▁Unia 1
▁felt 1
▁sprememb 1
▁Va 1
ittäm 1
▁amikor 1
▁suhte 1
▁потре 1
▁grad 1
▁fă 1
▁debería 1
▁favoarea 1
▁Ko 1
▁deben 1
▁agenda 1
▁пос 1
▁tecnolog 1
▁végrehaj 1
▁Directiva 1
šit 1
▁anti 1
▁wykorzyst 1
lení 1
andaag 1
▁protecção 1
łuż 1
▁ну 1
▁level 1
ciación 1
▁enc 1
мента 1
▁denk 1
▁zmanjš 1
eja 1
▁mezinárod 1
urch 1
▁obser 1
▁hoy 1
▁economie 1
▁sprejet 1
▁sostegno 1
▁glau 1
ärist 1
věd 1
▁măsuri 1
▁nelle 1
▁областта 1
▁arbe 1
▁saat 1
▁fer 1
uteen 1
▁Regul 1
▁човека 1
ców 1
▁buiten 1
rač 1
▁helt 1
▁важно 1
▁Nä 1
kaan 1
arie 1
▁hil 1
ranic 1
▁vaja 1
▁direito 1
▁scris 1
еди 1
▁posible 1
▁desta 1
▁individu 1
▁weit 1
▁доста 1
▁осигу 1
ąt 1
vény 1
ifica 1
▁tilf 1
▁hvilket 1
▁międzynarod 1
spra 1
кри 1
▁siano 1
▁például 1
▁elm 1
▁vprašanje 1
ajien 1
▁inizi 1
▁leping 1
czywi 1
▁miglior 1
czywiście 1
nte 1
▁Geb 1
▁beste 1
alist 1
▁claro 1
▁svol 1
▁нашите 1
▁Evropského 1
▁dnes 1
ispi 1
▁tel 1
▁Verein 1
▁directiva 1
dő 1
eker 1
ámos 1
▁avo 1
▁unserer 1
▁EG 1
▁võtta 1
цен 1
▁lood 1
▁mukaan 1
▁равнище 1
▁ini 1
▁parem 1
▁bine 1
▁vseh 1
▁grond 1
▁Cont 1
czenia 1
▁Evropskega 1
▁gema 1
vironment 1
vá 1
▁velik 1
▁Sa 1
ljiv 1
oper 1
▁úrov 1
▁ця 1
struct 1
ieder 1
▁Догово 1
▁Ace 1
▁causa 1
mí 1
onom 1
mě 1
țin 1
▁rece 1
▁regulament 1
arias 1
▁subsid 1
hető 1
▁ügy 1
▁läbi 1
▁24 1
▁kansall 1
▁ilma 1
öglich 1
▁metod 1
▁enam 1
▁Tat 1
zonder 1
lič 1
▁ámb 1
ąż 1
▁Comissário 1
▁rep 1
▁poseł 1
itus 1
▁danes 1
▁groot 1
kil 1
sku 1
▁dafür 1
▁tähts 1
▁eficaz 1
aht 1
şt 1
ésre 1
▁míst 1
▁Wirtschaft 1
ril 1
лна 1
▁allen 1
▁дейст 1
▁rappresent 1
orto 1
▁kasv 1
▁success 1
ugi 1
▁група 1
ителите 1
▁consequ 1
▁principio 1
▁управ 1
▁quindi 1
łam 1
ректи 1
anow 1
iale 1
▁comercial 1
mos 1
▁Mein 1
▁foram 1
▁obiectiv 1
▁национал 1
▁Selle 1
abi 1
dzi 1
▁podp 1
▁obnov 1
▁помощ 1
▁immig 1
reč 1
▁dönt 1
niki 1
▁amp 1
▁kõig 1
▁měli 1
▁procedure 1
▁imig 1
▁mogoče 1
▁julk 1
▁veliko 1
▁iniciativa 1
uire 1
akter 1
plat 1
itengo 1
▁pie 1
▁Comun 1
ša 1
▁europeus 1
▁dor 1
▁vorrei 1
füg 1
▁trasp 1
▁circ 1
ves 1
▁principal 1
▁przedstaw 1
ontrol 1
▁dyrekt 1
cimiento 1
▁persone 1
yh 1
▁possível 1
▁osalta 1
▁kellene 1
▁kolleeg 1
▁varmist 1
iging 1
▁felelő 1
ává 1
▁tarkist 1
▁viitor 1
orr 1
▁Glob 1
▁võib 1
▁señora 1
▁políticos 1
pł 1
виси 1
▁suu 1
fund 1
▁betrekking 1
▁stud 1
▁point 1
▁suhtes 1
▁програ 1
▁zemí 1
▁keret 1
▁omf 1
west 1
▁areng 1
▁požad 1
eniu 1
▁garantir 1
▁mie 1
▁favour 1
▁Ci 1
▁geog 1
▁ihrer 1
▁ing 1
ással 1
ästä 1
▁muligt 1
▁besz 1
▁svět 1
▁uzn 1
osság 1
▁Organiz 1
▁governo 1
▁zašč 1
▁world 1
▁haluan 1
▁første 1
▁territori 1
▁samarbejde 1
▁decât 1
▁cuenta 1
▁peł 1
▁sulle 1
▁bezpieczeństwa 1
avate 1
▁vahend 1
iedz 1
orre 1
▁panu 1
▁waren 1
icion 1
cido 1
▁cann 1
▁пазар 1
▁człowieka 1
▁ello 1
▁societ 1
▁държава 1
▁tali 1
▁domí 1
▁proh 1
▁sytuacji 1
▁model 1
▁izboljš 1
valt 1
wand 1
▁Trebuie 1
▁beslutning 1
eter 1
õiguste 1
▁ochrony 1
▁drepturile 1
eil 1
dade 1
szych 1
▁eljár 1
▁него 1
utus 1
ozdaw 1
fahren 1
▁wiele 1
▁cooperation 1
▁dobro 1
ikko 1
▁miliard 1
▁teht 1
waar 1
▁pravice 1
зво 1
▁chr 1
▁câ 1
onna 1
▁Ste 1
▁press 1
rata 1
▁devem 1
▁международ 1
▁prezy 1
▁enorme 1
mm 1
▁garan 1
▁nemzeti 1
▁cooperação 1
eleg 1
▁Solidar 1
▁ow 1
▁cannot 1
liš 1
nętr 1
▁ponov 1
▁upoš 1
▁tém 1
▁фор 1
▁hoop 1
nyezet 1
▁vuoden 1
▁democracia 1
▁wyst 1
hány 1
▁jeszcze 1
▁řešení 1
lage 1
▁Esto 1
▁stej 1
▁diskr 1
▁tekintet 1
▁изиск 1
▁politiske 1
oren 1
élkül 1
▁panie 1
▁forbed 1
▁Vorschlag 1
skou 1
▁усло 1
глежда 1
ytäntöön 1
egn 1
▁nós 1
▁osall 1
▁všechny 1
▁Hin 1
tää 1
▁combat 1
▁gestimmt 1
remos 1
ilater 1
▁predvsem 1
▁hjæl 1
ês 1
▁én 1
fa 1
▁asian 1
▁ainult 1
plin 1
▁dann 1
▁mnen 1
▁poved 1
▁domeniul 1
▁ihmisoike 1
õige 1
▁Mold 1
▁direktiiv 1
▁eks 1
▁hos 1
▁насър 1
▁saját 1
▁pois 1
▁resol 1
ulo 1
▁Copenh 1
▁veiligheid 1
kte 1
fung 1
▁fuld 1
keiten 1
ittelij 1
íz 1
▁nal 1
▁végrehajt 1
otti 1
▁wszystkim 1
▁rozpoč 1
zeug 1
▁искал 1
▁riikide 1
▁cong 1
irea 1
arlament 1
bour 1
nívám 1
▁olev 1
▁asigura 1
oup 1
▁kohust 1
▁întâ 1
▁rynku 1
ostas 1
▁geven 1
br 1
▁fos 1
▁politică 1
▁commissione 1
moč 1
▁maggi 1
cimento 1
▁modific 1
▁przeciw 1
▁parlamentti 1
▁hi 1
zględ 1
▁azzal 1
mine 1
▁stata 1
▁stemte 1
▁Dob 1
▁növ 1
▁Grup 1
ogoč 1
luse 1
endere 1
▁darauf 1
▁правител 1
▁nüüd 1
▁einz 1
din 1
▁particip 1
▁beho 1
▁neuen 1
▁przem 1
aciones 1
▁stadig 1
▁сигурност 1
▁jota 1
▁prosent 1
▁kwestii 1
▁täytäntöön 1
▁Frage 1
sicht 1
▁argument 1
▁samenwerking 1
▁lie 1
▁vers 1
▁opera 1
▁umož 1
▁daher 1
ajat 1
lemen 1
▁nostri 1
▁измене 1
▁Turk 1
▁koht 1
▁issues 1
▁ramach 1
▁vas 1
▁ambit 1
▁sug 1
lemme 1
▁euró 1
▁alterações 1
cks 1
▁ern 1
тори 1
▁høj 1
▁ymp 1
▁Evropi 1
▁80 1
yksen 1
▁toe 1
▁Irlanda 1
▁tähele 1
▁vr 1
▁avald 1
▁económico 1
▁cooperación 1
ables 1
▁műkö 1
▁smlou 1
▁alapvet 1
plan 1
▁Kre 1
▁Slov 1
▁Av 1
emist 1
ære 1
rant 1
rícol 1
▁elér 1
▁poudar 1
▁prevent 1
▁interest 1
▁sellest 1
nict 1
▁adequ 1
▁common 1
ényez 1
øg 1
▁sł 1
▁kiire 1
▁possa 1
▁número 1
▁сел 1
▁Gostaria 1
▁kompromiss 1
itz 1
▁said 1
▁democrát 1
▁relativa 1
▁ala 1
umise 1
▁täht 1
▁decyz 1
▁trabalh 1
▁ještě 1
▁financ 1
▁todell 1
▁question 1
▁aspekt 1
ían 1
▁klimatu 1
čení 1
▁Car 1
логи 1
essi 1
ivet 1
▁dziedz 1
▁omului 1
icznych 1
▁verdad 1
▁vastaan 1
▁verantwoord 1
▁law 1
▁opf 1
▁europeu 1
▁natural 1
▁possibile 1
itv 1
▁důvod 1
▁dezvoltare 1
edes 1
▁kis 1
▁able 1
▁konferen 1
▁aqui 1
itori 1
▁jätk 1
rengen 1
▁Kol 1
▁kako 1
uksista 1
▁juríd 1
uvat 1
▁nak 1
idige 1
critto 1
▁tagada 1
▁verbet 1
рабо 1
▁decl 1
byt 1
▁rõh 1
▁deja 1
raž 1
▁rää 1
▁dizer 1
▁związku 1
▁потреб 1
▁algo 1
▁kogu 1
стра 1
▁geh 1
▁števil 1
▁принци 1
▁krij 1
▁võit 1
▁vigtig 1
йна 1
▁уча 1
▁sper 1
▁existe 1
▁zprav 1
▁szeretnék 1
▁ocup 1
▁morajo 1
▁zouden 1
▁pelos 1
▁nadziej 1
▁europæisk 1
šk 1
ution 1
▁umani 1
▁Änder 1
▁souvis 1
fte 1
obec 1
▁Úgy 1
▁Ziel 1
▁neue 1
▁până 1
ciu 1
ils 1
▁within 1
owanych 1
▁határoz 1
▁afirm 1
▁komun 1
▁ura 1
▁информа 1
▁Zusammenarbeit 1
roż 1
isko 1
ítani 1
▁coes 1
▁păr 1
ţum 1
ruct 1
ству 1
▁sust 1
▁verk 1
▁szint 1
▁ejem 1
▁instytu 1
▁poprz 1
▁bru 1
roffen 1
▁mietintö 1
fiz 1
▁работни 1
▁questões 1
teen 1
▁forskell 1
▁yhteistyö 1
▁lei 1
▁szemp 1
▁подход 1
cup 1
umat 1
▁vlog 1
ających 1
▁Sell 1
▁nást 1
▁ő 1
rend 1
▁прое 1
▁Bezug 1
SE 1
nahme 1
▁účin 1
▁изпъл 1
poliitika 1
ordnung 1
▁pís 1
▁живо 1
▁environment 1
▁szempont 1
▁Welt 1
▁vote 1
▁votato 1
lis 1
aden 1
▁objetivo 1
▁vélemény 1
ogli 1
▁tällä 1
▁Ty 1
éken 1
▁днес 1
▁alcuni 1
▁kwesti 1
▁drepturilor 1
▁influ 1
▁разпо 1
▁институ 1
▁rettigheder 1
▁Mil 1
uso 1
▁Lu 1
brauch 1
ležitost 1
▁valor 1
▁sikkerhed 1
ough 1
▁podzi 1
▁zásad 1
tiiv 1
▁üht 1
▁nuclear 1
▁praeg 1
▁sellele 1
IT 1
acyj 1
голя 1
nich 1
▁pac 1
черта 1
▁rovněž 1
▁сътрудничество 1
itvi 1
▁jež 1
вежда 1
вах 1
▁kolm 1
▁köszön 1
▁nuestro 1
▁pracovní 1
opa 1
▁Lug 1
ichterstat 1
▁især 1
▁waarin 1
ложи 1
▁mov 1
▁apresent 1
▁nadzieję 1
▁liberaliz 1
dag 1
ledn 1
▁pregled 1
▁cento 1
usiness 1
▁paljon 1
▁întreb 1
,5 1
▁kog 1
czne 1
▁Eurooppa 1
erte 1
yect 1
▁both 1
▁così 1
▁Inform 1
țiile 1
▁accord 1
▁miljard 1
eked 1
▁até 1
▁two 1
▁fejlő 1
▁kader 1
▁vandaag 1
рна 1
▁säil 1
▁twee 1
▁egyes 1
▁servi 1
selt 1
▁high 1
iken 1
▁dela 1
▁También 1
▁parlamenta 1
▁presidente 1
▁Liit 1
▁maggio 1
▁regime 1
iro 1
unden 1
unătă 1
▁stre 1
ţiilor 1
neb 1
лява 1
▁sociální 1
ží 1
elli 1
▁запо 1
licher 1
▁how 1
▁steeds 1
▁Treaty 1
mier 1
▁dou 1
riften 1
▁could 1
▁procesu 1
▁raportul 1
▁bedre 1
▁ravni 1
▁kaj 1
▁funk 1
ема 1
ției 1
ordan 1
▁cab 1
▁täiel 1
▁zaw 1
ratie 1
▁Dette 1
▁písem 1
▁resultado 1
▁simpli 1
▁concret 1
▁exempl 1
ából 1
▁esimer 1
▁extern 1
últ 1
▁Wenn 1
▁statist 1
rings 1
▁krok 1
▁esfor 1
bbe 1
▁lak 1
▁riig 1
▁rozprav 1
bio 1
områ 1
▁ennek 1
▁menneskerett 1
urd 1
▁zased 1
▁betreft 1
▁elektron 1
ávání 1
flicht 1
▁systém 1
▁rozwoju 1
▁Rum 1
▁huomioon 1
▁vzpostav 1
werk 1
▁Nach 1
▁Derfor 1
▁parlamenti 1
onden 1
▁astăzi 1
▁už 1
erii 1
▁sarà 1
▁valut 1
▁történő 1
▁economice 1
imu 1
schließ 1
íveis 1
▁praegu 1
eka 1
▁dodat 1
▁milij 1
rategia 1
gazdaság 1
▁ág 1
▁Minist 1
▁Europas 1
arsi 1
пас 1
рим 1
▁Sec 1
gesch 1
▁Belar 1
▁autom 1
▁îmbunătă 1
▁Lugupeetud 1
▁idea 1
▁ambient 1
unde 1
▁jetzt 1
▁всичко 1
▁agrícol 1
▁dum 1
vím 1
▁raggi 1
▁kirjallinen 1
▁uwagę 1
kou 1
▁cop 1
ased 1
luit 1
▁preced 1
▁мал 1
▁rahast 1
▁tele 1
▁maailman 1
▁anter 1
▁Europie 1
▁bid 1
▁asso 1
▁usp 1
рни 1
▁elleni 1
▁možnost 1
▁Consiliul 1
▁recent 1
▁politic 1
▁endnu 1
▁entanto 1
▁industria 1
ък 1
▁vai 1
▁egyik 1
▁megkö 1
ES 1
kehr 1
▁cual 1
▁проду 1
▁consult 1
▁inoltre 1
avalt 1
▁túl 1
ready 1
▁problemi 1
űz 1
▁My 1
▁omogoč 1
cios 1
work 1
▁Evropě 1
▁dokon 1
ienst 1
▁podporu 1
▁hope 1
linie 1
мисия 1
▁konkret 1
▁dosáh 1
fall 1
▁würde 1
▁rozwiąz 1
IB 1
sific 1
áveis 1
▁artic 1
▁olnud 1
▁solida 1
acă 1
▁przej 1
▁strani 1
▁osallist 1
ock 1
elman 1
▁saan 1
inación 1
▁Kosovo 1
тро 1
▁опи 1
▁yder 1
▁stále 1
▁medida 1
▁naszych 1
▁každ 1
▁piac 1
cija 1
▁območ 1
birää 1
erung 1
øn 1
▁ogni 1
▁Трябва 1
éhez 1
▁zdů 1
árm 1
▁anno 1
▁enem 1
▁fiz 1
árias 1
▁okol 1
▁teem 1
▁already 1
▁działań 1
szí 1
▁drø 1
▁njen 1
øres 1
▁hol 1
▁ades 1
▁mulţum 1
▁statelor 1
▁европейските 1
▁view 1
▁Unternehmen 1
▁wit 1
▁Schul 1
▁környezet 1
▁morali 1
▁transporte 1
▁vedrørende 1
zw 1
▁Sono 1
▁accept 1
ţele 1
▁extra 1
Parlament 1
rati 1
polit 1
ítása 1
értelmű 1
▁gondolom 1
ген 1
▁enak 1
▁list 1
▁szak 1
▁toto 1
▁allerede 1
нася 1
▁vpl 1
jekt 1
úlyoz 1
▁loom 1
▁Preşed 1
▁niveau 1
tage 1
eseen 1
▁oppos 1
kívül 1
▁kaits 1
▁europäische 1
fej 1
▁Ето 1
▁acesta 1
▁termos 1
cionar 1
▁Liz 1
▁segí 1
lemente 1
▁contexto 1
evat 1
▁amer 1
▁järe 1
▁altro 1
▁arutelu 1
▁întrepr 1
▁esemp 1
inti 1
▁author 1
ěla 1
▁essa 1
▁politice 1
▁Domn 1
▁eesist 1
▁rodz 1
▁porozum 1
▁siguran 1
▁spec 1
▁trag 1
▁voto 1
emis 1
▁druh 1
▁Prog 1
▁char 1
▁használ 1
szt 1
ответ 1
uka 1
urre 1
▁itt 1
▁фон 1
▁Senhores 1
▁necessário 1
best 1
▁difí 1
uksesta 1
▁igualmente 1
▁Democrat 1
▁security 1
▁ON 1
▁bist 1
▁gang 1
▁manera 1
prič 1
yvä 1
▁tř 1
▁zien 1
▁ansvar 1
▁å 1
▁sle 1
▁Din 1
▁měla 1
▁relacion 1
ribunal 1
▁Fl 1
▁vlast 1
▁въпроса 1
▁граждани 1
вени 1
▁fogy 1
▁ganz 1
rare 1
▁полу 1
▁mikä 1
▁energética 1
onos 1
łasz 1
▁proprio 1
▁norme 1
▁proyect 1
▁direttiva 1
▁vsak 1
▁aikaan 1
▁overv 1
▁aastal 1
▁jogok 1
▁eredmény 1
rane 1
▁Fronte 1
▁toimen 1
▁Pakistan 1
▁докладчи 1
▁każ 1
▁rechten 1
lé 1
▁Gener 1
▁unija 1
▁позво 1
rii 1
▁učin 1
▁samuti 1
észt 1
▁gentlemen 1
▁dé 1
blik 1
žeme 1
▁posz 1
▁occup 1
▁desc 1
▁kannat 1
▁varnost 1
▁continue 1
äre 1
▁kum 1
▁Sunt 1
▁saab 1
rang 1
ential 1
▁machen 1
▁your 1
▁reprezent 1
line 1
▁spra 1
▁производ 1
bö 1
niśmy 1
▁Centr 1
▁proračun 1
ühren 1
adt 1
▁Hvis 1
▁kuidas 1
▁noget 1
▁tehdä 1
▁express 1
▁qualquer 1
nünk 1
▁podmí 1
▁affront 1
▁Ud 1
▁valv 1
▁előad 1
▁jolla 1
▁refle 1
▁necessario 1
żyć 1
▁menet 1
▁szerv 1
▁oikeus 1
▁milli 1
▁consid 1
fra 1
▁uu 1
▁iscritto 1
▁politiche 1
▁reas 1
▁probleme 1
▁seisukoh 1
▁bor 1
▁był 1
▁předpis 1
▁nuevo 1
▁Besch 1
ramente 1
▁through 1
▁mielestäni 1
▁przykład 1
▁opn 1
▁ple 1
▁megállapodás 1
▁cerc 1
▁tedy 1
▁strony 1
▁internazionale 1
▁2000 1
▁módon 1
▁финанси 1
▁pán 1
▁интере 1
ěstnan 1
áció 1
▁juh 1
▁deel 1
birääkim 1
▁Х 1
▁sopimuksen 1
eim 1
valget 1
▁Seg 1
▁Chr 1
▁pross 1
▁capital 1
▁tähelepan 1
ánt 1
▁wł 1
aval 1
▁através 1
▁Arbe 1
▁edust 1
▁енерги 1
▁irányelv 1
markt 1
▁merk 1
▁compromis 1
▁Bürgerinnen 1
ået 1
нда 1
▁spotřeb 1
ække 1
▁právní 1
cip 1
▁minha 1
▁irányuló 1
▁millones 1
óz 1
▁tes 1
▁Thema 1
▁imenu 1
▁tästä 1
▁atunci 1
▁подкрепя 1
▁cooperazione 1
unft 1
▁koskevan 1
▁Парламент 1
alth 1
▁ves 1
▁dobr 1
▁assim 1
enut 1
▁milhões 1
szym 1
▁zlep 1
▁zahval 1
▁esempio 1
▁weg 1
yttää 1
лната 1
itions 1
▁pogaj 1
▁задъл 1
▁eng 1
▁suurem 1
▁uh 1
roduk 1
▁Пред 1
▁põhim 1
сна 1
▁ALE 1
▁Verb 1
▁ECR 1
▁предвид 1
▁domnilor 1
▁strateeg 1
ciale 1
niu 1
łat 1
вето 1
▁Pot 1
▁työn 1
▁tähän 1
▁przest 1
▁objectivo 1
ström 1
▁amet 1
▁Politik 1
▁måde 1
▁peavad 1
▁prowad 1
▁möglich 1
▁otro 1
▁obowiąz 1
▁ympärist 1
▁można 1
▁możemy 1
▁gospodje 1
nemu 1
▁hak 1
amisen 1
▁klart 1
▁vedtag 1
▁Namen 1
spě 1
őrz 1
▁wal 1
wnętr 1
▁numero 1
▁písemně 1
▁løs 1
atsioon 1
unda 1
ности 1
▁mevrouw 1
▁ured 1
▁negoti 1
▁господа 1
ésének 1
eer 1
wen 1
▁Prav 1
▁dzie 1
▁información 1
iki 1
▁vält 1
▁efort 1
▁Kopenh 1
▁erre 1
kken 1
▁osób 1
▁role 1
▁samme 1
▁seks 1
▁посо 1
▁skupine 1
▁Dar 1
icah 1
▁Sto 1
▁ign 1
▁perí 1
▁middelen 1
▁finansielle 1
▁muj 1
▁sobie 1
▁бъдеще 1
seb 1
▁Pok 1
▁mieltä 1
▁stanow 1
▁przepis 1
▁Mo 1
▁fell 1
▁здра 1
▁jeden 1
▁odvět 1
▁All 1
▁Las 1
▁inds 1
rud 1
▁může 1
▁dimens 1
▁provád 1
ámy 1
▁landbrug 1
ieu 1
uring 1
ører 1
vid 1
uslik 1
▁vzd 1
▁asja 1
▁krajów 1
▁polici 1
just 1
yment 1
amentos 1
▁Grecia 1
ożli 1
▁event 1
ças 1
▁régi 1
▁бяха 1
▁Rahmen 1
ibet 1
werp 1
▁eszköz 1
▁landbouw 1
▁That 1
▁samt 1
▁acela 1
▁ayuda 1
▁ennen 1
▁negativ 1
ján 1
beeld 1
▁equilib 1
▁týkající 1
ează 1
lert 1
вто 1
▁teror 1
▁fenntart 1
▁sprawozdaw 1
рти 1
ustele 1
▁innych 1
▁Gar 1
▁első 1
▁commun 1
amisesta 1
▁učinkovit 1
▁chodzi 1
▁situaci 1
▁Pra 1
▁torj 1
▁hatékony 1
▁Zi 1
komen 1
▁Skup 1
fo 1
▁обсъ 1
▁nova 1
▁голя 1
ærk 1
цион 1
▁jut 1
▁trhu 1
amnelor 1
▁którym 1
▁спра 1
▁aconte 1
AC 1
▁uusi 1
▁роля 1
▁budouc 1
▁kryzysu 1
åde 1
eligt 1
▁educa 1
▁Domnule 1
▁Mis 1
▁bety 1
▁politi 1
али 1
▁terve 1
▁Frontex 1
lse 1
▁Ant 1
▁akar 1
▁stati 1
cel 1
▁hit 1
▁mucho 1
▁niekt 1
▁legitim 1
▁programu 1
luss 1
orno 1
entro 1
▁ofre 1
▁Verts 1
▁houden 1
▁jäsenvalti 1
бра 1
▁hoe 1
▁vesz 1
▁съществу 1
▁Kar 1
▁lin 1
▁effica 1
▁edelleen 1
▁Om 1
▁Jahr 1
▁problemen 1
▁przyjęciem 1
ya 1
læggende 1
▁keresked 1
▁hij 1
▁mang 1
▁След 1
enilor 1
▁бор 1
▁pánové 1
ezien 1
▁namens 1
▁Sicherheit 1
▁predsed 1
▁természet 1
ке 1
▁miten 1
▁joilla 1
▁tienen 1
ehen 1
into 1
▁own 1
▁ezen 1
▁dimost 1
▁certain 1
▁съответ 1
zake 1
▁perio 1
▁pesca 1
▁prid 1
▁confer 1
▁europeană 1
ló 1
zion 1
▁individ 1
ble 1
▁Ro 1
рата 1
▁stimul 1
▁zonder 1
stelling 1
▁unterstützen 1
itys 1
▁unioni 1
▁njeg 1
teil 1
стой 1
▁члено 1
▁func 1
▁doresc 1
▁ejemplo 1
▁przypadku 1
urther 1
▁økonomisk 1
ited 1
ettävä 1
▁manier 1
▁spošt 1
lla 1
▁Krise 1
▁напред 1
▁dotyczące 1
▁съв 1
▁dich 1
▁значение 1
▁Szeret 1
▁считам 1
ród 1
ugos 1
ícul 1
▁teie 1
▁létrehoz 1
▁ясно 1
▁thank 1
▁glaube 1
▁matter 1
▁realmente 1
▁ech 1
▁öffent 1
▁odpověd 1
uvad 1
ichte 1
ališč 1
▁aleg 1
▁alguns 1
▁inzake 1
alak 1
▁jelenlegi 1
▁wd 1
▁Liid 1
▁einige 1
delm 1
stvu 1
ycznych 1
▁daarom 1
mid 1
-2013 1
under 1
▁alapvető 1
▁Dru 1
▁nesta 1
volu 1
▁does 1
ctores 1
▁negoc 1
▁zpravodaj 1
cis 1
olek 1
ствено 1
▁amen 1
siin 1
▁ful 1
▁case 1
▁forskellige 1
öld 1
лож 1
▁letz 1
▁ruolo 1
▁nezbyt 1
▁Mer 1
▁razvo 1
▁Comisario 1
eje 1
▁świ 1
▁dura 1
▁vuos 1
▁polgárok 1
▁mají 1
▁Sud 1
▁Balk 1
▁sted 1
▁előtt 1
▁néhány 1
▁princí 1
▁zagotavlj 1
łoż 1
▁ле 1
stev 1
▁ważne 1
▁sotsiaal 1
ölgy 1
▁cei 1
obiet 1
▁două 1
▁lihts 1
▁увели 1
▁alternativ 1
▁rim 1
▁Senhoras 1
▁institui 1
▁ileg 1
▁excel 1
▁rõhut 1
▁мя 1
▁voim 1
▁решение 1
unile 1
▁kerül 1
▁estabele 1
рия 1
▁Ent 1
▁gan 1
▁colegas 1
ligvis 1
▁konflikt 1
▁grundlæggende 1
▁ó 1
itada 1
▁crimin 1
сен 1
▁Recht 1
▁aceea 1
▁referendum 1
nji 1
houd 1
oord 1
▁hind 1
▁prisp 1
nič 1
▁Pop 1
▁teen 1
▁crucial 1
æld 1
▁rząd 1
▁spodbuj 1
▁obiettivi 1
▁nyújt 1
▁podle 1
▁zajistit 1
▁tutte 1
▁obszar 1
▁Seetõttu 1
▁comunica 1
▁Committee 1
öör 1
▁dw 1
řejm 1
cheid 1
szíroz 1
▁ebben 1
▁jälkeen 1
ager 1
ących 1
▁asisten 1
evo 1
дно 1
▁ante 1
vention 1
uror 1
▁riv 1
▁mają 1
▁visto 1
▁nevében 1
▁hospodářské 1
▁año 1
▁fri 1
▁Przewodniczący 1
▁lot 1
▁conjunto 1
oline 1
hind 1
delem 1
▁riigi 1
▁heidän 1
▁investi 1
▁secondo 1
▁подчерта 1
▁dien 1
▁resolutie 1
▁grave 1
▁legyen 1
▁Kommissionens 1
▁gef 1
▁Mind 1
▁vred 1
▁estes 1
▁continua 1
▁caus 1
rattutto 1
▁bună 1
▁tenh 1
▁exemplo 1
▁případě 1
udu 1
çar 1
ährend 1
циално 1
▁přesvěd 1
▁piirkond 1
klar 1
abym 1
isesta 1
▁radio 1
▁requis 1
▁primeiro 1
▁Act 1
▁različ 1
nien 1
otros 1
▁bili 1
▁Deputados 1
æsent 1
▁comum 1
ækk 1
▁gegev 1
uestas 1
▁podkre 1
▁grandes 1
▁възможно 1
▁Lat 1
▁точ 1
▁bisog 1
▁odnos 1
дей 1
▁eikä 1
▁denke 1
▁lí 1
▁jud 1
▁laten 1
▁bring 1
bles 1
hend 1
ilta 1
▁esse 1
▁ollut 1
inde 1
nika 1
▁kiv 1
▁koskeva 1
▁siir 1
▁henkil 1
▁primul 1
▁impacto 1
▁szavaztam 1
czenie 1
▁obecnie 1
usest 1
znego 1
▁specif 1
▁zprávu 1
ský 1
▁Fondo 1
ttes 1
▁Lage 1
setzung 1
▁imprese 1
ree 1
▁szó 1
▁único 1
▁lepingu 1
cir 1
ärt 1
▁nõu 1
▁csökkent 1
▁Zw 1
▁niso 1
▁együttműködés 1
íč 1
▁Ger 1
▁too 1
yksiä 1
▁repr 1
▁marco 1
▁sever 1
edo 1
atti 1
▁forhold 1
▁significa 1
fontos 1
▁noastră 1
▁îi 1
țion 1
▁mic 1
schaf 1
▁poważ 1
lád 1
▁борба 1
anakkor 1
▁fremme 1
ex 1
cyd 1
▁ог 1
erent 1
вести 1
▁omen 1
▁zan 1
itele 1
▁numa 1
▁acestor 1
▁tähtis 1
▁bezpečnost 1
▁enemmän 1
▁begrü 1
epen 1
▁cea 1
▁mut 1
▁varm 1
immung 1
▁Ihnen 1
▁mundial 1
▁fejleszt 1
▁Aş 1
appen 1
nisse 1
▁enfr 1
ules 1
ölgyeim 1
▁transparent 1
▁У 1
▁aș 1
▁komissi 1
▁vám 1
aliśmy 1
▁quale 1
▁seine 1
▁kmetij 1
kar 1
etet 1
▁Unidos 1
reza 1
▁eso 1
▁aust 1
▁place 1
▁ondernem 1
▁suun 1
iend 1
▁имат 1
▁úrovni 1
vad 1
▁vů 1
▁viele 1
▁skupiny 1
houden 1
ozy 1
ittaa 1
▁uraim 1
▁arvoisa 1
▁huidige 1
тим 1
rove 1
ettel 1
нгажи 1
▁Koll 1
▁status 1
▁famili 1
▁Beh 1
świad 1
▁kuts 1
▁ernst 1
▁Arbeits 1
UE 1
▁тре 1
žnost 1
▁vaan 1
▁assum 1
▁krise 1
▁miljø 1
▁separ 1
▁positive 1
▁Chciałbym 1
ettely 1
▁wspar 1
▁millega 1
produ 1
▁oplos 1
▁Schutz 1
▁change 1
▁why 1
▁kaub 1
▁writ 1
▁passo 1
▁político 1
▁yo 1
▁uwzględ 1
▁personal 1
öß 1
riff 1
ging 1
rupt 1
▁grupo 1
▁candid 1
▁której 1
▁näiteks 1
umist 1
▁szükséges 1
▁Bos 1
▁cambio 1
▁гражданите 1
ständ 1
▁expr 1
▁pouze 1
▁kehtest 1
▁preşedintă 1
▁puheenjohtaj 1
▁huv 1
▁støt 1
lertid 1
▁seguir 1
▁identific 1
▁regio 1
▁course 1
▁Би 1
isiera 1
▁arról 1
▁mietinnön 1
▁parlamentar 1
▁споразумение 1
▁22 1
prod 1
ying 1
▁Bet 1
aisia 1
▁zost 1
▁aprob 1
▁joiden 1
zab 1
zam 1
▁tulevaisu 1
íst 1
hest 1
zati 1
▁Gaza 1
▁conclu 1
▁egyértelmű 1
▁financiare 1
▁kier 1
▁Entscheid 1
▁kontek 1
▁necessidade 1
▁soprattutto 1
▁mensenrechten 1
atlan 1
▁eesk 1
jut 1
свен 1
▁edell 1
▁siamo 1
orts 1
▁selbst 1
▁proceso 1
▁käyttöön 1
czyw 1
▁cílem 1
▁Ali 1
▁Creo 1
▁evitar 1
imist 1
▁nalog 1
▁È 1
cház 1
itul 1
wach 1
▁kamp 1
▁aikana 1
inge 1
erings 1
▁skupin 1
▁Berichterstat 1
iast 1
▁уси 1
▁větší 1
▁declara 1
▁öelda 1
▁küz 1
▁ära 1
▁común 1
▁luogo 1
▁volta 1
▁puudut 1
▁Bal 1
▁Was 1
▁rozpor 1
▁vooral 1
▁rap 1
erile 1
uts 1
ikas 1
▁Tür 1
вната 1
▁goede 1
▁komisarz 1
▁positivo 1
kaz 1
▁vít 1
▁Brit 1
▁присъ 1
illende 1
▁side 1
▁sidste 1
▁odvětví 1
▁Pon 1
▁Roma 1
▁manifest 1
▁При 1
ingut 1
▁kriis 1
▁ангажи 1
▁pron 1
▁инстру 1
ijk 1
явам 1
▁herr 1
▁първо 1
▁risult 1
▁bescherming 1
въ 1
tak 1
rato 1
▁lado 1
▁long 1
▁wielu 1
▁sellega 1
▁poč 1
▁expl 1
▁tarvit 1
▁sprawozdanie 1
▁kræ 1
▁asilo 1
▁libertà 1
▁Cat 1
▁Pers 1
▁tarv 1
▁year 1
▁Lissaboni 1
пла 1
▁tilante 1
▁arm 1
ört 1
▁tage 1
ати 1
heits 1
řejmě 1
▁kulutt 1
▁Vý 1
azat 1
▁maggiore 1
▁vzta 1
▁partes 1
▁brengen 1
iché 1
▁Musimy 1
orra 1
▁queste 1
▁благодаря 1
iedy 1
▁někol 1
▁konstrukt 1
ieh 1
rest 1
▁niż 1
ităţile 1
genommen 1
▁emberek 1
arch 1
▁wyd 1
forma 1
▁navn 1
▁minder 1
▁strany 1
▁gracias 1
▁sw 1
ordn 1
▁anden 1
öd 1
try 1
▁му 1
udesta 1
▁allow 1
▁tarpe 1
▁bedrij 1
▁tuturor 1
▁dovrebbe 1
▁onderhand 1
▁relación 1
▁kultur 1
▁estabil 1
▁tagasi 1
▁aplicación 1
▁współpracy 1
▁particularly 1
tech 1
▁específic 1
▁Lissabonin 1
▁intézkedések 1
▁sí 1
oi 1
▁If 1
▁pă 1
▁ese 1
nil 1
asid 1
▁celor 1
▁famil 1
▁besl 1
▁trov 1
▁budeme 1
▁slov 1
ichten 1
▁cazul 1
igde 1
kach 1
bona 1
udessa 1
▁érint 1
▁Uważam 1
бон 1
stem 1
aneet 1
▁Nord 1
дел 1
▁acqu 1
▁Stabil 1
▁Entschließung 1
▁той 1
сабон 1
ovanju 1
▁taken 1
isuutta 1
▁versen 1
▁riguarda 1
vě 1
▁kilpa 1
▁järjest 1
omu 1
ządz 1
▁době 1
▁ima 1
▁Deze 1
гламен 1
▁richtlijn 1
нь 1
▁ales 1
▁tilb 1
▁every 1
▁výrob 1
▁hurt 1
▁Lisbon 1
▁hallit 1
▁täna 1
▁mogą 1
▁търгов 1
▁gospoda 1
chop 1
ekan 1
orse 1
▁saú 1
▁система 1
▁initiativ 1
▁Лисабон 1
▁mulighed 1
losti 1
▁zwei 1
ürlich 1
▁andet 1
▁Ländern 1
▁Kollegen 1
▁strategi 1
imina 1
менти 1
▁grupos 1
▁хората 1
▁цен 1
▁aspectos 1
part 1
▁disso 1
▁intens 1
▁инвести 1
▁Situation 1
rup 1
▁zwiększ 1
▁Lisabona 1
▁necesario 1
▁schriftlich 1
ěli 1
▁aici 1
▁hlav 1
▁produc 1
▁referitoare 1
ními 1
▁hyvät 1
▁criteri 1
▁fondi 1
▁partea 1
▁compromiss 1
kat 1
▁pozw 1
▁negozi 1
ismi 1
▁kraju 1
ként 1
▁läbirääkim 1
▁lup 1
▁proc 1
▁Sveta 1
лиза 1
▁засе 1
▁group 1
▁laaj 1
▁înce 1
ből 1
ające 1
aston 1
▁verm 1
▁resultados 1
▁przewodnicząca 1
▁europejskich 1
edom 1
ológ 1
▁mea 1
▁altre 1
▁серио 1
▁esittelij 1
zir 1
▁ért 1
▁îna 1
▁requi 1
gesteld 1
▁objetivos 1
▁Gew 1
conom 1
heres 1
▁osoit 1
▁szcze 1
▁ustvar 1
▁valtio 1
▁difícil 1
änä 1
isce 1
▁mimo 1
▁ongelm 1
▁Lisbona 1
▁няколко 1
▁mértékben 1
viz 1
▁kokk 1
▁aprov 1
▁problemer 1
urde 1
▁näk 1
▁Minu 1
▁út 1
uuri 1
roveň 1
▁overeenkomst 1
inä 1
▁чу 1
▁media 1
▁kezdem 1
▁blijven 1
▁diferentes 1
▁medic 1
▁voimme 1
▁período 1
▁institution 1
ocs 1
ebru 1
▁glæ 1
▁Koh 1
▁reuni 1
▁chesti 1
▁toimia 1
▁26 1
ovin 1
▁teraz 1
▁Ž 1
lema 1
▁local 1
▁szoci 1
▁nombre 1
▁numele 1
▁fogyaszt 1
jena 1
říklad 1
▁parand 1
▁pertanto 1
▁Group 1
▁mondo 1
▁tutkim 1
▁gem 1
▁blot 1
▁interv 1
▁energii 1
▁rahoitus 1
▁каза 1
▁środow 1
iä 1
▁hace 1
yttelse 1
▁fronte 1
▁jäsenet 1
▁maatalo 1
▁odst 1
▁ignor 1
▁Lisabon 1
▁így 1
▁mamy 1
▁diferen 1
contr 1
elkõige 1
▁Szerződés 1
▁instell 1
ywności 1
▁Vot 1
▁kohd 1
ilván 1
▁susţin 1
sl 1
avu 1
▁tuleks 1
▁luk 1
▁store 1
▁odnies 1
▁necessary 1
▁cho 1
▁око 1
▁otsust 1
▁poslanci 1
▁odpowiedzial 1
▁graag 1
▁mindig 1
▁Zuk 1
▁devemos 1
▁instrumentos 1
skich 1
bewer 1
▁Dobbiamo 1
▁lehetővé 1
▁ano 1
▁toč 1
▁wen 1
idest 1
▁Pokud 1
▁felsz 1
▁Vorrei 1
▁партнь 1
ività 1
▁associ 1
gew 1
pływ 1
žení 1
ranič 1
▁едно 1
▁kobiet 1
пример 1
▁últimos 1
▁without 1
kungen 1
▁Obama 1
ffor 1
▁Ви 1
▁obiettivo 1
▁dotyczących 1
omi 1
▁Og 1
▁Из 1
▁svoj 1
▁torn 1
aremos 1
insicht 1
▁pueden 1
ezettség 1
gem 1
ökoh 1
▁angaj 1
endab 1
▁varo 1
ffende 1
▁asio 1
▁trud 1
▁adegu 1
▁invol 1
▁richie 1
▁politick 1
dal 1
▁kli 1
▁paz 1
urale 1
▁tead 1
▁numai 1
▁tomar 1
▁exclus 1
▁consecu 1
▁næv 1
ledes 1
▁ohne 1
▁Herren 1
▁ofer 1
▁důsled 1
▁tratta 1
▁neuvott 1
▁нови 1
▁rezolucji 1
▁esind 1
▁Rusland 1
▁problemă 1
▁îl 1
ekul 1
▁läh 1
ollow 1
▁wirk 1
▁ambito 1
▁предприят 1
▁28 1
▁roce 1
▁következő 1
▁importancia 1
▁bess 1
▁esimerk 1
wirtschaft 1
▁rolle 1
ksen 1
▁Een 1
ovací 1
zaboni 1
▁Afgan 1
reichen 1
ciałabym 1
▁opinión 1
▁állam 1
▁számos 1
▁призова 1
árs 1
▁kaasa 1
стина 1
▁dati 1
▁прегово 1
▁füg 1
imise 1
▁profes 1
fass 1
▁Tämän 1
бил 1
ször 1
▁terug 1
сни 1
▁ţări 1
▁håber 1
▁lisää 1
▁jednání 1
▁Tribunal 1
▁kezdeményez 1
▁gleich 1
▁number 1
▁zprávy 1
▁algunos 1
▁concrete 1
▁agradecer 1
▁merito 1
▁potroš 1
▁državami 1
▁obravnav 1
ис 1
▁nab 1
▁Unite 1
▁forte 1
▁doprav 1
▁umożli 1
tava 1
▁megsz 1
▁sosiaal 1
išč 1
▁tett 1
▁samoz 1
▁Verbrauch 1
▁vam 1
▁yksi 1
▁ámbito 1
▁személy 1
▁Ään 1
▁cuest 1
▁täysin 1
▁приема 1
▁correct 1
▁nekater 1
▁conflict 1
pal 1
▁Ham 1
▁сте 1
armos 1
▁isto 1
▁talál 1
▁права 1
▁wzrost 1
obierno 1
▁comunic 1
▁ordfør 1
owaniu 1
gens 1
yslím 1
▁joht 1
▁istot 1
▁raffor 1
▁considero 1
▁Mrs 1
▁colle 1
lamento 1
▁prodotti 1
blick 1
▁geld 1
cić 1
▁erh 1
▁contr 1
▁střed 1
▁terv 1
▁trade 1
▁produtos 1
▁aim 1
▁făcut 1
▁miatt 1
▁zaken 1
▁вся 1
▁lead 1
▁risk 1
▁sund 1
ehn 1
satz 1
▁perf 1
▁reforma 1
▁Договора 1
▁administra 1
▁top 1
ustega 1
▁doseg 1
▁grupp 1
▁consumatori 1
▁Möglich 1
▁gør 1
etlen 1
▁ervoor 1
▁pracow 1
seid 1
▁její 1
▁Ze 1
▁Teil 1
▁muszą 1
▁niitä 1
▁vastut 1
eria 1
ajd 1
▁kih 1
▁seal 1
▁udrž 1
▁nagyobb 1
▁anum 1
▁Diese 1
zar 1
▁Mul 1
stænd 1
erecht 1
▁export 1
▁ettevõt 1
idlertid 1
▁proizvod 1
▁toimenpite 1
шата 1
tävät 1
▁podpi 1
▁realist 1
▁UN 1
▁coord 1
▁needs 1
▁bijzonder 1
arg 1
alue 1
▁vrouwen 1
rict 1
iedad 1
erst 1
siamo 1
antwort 1
liž 1
ygt 1
▁înde 1
▁Bedeut 1
finan 1
hæng 1
itás 1
lung 1
▁fisk 1
▁Rompu 1
▁benef 1
▁имаме 1
▁militar 1
šno 1
▁abban 1
▁процеду 1
zust 1
ziemy 1
▁Damen 1
▁ciò 1
▁Meinung 1
▁experien 1
▁mecanism 1
▁kommun 1
▁Zukunft 1
▁sisäl 1
▁napred 1
hof 1
edan 1
nici 1
▁наме 1
▁termen 1
▁productos 1
▁pů 1
hank 1
▁plán 1
▁spremem 1
udet 1
evším 1
▁sella 1
▁ponente 1
▁waa 1
▁direktiivi 1
жен 1
sible 1
▁demog 1
▁voivat 1
▁exemplu 1
▁élet 1
▁consent 1
▁Bedeutung 1
▁zob 1
álních 1
▁način 1
viamente 1
▁даде 1
amiseen 1
▁tarkast 1
sæt 1
unii 1
▁кли 1
▁krijgen 1
▁necessità 1
▁комисията 1
▁powiedzieć 1
zone 1
ücks 1
▁adv 1
▁bijd 1
▁uważam 1
▁derecho 1
курен 1
▁prilo 1
▁израз 1
▁katerih 1
scy 1
▁verw 1
mework 1
ței 1
тра 1
▁Haluan 1
▁dai 1
igten 1
▁algum 1
▁kolej 1
▁molti 1
▁Jahren 1
▁nosotros 1
▁Ва 1
▁upoštev 1
oge 1
▁Stato 1
▁postęp 1
▁betænkningen 1
▁Ja 1
▁fase 1
▁kuna 1
▁heren 1
▁Frauen 1
▁kíván 1
ivõ 1
▁delo 1
▁vsem 1
▁større 1
вани 1
▁Met 1
iores 1
▁sito 1
▁насо 1
▁diskut 1
aly 1
uerz 1
aler 1
▁ogrom 1
▁evropski 1
▁understre 1
▁eurooppalais 1
cc 1
atiiv 1
чаване 1
▁befolk 1
▁znaczenie 1
▁človekovih 1
▁pur 1
▁Europejski 1
▁ég 1
▁casos 1
▁rozhodnutí 1
▁ха 1
▁zvý 1
▁imod 1
▁start 1
▁ladies 1
нен 1
▁OS 1
ătate 1
▁zaved 1
▁action 1
skim 1
▁Ausschuss 1
▁Strategie 1
▁instrumento 1
▁menim 1
szabály 1
usid 1
leist 1
▁přís 1
▁nogen 1
▁amit 1
▁behal 1
▁Du 1
▁włas 1
▁neboť 1
▁zdrow 1
▁aumentar 1
▁tri 1
▁2002 1
▁recup 1
▁regolamento 1
omme 1
▁Tah 1
▁зае 1
▁incent 1
▁vuonna 1
IS 1
weit 1
ekkel 1
▁concent 1
▁tähelepanu 1
alde 1
sión 1
▁meiner 1
▁quiero 1
▁výsled 1
▁Sm 1
▁ör 1
kust 1
▁еле 1
vállal 1
▁areas 1
▁kehity 1
▁käsitle 1
▁fil 1
ziv 1
orta 1
▁voz 1
▁virksomheder 1
leen 1
▁Dan 1
isest 1
▁sare 1
▁propostas 1
▁viim 1
▁hangs 1
▁mondiale 1
▁ettepaneku 1
дми 1
ismer 1
▁colab 1
▁itse 1
▁uplat 1
łaszcza 1
fér 1
arian 1
▁privin 1
▁mediante 1
ilfe 1
▁dejav 1
▁flere 1
▁lider 1
▁vprašanja 1
umi 1
adru 1
ветства 1
▁encontr 1
▁przyczy 1
▁võimald 1
▁directive 1
▁Rap 1
▁нужда 1
лена 1
▁pain 1
▁compr 1
▁polož 1
▁myönte 1
▁stališč 1
▁støtter 1
▁zagotoviti 1
▁kred 1
▁great 1
▁afgørende 1
śmie 1
▁labor 1
ствата 1
▁voort 1
pok 1
raż 1
цата 1
▁øje 1
▁nuovo 1
▁Conven 1
▁pomocy 1
▁eksp 1
▁peruste 1
▁obywatel 1
áni 1
▁dank 1
▁licz 1
▁muchos 1
ployment 1
kop 1
oss 1
▁ihmis 1
ungsant 1
▁vajalik 1
▁szabályoz 1
ovati 1
▁sposob 1
prot 1
▁Zug 1
▁tekem 1
▁vigor 1
▁domínio 1
▁strategy 1
izmus 1
▁naprej 1
▁profit 1
▁træ 1
▁posł 1
▁încât 1
▁conten 1
▁importanza 1
гот 1
ilea 1
▁keske 1
▁approv 1
▁ustrez 1
▁poprzez 1
▁sää 1
▁ugyan 1
▁increas 1
▁транспо 1
őgazdaság 1
▁deputados 1
jas 1
ítése 1
▁exer 1
▁nied 1
▁mulheres 1
▁medlemmer 1
▁relativamente 1
kuul 1
remmo 1
▁objectivos 1
teva 1
▁grado 1
▁tehnolog 1
ysten 1
ziale 1
▁lecz 1
▁skladu 1
▁vragen 1
üntet 1
ool 1
erős 1
▁sale 1
▁mõist 1
▁zadow 1
ekre 1
▁größ 1
zym 1
▁осъ 1
öiden 1
▁вътре 1
▁gewähr 1
▁documento 1
▁central 1
▁sev 1
▁desaf 1
▁Spo 1
▁pontos 1
▁31 1
▁atten 1
▁texto 1
▁muitos 1
▁faţă 1
▁proiect 1
▁neh 1
▁dohody 1
istu 1
▁jogi 1
▁директи 1
▁gj 1
▁Beit 1
▁zwłaszcza 1
wid 1
jučno 1
▁obstante 1
▁lovgivning 1
чени 1
▁ponto 1
ivon 1
▁noud 1
▁Evropský 1
ames 1
▁artikel 1
▁sottoline 1
▁Ol 1
▁Consider 1
▁elk 1
▁nové 1
▁гово 1
▁fores 1
▁reduc 1
ikkaa 1
▁diál 1
▁zaji 1
▁Rolle 1
▁piśmie 1
▁vulner 1
▁respekt 1
▁considera 1
чат 1
▁Dal 1
▁Ако 1
▁zatem 1
▁core 1
▁actualmente 1
▁gut 1
teres 1
▁vital 1
▁consument 1
nev 1
▁Fall 1
▁coin 1
jedno 1
▁госпожи 1
▁aplicação 1
ланд 1
▁reden 1
▁women 1
▁condições 1
▁konkurren 1
▁programas 1
▁adev 1
quanto 1
▁sejam 1
▁președinte 1
▁godt 1
▁bevord 1
▁navnlig 1
ţine 1
▁fondamentale 1
▁kansalaisten 1
▁Ori 1
▁Głos 1
▁takke 1
▁разбира 1
▁пу 1
▁társadalmi 1
▁verl 1
▁дали 1
▁problems 1
weg 1
▁су 1
ságú 1
▁Kro 1
ettbewer 1
maa 1
▁vind 1
ública 1
▁nacionales 1
▁198 1
▁práci 1
▁lidských 1
▁både 1
▁salv 1
warant 1
▁Russia 1
▁środki 1
▁informatie 1
▁Ние 1
▁zodat 1
▁dolgoz 1
blu 1
▁inic 1
sednict 1
FT 1
чак 1
▁dow 1
▁îşi 1
▁bekæ 1
▁valmist 1
▁acţi 1
▁zprávě 1
▁importância 1
яване 1
▁29 1
welt 1
▁Lös 1
▁reviz 1
▁espero 1
▁зе 1
pflicht 1
▁record 1
▁dámy 1
spunkt 1
нициати 1
▁Се 1
▁mob 1
▁tör 1
▁vaka 1
gono 1
▁lenne 1
▁ait 1
▁lige 1
▁mont 1
▁ihren 1
▁område 1
▁szemben 1
bie 1
▁Evropy 1
▁politischen 1
▁llev 1
elde 1
▁asem 1
ásával 1
▁begroting 1
▁emme 1
▁agree 1
▁doamnelor 1
▁nacionais 1
▁powinniśmy 1
▁Prz 1
atlant 1
▁ogranic 1
nion 1
▁evropských 1
▁finanszíroz 1
▁creş 1
▁sprej 1
ança 1
▁kre 1
▁gezegd 1
▁periodo 1
ină 1
▁твър 1
▁práct 1
▁sistemas 1
▁vá 1
▁ulter 1
▁writing 1
▁ratific 1
kami 1
ondheid 1
ästi 1
owany 1
OL 1
tale 1
ytte 1
▁nuj 1
▁hasta 1
▁ingen 1
▁vastuv 1
▁evropske 1
▁Ur 1
▁mõju 1
▁skutečně 1
▁ach 1
▁rik 1
fonds 1
punkt 1
▁narod 1
▁verden 1
ettbewerb 1
▁individual 1
zett 1
▁ism 1
▁omej 1
▁chied 1
▁tapaht 1
▁presupuesto 1
▁liikmesriigid 1
▁valamen 1
riv 1
ujem 1
▁Hlas 1
▁bepa 1
ização 1
▁verster 1
paa 1
▁zug 1
▁vict 1
ocsát 1
▁комисия 1
▁verschillende 1
mai 1
nál 1
▁skabe 1
▁Komiss 1
▁kommer 1
▁negocja 1
▁zusammen 1
▁ries 1
▁védelm 1
▁вън 1
▁jste 1
▁antaa 1
▁primo 1
▁vaikut 1
▁предложението 1
▁sólo 1
▁tény 1
▁besond 1
▁vahvist 1
▁продължа 1
▁internacion 1
nj 1
мест 1
▁Mac 1
▁wid 1
▁origin 1
▁necesidad 1
eller 1
razn 1
▁Hung 1
▁keer 1
▁technic 1
▁Regierung 1
uşi 1
ands 1
▁pea 1
▁jeśli 1
etr 1
esar 1
▁podporo 1
▁jelentős 1
ilag 1
ější 1
▁desemp 1
▁postav 1
щото 1
laste 1
▁acco 1
▁wollen 1
▁darüber 1
stu 1
▁uur 1
▁допъл 1
▁przyszłości 1
dv 1
гите 1
▁kord 1
▁imidlertid 1
▁От 1
▁erm 1
▁убе 1
▁tasand 1
▁zakonod 1
▁zapewnić 1
▁evident 1
geleg 1
quier 1
▁besed 1
▁quais 1
▁risorse 1
▁promover 1
▁drugi 1
hatóság 1
▁nařízení 1
abei 1
▁Ung 1
▁zda 1
▁haya 1
▁nada 1
▁огра 1
▁пози 1
▁Rusia 1
▁besta 1
▁ezzel 1
▁nossas 1
▁proposte 1
▁dvs 1
▁практи 1
▁megerős 1
▁upravlj 1
air 1
ffer 1
ovou 1
ample 1
▁Härra 1
▁инициати 1
rzym 1
ajate 1
▁Italia 1
nąć 1
acter 1
istel 1
▁example 1
▁elnökség 1
▁serviços 1
▁Ра 1
▁Dnă 1
▁enige 1
ruzione 1
lys 1
âmb 1
▁ros 1
▁udtry 1
▁volna 1
▁wobec 1
▁herrer 1
▁parece 1
▁elkö 1
▁hled 1
▁Richtlinie 1
által 1
itan 1
meer 1
▁geht 1
истина 1
▁Gemein 1
▁Mid 1
▁rež 1
▁sess 1
izio 1
▁dług 1
CE 1
äß 1
▁wetgeving 1
мно 1
▁NG 1
yden 1
▁figyelm 1
▁směrnice 1
▁Parlamentets 1
ages 1
▁damer 1
fy 1
▁exig 1
▁wspom 1
▁congratul 1
acije 1
▁dado 1
elserne 1
▁transm 1
▁energía 1
▁público 1
▁zmian 1
▁promov 1
▁Belarus 1
üli 1
▁legislação 1
▁szczególnie 1
živ 1
▁lleg 1
ряване 1
▁szociális 1
niz 1
▁Ku 1
▁kjer 1
▁betyd 1
▁oploss 1
▁inimõiguste 1
będ 1
irma 1
▁servizi 1
▁wszystkie 1
jeni 1
▁liz 1
alise 1
▁najb 1
становя 1
▁hvordan 1
arbe 1
imine 1
▁legisl 1
▁condiciones 1
▁fraktsiooni 1
ape 1
▁dziedzinie 1
▁rej 1
▁nazionali 1
prac 1
árul 1
uč 1
orten 1
▁jedy 1
▁Guant 1
лението 1
▁kokkule 1
▁tunnust 1
▁eelkõige 1
▁nic 1
▁scha 1
kaa 1
-2 1
hmän 1
sache 1
▁изпра 1
▁desem 1
határoz 1
▁repræsent 1
atal 1
▁поста 1
▁encont 1
▁Затова 1
lí 1
amisele 1
▁Serbia 1
▁контро 1
▁imieniu 1
kee 1
mme 1
▁vannak 1
tschafts 1
▁bun 1
▁cíl 1
eraus 1
▁vorm 1
▁конкурен 1
▁kolleegid 1
immen 1
iędzy 1
▁naturligvis 1
▁см 1
▁nin 1
▁spun 1
▁recente 1
▁свързани 1
▁including 1
▁ele 1
▁adres 1
▁geval 1
▁expect 1
▁Members 1
▁dichiar 1
▁leto 1
▁natuur 1
ói 1
mod 1
▁vac 1
ention 1
▁donne 1
▁podem 1
▁diálogo 1
iliik 1
ówno 1
gat 1
ărat 1
▁grow 1
▁saf 1
▁Ühend 1
▁Lizbon 1
muka 1
▁Cas 1
▁follow 1
▁návrhu 1
▁tijdens 1
▁Kö 1
▁мен 1
umine 1
loh 1
▁ader 1
▁valg 1
vizsgál 1
▁minister 1
▁servicios 1
ąza 1
▁înch 1
▁zapos 1
kiem 1
▁труд 1
▁grupy 1
▁delega 1
▁condizioni 1
зира 1
▁kezel 1
▁poročeval 1
▁Egyes 1
▁meses 1
preč 1
▁lõp 1
üglich 1
▁ahogy 1
▁ampak 1
▁interpre 1
▁Парламентът 1
aba 1
bal 1
dic 1
▁vre 1
▁health 1
▁klimaat 1
▁welcome 1
▁sodelovanje 1
▁Pred 1
anneer 1
ujących 1
▁tärkeä 1
▁orçamento 1
▁prostředí 1
énk 1
▁řek 1
produk 1
▁strin 1
egenwoord 1
ziare 1
▁Hinblick 1
▁например 1
▁chciałbym 1
▁бо 1
▁ton 1
▁тук 1
▁puut 1
▁podję 1
▁dentro 1
▁sozial 1
▁ép 1
гнем 1
нова 1
tidig 1
▁propuestas 1
лят 1
▁przyjm 1
▁situace 1
▁kodanike 1
рно 1
▁vaad 1
▁arvio 1
▁předsednict 1
iak 1
ipp 1
orii 1
▁skut 1
▁quello 1
▁aanzien 1
jub 1
▁led 1
▁име 1
▁политиката 1
▁baz 1
▁zdaniem 1
▁lainsäädäntö 1
▁Nab 1
uksiin 1
onta 1
▁Wat 1
stellung 1
▁Komisjon 1
ан 1
▁vyz 1
▁azért 1
▁želim 1
yczne 1
▁Island 1
▁climate 1
▁Ф 1
mad 1
▁външ 1
▁virkel 1
▁erw 1
▁2020- 1
▁armon 1
anas 1
ulgas 1
rokken 1
▁Evrope 1
▁година 1
char 1
▁успе 1
пълно 1
▁brau 1
▁věci 1
▁среда 1
▁mercados 1
▁proteger 1
▁queremos 1
iky 1
▁2001 1
scheid 1
▁avut 1
▁nr 1
▁sní 1
▁amelynek 1
▁například 1
▁především 1
▁cabo 1
▁pomag 1
uru 1
ędu 1
▁było 1
▁milit 1
▁pomoci 1
▁cert 1
atului 1
▁olemas 1
лени 1
▁zdecyd 1
▁prednost 1
leges 1
▁gebe 1
▁määrä 1
▁jeżeli 1
▁nostru 1
mel 1
▁hon 1
▁dlou 1
▁Rompuy 1
▁mujeres 1
▁Bud 1
▁дори 1
▁ludzi 1
▁действия 1
▁governance 1
dzie 1
▁alvor 1
▁navrh 1
▁trenut 1
▁zahtev 1
tem 1
▁show 1
▁постигна 1
ums 1
▁asiassa 1
▁inicjat 1
▁traj 1
istenza 1
▁място 1
▁keskustelu 1
▁použ 1
▁saaks 1
endes 1
▁tils 1
likult 1
penden 1
▁autorità 1
▁pati 1
▁podejm 1
▁cuestiones 1
▁lidí 1
▁висо 1
▁saúde 1
▁Su 1
antie 1
▁takich 1
træ 1
▁kav 1
aggio 1
▁emend 1
▁kryzys 1
жение 1
▁Grie 1
▁dring 1
▁reglement 1
▁resolutsiooni 1
zus 1
▁dic 1
▁byli 1
▁naši 1
▁warto 1
▁enkele 1
▁borgere 1
cono 1
emble 1
▁aquí 1
▁razisk 1
▁denn 1
▁står 1
mittel 1
olv 1
ivan 1
▁pobla 1
▁notwend 1
▁solidarity 1
ask 1
øde 1
▁SE 1
▁ühe 1
▁Kolleg 1
zum 1
ysval 1
▁better 1
▁tred 1
▁sotsia 1
▁Verhandl 1
▁информация 1
ścia 1
▁contribuir 1
yság 1
▁outras 1
▁persoan 1
▁kiel 1
▁spój 1
▁dicho 1
▁multilater 1
▁kaz 1
▁meno 1
▁punt 1
stellingen 1
▁continuare 1
ietà 1
uth 1
▁Malm 1
▁pont 1
▁înainte 1
▁aud 1
▁vás 1
ităţi 1
▁inwest 1
▁tę 1
ansko 1
länder 1
ânt 1
▁Та 1
▁schop 1
▁Musíme 1
▁verific 1
▁рамките 1
▁legislative 1
sin 1
▁krist 1
▁irland 1
▁tahaksin 1
▁espa 1
ationer 1
▁subsidiar 1
óc 1
bit 1
▁Et 1
▁ké 1
steun 1
▁célja 1
▁vyjád 1
▁assegurar 1
▁бед 1
▁jmén 1
használ 1
▁nadzor 1
варя 1
oknak 1
▁criação 1
▁finants 1
▁Ny 1
▁mé 1
▁Dacă 1
▁infrastruct 1
šlo 1
▁AK 1
▁îng 1
▁fatt 1
▁terms 1
owel 1
▁freedom 1
▁foc 1
▁Komisi 1
▁private 1
öh 1
stå 1
▁exec 1
▁Rates 1
▁fortsat 1
▁By 1
oved 1
▁kdo 1
▁toot 1
▁period 1
acje 1
▁Nag 1
lausel 1
▁protok 1
▁resulta 1
▁Umsetzung 1
ird 1
▁WTO 1
▁Penso 1
▁европейски 1
▁Dev 1
▁finde 1
▁člensk 1
▁attività 1
▁mezőgazdaság 1
ymi 1
▁možné 1
▁podej 1
▁ajutor 1
▁protezione 1
imet 1
▁señ 1
▁lisä 1
▁wład 1
▁práce 1
▁podneb 1
▁конкре 1
▁conseguir 1
jąć 1
▁affer 1
biz 1
zek 1
▁giver 1
▁povert 1
▁közösség 1
▁соб 1
▁væk 1
висимо 1
▁selke 1
▁siinä 1
▁növeked 1
▁attra 1
▁juurde 1
▁предиз 1
▁onderzoek 1
▁stratégia 1
pää 1
cies 1
▁guar 1
▁tänään 1
▁senhora 1
▁atención 1
вим 1
fico 1
veni 1
værende 1
▁Espero 1
▁bedeut 1
▁Presidência 1
▁deix 1
▁incor 1
▁stwor 1
noc 1
Fractie 1
▁pristop 1
▁relativo 1
▁внимание 1
лото 1
unków 1
▁življen 1
čně 1
▁То 1
vapa 1
▁tru 1
ottaa 1
ené 1
▁kér 1
▁Daar 1
▁kein 1
ycznej 1
▁chtěl 1
api 1
▁lij 1
▁tog 1
▁prezyden 1
▁voorzitterschap 1
jate 1
štění 1
▁rules 1
▁pobreza 1
▁Lisszaboni 1
ontrakt 1
▁IM 1
ležitosti 1
ał 1
▁uman 1
▁achter 1
▁afl 1
amata 1
▁tent 1
▁Иска 1
ungere 1
▁ringra 1
enomen 1
▁Presidencia 1
besz 1
▁Jsem 1
▁suunn 1
рността 1
▁egészség 1
anken 1
▁then 1
ittava 1
▁position 1
nten 1
▁ACTA 1
▁legăt 1
▁zpráva 1
▁innovat 1
▁legislación 1
▁odniesieniu 1
▁Dah 1
▁integr 1
▁institutsioon 1
bur 1
intar 1
▁rets 1
aksi 1
ätte 1
▁Belg 1
amentul 1
▁todella 1
вре 1
ostaa 1
▁bill 1
▁kats 1
▁werd 1
▁række 1
▁attuale 1
sigt 1
▁hånd 1
▁powinna 1
▁ervan 1
▁behalf 1
▁Bulgaria 1
▁totalmente 1
▁wzm 1
▁Glas 1
▁promu 1
▁więcej 1
▁поради 1
▁Аз 1
ranicz 1
▁posti 1
▁určit 1
▁danken 1
▁pár 1
▁Gesch 1
▁områder 1
▁možnosti 1
▁duur 1
▁nawet 1
▁fondos 1
aisen 1
oksen 1
▁Disk 1
lossen 1
▁Produk 1
▁protest 1
▁będziemy 1
▁Lõ 1
njih 1
ámara 1
▁vélem 1
▁edistä 1
▁esf 1
ților 1
▁enig 1
▁græn 1
▁digit 1
▁belast 1
▁szerep 1
▁tevéken 1
▁India 1
enkin 1
▁plač 1
▁услу 1
▁tukea 1
▁concur 1
▁oltava 1
▁economía 1
älle 1
▁päiv 1
ydessä 1
▁Daher 1
▁given 1
▁tõhus 1
▁eesmärg 1
▁właśnie 1
▁institutions 1
▁Lissabontrakt 1
aiset 1
▁again 1
▁ukrepe 1
▁serious 1
▁possibilità 1
▁profess 1
▁Kot 1
▁delav 1
▁dialo 1
▁właści 1
jach 1
ového 1
äft 1
eget 1
iri 1
esed 1
▁penso 1
▁haj 1
aselt 1
▁leven 1
▁Evropskou 1
▁mulţumesc 1
▁europejskiej 1
ME 1
▁povz 1
▁přist 1
▁tilfæl 1
▁Partner 1
▁existen 1
▁Nabuc 1
imientos 1
▁humanita 1
▁leid 1
▁means 1
▁asigur 1
▁polityk 1
▁politicii 1
tekij 1
▁raha 1
▁einmal 1
▁stesso 1
äst 1
wards 1
▁zvlá 1
▁flexibil 1
▁kasutada 1
ež 1
maat 1
▁Maced 1
▁możli 1
▁siksi 1
▁občanů 1
▁adoptar 1
▁tehtävä 1
▁hölgyeim 1
▁affrontare 1
▁gospodarczy 1
▁tekintetében 1
▁hoog 1
▁iniţi 1
▁обсъжда 1
▁procedur 1
▁rozporząd 1
▁één 1
▁morgen 1
▁Europei 1
▁strengt 1
▁majandusk 1
owo 1
▁Dec 1
okkal 1
▁Zdru 1
▁enmi 1
▁centrale 1
ňuje 1
ropri 1
▁adecu 1
▁kehitys 1
▁europeni 1
▁gevolgen 1
even 1
▁sine 1
▁compar 1
▁evropskih 1
▁mn 1
pass 1
фици 1
▁prispev 1
▁während 1
lud 1
▁vier 1
indust 1
▁resour 1
▁voorstellen 1
sf 1
lsen 1
æssige 1
▁estado 1
▁nasprot 1
▁poročilu 1
▁supervis 1
▁encontrar 1
орите 1
kuuluv 1
▁dello 1
▁economy 1
▁valores 1
▁framework 1
▁Bru 1
▁giust 1
schriften 1
▁jogszabály 1
iaatte 1
▁X 1
▁moral 1
▁reken 1
ross 1
▁sled 1
▁after 1
łec 1
aben 1
zkum 1
łecze 1
landen 1
▁Turqu 1
▁tehokka 1
▁mär 1
▁aftale 1
▁hodnot 1
▁mandato 1
▁società 1
▁nuestras 1
▁valamennyi 1
óri 1
▁безо 1
▁ühend 1
▁tweede 1
élem 1
▁agg 1
▁otras 1
kenland 1
▁oblast 1
kään 1
likud 1
▁Siksi 1
▁Cámara 1
▁Dienst 1
▁továbbra 1
řád 1
сия 1
ført 1
▁dle 1
▁sow 1
kitűz 1
▁cier 1
▁tingim 1
atamente 1
▁diverse 1
▁ellenőrz 1
▁Best 1
▁dirig 1
▁popar 1
▁trh 1
▁rajo 1
▁Tatsache 1
▁claramente 1
▁разискване 1
▁På 1
▁mac 1
▁terén 1
▁kaikkien 1
Parlamentet 1
ység 1
łych 1
amisega 1
▁evidente 1
▁продукти 1
▁offentlige 1
▁Meg 1
▁går 1
▁Fort 1
▁prům 1
▁nasledn 1
▁собстве 1
▁attenzione 1
▁предложение 1
▁kde 1
▁rozw 1
▁Malmström 1
#9 1
▁&#9 1
ebens 1
▁жела 1
▁wynik 1
▁nemlig 1
▁preoccup 1
▁velk 1
▁ukrep 1
▁weten 1
▁lokal 1
▁нау 1
▁prič 1
▁tarjo 1
▁dlatego 1
▁ensimmä 1
▁apel 1
▁falta 1
▁включ 1
▁podzięk 1
häng 1
▁sna 1
előtt 1
enství 1
▁posição 1
▁климата 1
ező 1
▁предизви 1
ikke 1
▁Бих 1
▁Bank 1
▁kestä 1
▁observ 1
▁namelijk 1
▁máme 1
▁geben 1
andacht 1
▁eelarve 1
▁rendelet 1
▁kész 1
▁impos 1
▁estratég 1
▁spolupráci 1
▁formandskab 1
▁¿ 1
oda 1
sség 1
ństwo 1
▁tjen 1
▁koszt 1
▁извър 1
▁ochron 1
▁podlag 1
▁europee 1
ål 1
▁pyt 1
▁geno 1
mær 1
▁uniji 1
▁względ 1
▁aandacht 1
▁mówi 1
▁perg 1
▁nowych 1
ningerne 1
jad 1
rän 1
▁ahol 1
▁hatá 1
▁hovo 1
zyw 1
likku 1
▁selleks 1
▁GA 1
neal 1
stag 1
▁Yhdysval 1
▁Angelegen 1
▁Zap 1
▁гла 1
▁Georg 1
▁insist 1
▁ponovno 1
▁skutecz 1
ákat 1
▁célkitűz 1
▁mijnheer 1
▁EP 1
▁verf 1
▁mogen 1
▁kilpail 1
▁letzten 1
▁qué 1
ércio 1
ității 1
rostát 1
▁dalle 1
▁härra 1
▁точка 1
komsten 1
▁nyilván 1
dvöz 1
tenä 1
wię 1
▁spus 1
edingungen 1
ác 1
ática 1
▁obrig 1
▁ţările 1
bel 1
▁gaz 1
▁neby 1
▁okviru 1
▁indsats 1
geme 1
nością 1
▁modern 1
▁propon 1
▁regulation 1
▁dezvoltarea 1
beg 1
▁sekt 1
▁základě 1
anunk 1
emise 1
▁tudo 1
▁Ukraj 1
▁toimiel 1
ettepanek 1
▁prizadev 1
oin 1
▁Ру 1
isele 1
▁Mart 1
▁Plan 1
▁zadev 1
▁éghaj 1
▁compani 1
ytet 1
▁siker 1
▁beszél 1
▁potrav 1
▁henblik 1
▁či 1
▁samaa 1
▁fiind 1
▁subst 1
▁zowel 1
▁Staaten 1
▁представ 1
▁opnå 1
steemi 1
▁podczas 1
▁społecze 1
▁souvislosti 1
▁отговорност 1
bě 1
present 1
▁costitu 1
▁financiera 1
kir 1
atter 1
▁saber 1
▁jménem 1
▁našich 1
▁Deres 1
▁места 1
▁preprič 1
▁responsabilità 1
ranno 1
▁nødt 1
▁hoffe 1
▁Считам 1
ücksicht 1
▁Euroopas 1
uš 1
lás 1
itett 1
▁sprawozdaniu 1
▁изключително 1
nin 1
mere 1
▁Wie 1
▁confr 1
▁negli 1
▁possiamo 1
pat 1
▁обе 1
лкото 1
▁weer 1
▁deten 1
▁indem 1
▁sprav 1
rah 1
▁pozy 1
elmente 1
fach 1
способ 1
▁komme 1
ciji 1
still 1
▁uskla 1
cela 1
▁tälla 1
▁ustanov 1
▁guarante 1
▁stabiliz 1
njo 1
jeno 1
sitz 1
hledem 1
▁dovol 1
führung 1
urid 1
▁staan 1
▁negociações 1
anze 1
▁wzgl 1
▁času 1
▁krizi 1
▁rit 1
▁hulp 1
▁nope 1
▁zeker 1
▁90 1
ředn 1
▁rezultat 1
▁prosenttia 1
▁70 1
▁forr 1
▁financiar 1
ivil 1
▁Man 1
ölker 1
▁факта 1
▁Probleme 1
▁verschieden 1
unku 1
▁fur 1
▁foresl 1
▁volunt 1
vány 1
yfik 1
▁cuv 1
iksin 1
szego 1
▁стру 1
ictvím 1
▁maxim 1
▁actividades 1
▁hatóság 1
▁Egyesült 1
▁Evropsko 1
▁wirklich 1
▁основните 1
▁estoy 1
▁således 1
нк 1
▁eviden 1
▁gratul 1
▁posizione 1
низ 1
▁adgang 1
▁предоставя 1
lle 1
▁táv 1
▁цели 1
▁Questo 1
▁questioni 1
isv 1
adto 1
emben 1
▁ocen 1
▁celeb 1
▁kifej 1
▁apoiar 1
▁mencion 1
▁îm 1
▁next 1
▁illetve 1
▁регламен 1
ozione 1
bu 1
nja 1
otan 1
ately 1
renzen 1
▁Alban 1
▁gesagt 1
▁järele 1
▁panowie 1
▁predlag 1
▁relação 1
▁civile 1
▁ses 1
▁kokku 1
▁vnitrostát 1
▁2014 1
▁traged 1
▁desf 1
▁posła 1
▁kaikkia 1
▁wäre 1
▁risch 1
▁tenni 1
▁participa 1
rož 1
færd 1
▁poco 1
adering 1
▁generale 1
etek 1
▁drog 1
etakse 1
owałem 1
▁dostęp 1
olul 1
▁omez 1
▁orgán 1
▁отнася 1
▁zarządz 1
▁talouden 1
▁Presidency 1
▁idee 1
▁znov 1
▁avere 1
rebbero 1
▁soltanto 1
ses 1
punt 1
несе 1
▁tuom 1
▁milles 1
▁vigtige 1
▁vooruit 1
▁continuar 1
▁producent 1
jí 1
чески 1
▁further 1
▁propria 1
▁Naj 1
▁whether 1
uge 1
roppo 1
▁podziękować 1
▁GUE 1
▁tyyt 1
▁crize 1
▁името 1
▁business 1
řednictvím 1
▁Í 1
▁Ah 1
lish 1
▁Region 1
▁nostre 1
▁wissen 1
▁továbbá 1
▁yhteisk 1
▁transfer 1
▁imm 1
▁tõs 1
▁vic 1
abilă 1
▁exact 1
▁prepreč 1
▁zdůrazn 1
▁свобода 1
.00 1
pli 1
▁Let 1
▁wpływ 1
▁využív 1
▁względu 1
▁hlasování 1
ræ 1
▁Mor 1
▁preb 1
▁migra 1
▁společnosti 1
▁moc 1
▁ange 1
▁кажа 1
▁osiągnię 1
▁mechanism 1
űn 1
▁Int 1
▁dois 1
▁splo 1
▁einde 1
▁excep 1
▁yhden 1
▁závaz 1
isering 1
dí 1
▁pic 1
▁jakie 1
▁munka 1
▁národ 1
▁valiok 1
▁competit 1
▁проблеми 1
▁Kun 1
▁aru 1
▁Ukraine 1
▁segítség 1
ový 1
▁näch 1
▁odprav 1
▁zne 1
▁erkl 1
▁wiel 1
▁ajuda 1
▁approach 1
▁instituciones 1
▁ner 1
ители 1
▁marg 1
itäten 1
ronter 1
ozor 1
▁Cro 1
▁mnoho 1
▁ændrings 1
nieuw 1
▁dados 1
▁spremembe 1
пад 1
▁fem 1
atief 1
▁ander 1
▁zaměř 1
▁проблем 1
▁conseguinte 1
▁předsednictví 1
vő 1
ohn 1
▁Sw 1
nier 1
roje 1
▁ucz 1
▁hinn 1
▁breve 1
wierd 1
▁nasze 1
▁povin 1
▁souhlas 1
▁valdkonnas 1
ettet 1
▁imamo 1
▁cercet 1
etten 1
▁azione 1
▁ricerca 1
▁решения 1
▁szabadság 1
▁samozřejmě 1
▁включително 1
▁zie 1
▁seit 1
pare 1
ček 1
▁cheg 1
▁egyen 1
▁răspuns 1
▁esforços 1
chet 1
▁takie 1
▁bedanken 1
▁meghatároz 1
ttu 1
▁poziv 1
▁работ 1
▁different 1
йки 1
▁mlad 1
▁świad 1
▁napraw 1
▁Assemble 1
▁Verbraucher 1
▁призна 1
▁riconos 1
ânia 1
ekben 1
▁begr 1
▁lenn 1
▁agricultura 1
▁oportunidad 1
nímu 1
ptăm 1
▁plus 1
▁Rechte 1
fesz 1
▁child 1
▁Wirtschafts 1
lid 1
жим 1
▁sym 1
▁derde 1
▁acesso 1
ús 1
▁BG 1
▁Japan 1
▁poděk 1
▁felszól 1
▁República 1
falls 1
useid 1
▁aftal 1
▁fremtid 1
▁possono 1
▁kleine 1
▁meillä 1
vil 1
▁riipp 1
▁drugih 1
▁gebracht 1
oros 1
▁võrd 1
▁jövőben 1
ęki 1
▁Ergeb 1
▁Stand 1
▁longo 1
▁usług 1
▁Nabucco 1
anta 1
ätze 1
▁vyv 1
▁micro 1
pia 1
kozások 1
▁glæder 1
▁besonders 1
▁ș 1
smar 1
▁aller 1
▁incre 1
▁наистина 1
▁Gaz 1
tojen 1
äällä 1
▁svojo 1
▁atenção 1
sou 1
вед 1
▁ep 1
▁viv 1
ieten 1
▁direc 1
▁vlogo 1
▁avulla 1
▁możliwości 1
▁vertegenwoord 1
▁ahhoz 1
▁forpl 1
▁factor 1
▁politiko 1
endő 1
leked 1
▁bekym 1
▁nehéz 1
▁toler 1
ordening 1
▁definit 1
mmär 1
рика 1
▁kiittää 1
▁bizonyos 1
▁raportor 1
▁informação 1
rów 1
▁cod 1
amalla 1
▁väline 1
▁verband 1
åd 1
▁abi 1
▁záj 1
▁allo 1
▁votar 1
▁potencial 1
zon 1
verso 1
▁capit 1
itution 1
▁Komisję 1
▁lisäksi 1
▁политически 1
ítő 1
▁NGL 1
▁Ter 1
ezett 1
▁beper 1
▁návrhy 1
▁korr 1
▁peric 1
▁before 1
▁hozzáj 1
zustellen 1
▁Parlamenta 1
▁istituzioni 1
▁End 1
▁doty 1
▁criză 1
sd 1
▁ús 1
▁kriisi 1
▁następ 1
▁további 1
hæ 1
lic 1
▁account 1
▁verbess 1
▁głów 1
▁jooks 1
▁zarówno 1
▁Afg 1
▁Egi 1
▁aşa 1
▁ega 1
▁aver 1
▁adapt 1
czą 1
▁tänada 1
▁figyelem 1
omány 1
стойчи 1
▁koskevat 1
anh 1
▁dram 1
▁arbeid 1
▁emprego 1
▁75 1
yvät 1
▁dopo 1
▁Съвет 1
▁Samuti 1
7-0 1
дите 1
▁Vég 1
unter 1
▁look 1
▁indføre 1
▁приорите 1
▁legislation 1
▁suk 1
▁resul 1
▁System 1
▁acestora 1
▁szczeblu 1
▁comunitario 1
ños 1
▁incluso 1
▁compromiso 1
▁Mill 1
▁tugevd 1
▁výzkum 1
struktur 1
▁reconhe 1
ätz 1
anças 1
▁siden 1
▁verder 1
▁станда 1
▁енергий 1
▁deut 1
▁occas 1
▁zavez 1
▁Not 1
▁feme 1
▁koul 1
▁Gesund 1
▁авто 1
ustain 1
▁alalla 1
icie 1
▁cetăț 1
▁lange 1
▁timpul 1
▁pública 1
▁sredstev 1
▁управление 1
▁instellingen 1
▁fá 1
▁răm 1
anjih 1
▁termék 1
měň 1
▁Go 1
▁urban 1
▁wykon 1
▁Olemme 1
▁qualidade 1
ødev 1
▁nämä 1
▁felelősség 1
▁responsibil 1
▁negociaciones 1
▁zaměstnan 1
зни 1
iterr 1
▁Miel 1
▁Monet 1
▁forord 1
▁agrícola 1
реки 1
▁vej 1
▁Въп 1
▁Въпреки 1
▁amelyeket 1
▁Menschenrechte 1
▁elt 1
delmi 1
▁notran 1
zhe 1
fice 1
▁osal 1
▁somet 1
▁membro 1
▁milyen 1
▁сектор 1
▁publice 1
▁pus 1
▁ultim 1
▁näiden 1
▁importantă 1
iza 1
oca 1
▁regione 1
WI 1
asă 1
ánk 1
▁esa 1
▁moj 1
▁sci 1
▁sõn 1
unilor 1
▁prostřednictvím 1
▁apres 1
▁impegno 1
▁tisztelet 1
▁nødvendigt 1
▁päätöslaus 1
▁yhteydessä 1
▁informazioni 1
gro 1
upt 1
wan 1
▁Ve 1
▁Seep 1
▁igény 1
▁inclusiv 1
▁jednotliv 1
гри 1
ques 1
▁finant 1
▁stemme 1
▁bisogno 1
▁programmi 1
▁hangsúlyoz 1
▁muuta 1
▁palav 1
▁erőfesz 1
▁przeprowad 1
ció 1
accept 1
▁pozornost 1
▁oportunidade 1
сур 1
osit 1
▁conto 1
▁Schulz 1
▁soudrž 1
▁provide 1
▁szolgáltat 1
▁državljanov 1
ply 1
ieme 1
▁omk 1
uerra 1
örden 1
▁kinn 1
▁svetov 1
▁maniera 1
▁Seepärast 1
▁diplomat 1
▁mynd 1
▁maggior 1
▁financiran 1
mek 1
dann 1
wärt 1
▁får 1
▁lizbo 1
▁resources 1
▁estratégia 1
ел 1
drav 1
▁Una 1
▁Temos 1
▁ettei 1
▁pokaz 1
▁mention 1
ofd 1
vaard 1
лкова 1
▁desig 1
▁ágazat 1
▁calitate 1
adă 1
▁fő 1
ving 1
▁reak 1
▁efekt 1
▁adopted 1
▁diversi 1
▁Serv 1
▁razão 1
▁recog 1
▁kialak 1
luš 1
▁2015 1
▁teat 1
geolek 1
▁Stras 1
▁požadav 1
▁постига 1
▁establish 1
▁Щ 1
▁Republik 1
▁procedura 1
oń 1
ísk 1
▁emer 1
isestä 1
▁noodzak 1
▁libertad 1
▁democratic 1
atusettepanek 1
▁потребителите 1
enä 1
▁Doh 1
▁crescita 1
unos 1
▁hõl 1
▁myö 1
▁enorm 1
▁optim 1
▁megval 1
▁pii 1
▁Gleich 1
▁contrat 1
▁opinião 1
▁products 1
ksam 1
elfde 1
führt 1
▁edas 1
▁okres 1
▁empleo 1
▁sitten 1
▁natürlich 1
▁gospodarczego 1
▁tão 1
ljajo 1
▁Vice 1
▁sali 1
lucz 1
blikk 1
▁vajad 1
▁przedsiębiorstw 1
zeń 1
▁læn 1
▁diplom 1
gek 1
▁1. 1
▁udzi 1
▁republ 1
▁tõttu 1
hos 1
embra 1
▁glav 1
▁pole 1
▁franc 1
▁Př 1
▁có 1
▁Veren 1
erimise 1
▁intell 1
▁faktisk 1
▁момента 1
▁съществува 1
ęż 1
tól 1
▁Lad 1
▁szy 1
▁toen 1
ustest 1
wendung 1
▁pomeni 1
▁Alzhe 1
▁defic 1
sprache 1
▁вътреш 1
▁dezbatere 1
stö 1
WIFT 1
▁poš 1
▁Beispi 1
▁vissza 1
pas 1
geri 1
▁rac 1
▁SWIFT 1
▁ohran 1
▁systemu 1
▁megvalós 1
▁těm 1
▁megt 1
isessä 1
▁naših 1
▁since 1
▁случай 1
▁предизвика 1
▁Ре 1
isim 1
▁kohald 1
▁aplicar 1
▁policies 1
▁2007-2013 1
gos 1
▁vsi 1
▁beter 1
▁lotta 1
▁ongel 1
aa 1
▁dets 1
▁belül 1
▁ezeket 1
▁adevărat 1
▁finanziaria 1
ettiin 1
▁ključ 1
▁trecut 1
lichkeit 1
▁Central 1
▁inimeste 1
▁kérdések 1
▁però 1
▁food 1
▁hetk 1
▁conver 1
▁különbö 1
▁резолюция 1
▁amendement 1
▁consumator 1
▁trabalhadores 1
ukka 1
▁paro 1
▁Fre 1
▁diz 1
▁Abge 1
was 1
ugen 1
erende 1
▁kumpp 1
▁deputada 1
niti 1
▁onde 1
▁Stock 1
▁Pu 1
▁Ros 1
▁къ 1
▁waard 1
▁plante 1
▁skrift 1
cr 1
neuv 1
▁agent 1
▁hänen 1
▁powinny 1
вото 1
▁ekst 1
▁очак 1
▁legate 1
▁suntem 1
▁zemích 1
▁mondani 1
▁Verantwort 1
▁предприятия 1
izia 1
▁resurs 1
▁vizsgál 1
▁обществе 1
▁jäsenvaltiot 1
mitt 1
▁svetu 1
▁éghajlat 1
ols 1
▁outro 1
▁fundus 1
▁relazioni 1
мина 1
▁zwró 1
▁during 1
▁jooksul 1
ába 1
tävän 1
▁kahe 1
▁begin 1
▁paljud 1
▁zatrud 1
▁Ap 1
▁Ту 1
omin 1
▁300 1
▁stá 1
järjest 1
▁commit 1
▁respeita 1
şti 1
▁kij 1
ilise 1
▁qualità 1
▁резултат 1
▁Въ 1
▁signor 1
▁tyytyvä 1
▁wes 1
eztet 1
▁educ 1
▁orice 1
▁orgány 1
▁substan 1
▁financeira 1
neh 1
▁nép 1
▁sõlt 1
▁sundhed 1
▁egységes 1
▁services 1
▁săn 1
angaż 1
ítására 1
ançar 1
▁discu 1
▁kiedy 1
▁nejen 1
▁организа 1
▁rese 1
▁reun 1
▁fogja 1
▁hacia 1
▁ayudar 1
▁komisaři 1
nili 1
▁Cht 1
▁havde 1
▁rifer 1
miseksi 1
▁acceso 1
▁знач 1
nemers 1
▁työntekij 1
▁Wettbewerb 1
▁Alle 1
presid 1
▁Освен 1
▁kereszt 1
▁towards 1
▁esitatud 1
шен 1
▁dziś 1
▁head 1
▁kort 1
▁vähent 1
▁znamen 1
▁tuttavia 1
▁měly 1
▁obbl 1
▁middel 1
▁tercei 1
ške 1
▁jól 1
▁mnie 1
▁snel 1
jednocz 1
▁Binnen 1
▁strateegia 1
alec 1
▁meile 1
▁Gesetz 1
amar 1
voll 1
▁erős 1
▁farm 1
▁nove 1
▁fundos 1
első 1
▁elä 1
▁ogól 1
▁přisp 1
ormente 1
zik 1
akon 1
rojů 1
▁creș 1
isessa 1
▁oltre 1
▁nuværende 1
▁pad 1
▁kliim 1
▁sociali 1
▁спомена 1
▁толкова 1
▁Abkommen 1
nel 1
ssia 1
▁Gel 1
chaff 1
▁categ 1
▁strong 1
oraj 1
▁âmb 1
▁vysok 1
▁Commun 1
▁protect 1
▁eli 1
▁oso 1
▁aggi 1
wnętrz 1
▁offer 1
▁публи 1
▁negoziati 1
▁Mu 1
ichni 1
terea 1
▁kunnio 1
▁Ni 1
lands 1
zeniu 1
▁anda 1
▁fondamentali 1
▁Zo 1
▁alá 1
▁prat 1
▁rendkívül 1
▁opportunity 1
▁emerg 1
▁verso 1
▁problémy 1
▁Ki 1
aken 1
czej 1
ykset 1
▁Dere 1
▁wyraź 1
▁élelm 1
▁свето 1
мени 1
▁sap 1
▁campo 1
▁usted 1
▁tarbij 1
▁âmbito 1
▁групата 1
▁intézmény 1
▁attuazione 1
▁puheenjohtaja 1
▁dabei 1
▁bevezet 1
▁zaangaż 1
▁Kir 1
▁kär 1
kkinoiden 1
▁Äänestin 1
▁aino 1
ăş 1
▁избо 1
▁affin 1
▁groei 1
▁Doamnă 1
▁kvinder 1
▁casi 1
▁mieć 1
▁Guantán 1
▁mejorar 1
▁podlagi 1
ító 1
cích 1
▁mad 1
▁Come 1
▁West 1
ratégi 1
▁Те 1
▁azy 1
▁día 1
▁nuove 1
▁mindre 1
▁effective 1
▁Об 1
czek 1
▁instituições 1
ikku 1
▁äär 1
▁Conc 1
iteter 1
ňování 1
▁sustain 1
▁haluaisin 1
стран 1
▁Initi 1
▁clara 1
▁podmínk 1
▁prioridades 1
▁udv 1
▁nuova 1
▁живот 1
ellschaft 1
▁volledig 1
▁kaot 1
▁съжа 1
▁herunder 1
▁integration 1
▁Ál 1
orso 1
▁nueva 1
▁ratif 1
▁increase 1
▁podjetja 1
▁financiamento 1
zęd 1
orde 1
▁nyom 1
▁alapján 1
▁безопас 1
▁państwach 1
ékoz 1
▁każd 1
▁Menim 1
▁načrt 1
▁introd 1
▁unseren 1
▁egyszerű 1
▁nők 1
▁maiden 1
▁Interna 1
▁resolver 1
▁câteva 1
▁yhteisön 1
▁europeias 1
▁finansowych 1
eza 1
toa 1
ulto 1
liwość 1
▁isegi 1
▁referen 1
▁constitui 1
▁Ön 1
▁úsilí 1
▁parlamendi 1
▁negotiations 1
zó 1
▁sche 1
▁imedi 1
▁намаля 1
▁Мо 1
▁prej 1
▁persoane 1
forderungen 1
aus 1
▁zi 1
ioane 1
ússia 1
▁demasi 1
▁toteut 1
▁sustent 1
isy 1
▁Aust 1
▁súly 1
▁Weise 1
▁gyerm 1
▁impul 1
cześnie 1
▁liberdade 1
▁järjestelm 1
ttö 1
▁väik 1
eriode 1
razione 1
▁Lebens 1
▁vinden 1
▁különböző 1
vaa 1
feld 1
▁dve 1
▁Votei 1
▁imped 1
▁algumas 1
znek 1
леди 1
▁deren 1
▁vansk 1
▁svou 1
▁цяло 1
rano 1
▁szczególności 1
▁konz 1
▁Spraw 1
▁najbolj 1
▁ги 1
eler 1
▁kõiki 1
▁novas 1
▁razum 1
▁membru 1
▁seveda 1
▁работи 1
▁konsument 1
▁financiación 1
íc 1
▁Ч 1
íteni 1
▁Afghan 1
▁zadeve 1
▁opportunità 1
plicht 1
▁форма 1
▁armoniz 1
cę 1
fon 1
adev 1
▁kapit 1
▁koosk 1
▁dreptul 1
▁przygot 1
▁authorities 1
▁considerare 1
pio 1
кар 1
▁Taj 1
▁Klima 1
▁avanz 1
▁circul 1
▁felhasznál 1
onda 1
нски 1
▁Sar 1
anske 1
▁etwas 1
▁muitas 1
▁nélkül 1
▁beschik 1
▁ferm 1
▁szyb 1
ciendo 1
▁dames 1
▁DA 1
▁piis 1
▁tesz 1
lingen 1
▁State 1
▁hossz 1
▁imajo 1
▁Aceasta 1
järjestelm 1
▁икономически 1
ásp 1
▁kuj 1
▁mese 1
▁nesm 1
▁zcela 1
▁externe 1
▁Tuttavia 1
▁Vol 1
▁взема 1
enschap 1
uskri 1
▁inner 1
▁vaikka 1
▁vähend 1
▁ine 1
▁Про 1
▁arvan 1
▁Auswir 1
▁otázky 1
▁putern 1
▁brauchen 1
▁kutat 1
▁stabili 1
istán 1
▁mess 1
▁Poleg 1
▁vagyok 1
▁működ 1
▁достъп 1
▁niektór 1
▁informacji 1
hør 1
зра 1
▁täällä 1
▁decisão 1
▁Minister 1
▁øjeblikk 1
▁saavutada 1
ijen 1
mann 1
▁aún 1
▁rikk 1
▁schn 1
▁teist 1
▁autonom 1
▁cultura 1
▁předsedo 1
▁tasandil 1
aną 1
vala 1
▁baza 1
▁cuanto 1
▁vaatim 1
▁investigación 1
▁dyrektywy 1
▁propunerea 1
ник 1
сите 1
▁aika 1
▁nõud 1
▁sagt 1
▁certo 1
▁novos 1
▁odbor 1
▁arutel 1
▁õigusakt 1
▁conditions 1
asut 1
szej 1
zame 1
▁bag 1
ející 1
ritte 1
▁teil 1
▁Гласу 1
▁affinché 1
чим 1
▁moim 1
▁Ebene 1
▁opinion 1
▁esimerkiksi 1
▁obv 1
icial 1
▁biom 1
▁regels 1
▁samfund 1
▁siss 1
▁Haushalt 1
viä 1
▁bro 1
halts 1
▁Mehr 1
▁accep 1
▁frente 1
▁provis 1
30 1
ukk 1
▁Nel 1
▁Mielestäni 1
▁especially 1
▁tevékenység 1
▁sowohl 1
oty 1
▁lista 1
▁azokat 1
▁отново 1
▁způsobem 1
DP 1
rzeg 1
▁měl 1
▁line 1
▁følge 1
▁innovation 1
▁betreffende 1
ustes 1
▁comport 1
▁meetmeid 1
țe 1
▁Roz 1
▁iga 1
▁tis 1
▁bast 1
▁Jeżeli 1
▁særlig 1
▁ratkais 1
yg 1
▁datos 1
▁implica 1
▁europeas 1
ráce 1
lakoz 1
▁getroffen 1
iez 1
вле 1
▁siiski 1
▁Stockhol 1
▁získ 1
▁felad 1
▁decision 1
▁nepř 1
▁selge 1
▁természetesen 1
6-0 1
▁angår 1
▁küsimus 1
alia 1
erei 1
▁enot 1
▁komt 1
labor 1
▁intelig 1
jelm 1
▁toep 1
▁mohou 1
▁Forsch 1
▁kapital 1
▁quisiera 1
ер 1
ake 1
álni 1
ţial 1
ahely 1
▁smis 1
▁trabajadores 1
nön 1
kast 1
yyden 1
▁Kons 1
▁Rehn 1
▁státech 1
▁europejskiego 1
sztön 1
▁investe 1
▁skupina 1
▁naszej 1
▁arvesse 1
▁International 1
▁pequ 1
▁Markt 1
▁parag 1
▁terül 1
▁vækst 1
▁pozměň 1
▁Съветът 1
▁Haluaisin 1
▁prem 1
▁schen 1
▁regras 1
▁нашата 1
▁Nas 1
četně 1
▁říci 1
▁gemeinsamen 1
▁PAC 1
ickou 1
▁clima 1
▁felül 1
▁hason 1
▁ridic 1
▁всяка 1
ближа 1
▁cilj 1
▁озна 1
▁расте 1
▁valóban 1
batt 1
▁rada 1
altung 1
▁vnitř 1
ователно 1
▁estrategia 1
▁hø 1
oven 1
▁fab 1
▁kiit 1
▁kandid 1
▁Szeretném 1
▁proposals 1
▁destac 1
ąp 1
sił 1
нем 1
eiros 1
enség 1
▁voldo 1
▁verand 1
▁państwo 1
▁skriftlig 1
ézi 1
▁Weg 1
▁Kamp 1
▁koll 1
▁csat 1
▁taas 1
▁indre 1
▁rispett 1
▁нещо 1
▁wijze 1
▁gedaan 1
▁globális 1
ślić 1
▁davon 1
▁small 1
▁poiché 1
voorbeeld 1
▁privește 1
▁Represent 1
arja 1
ciaal 1
erdem 1
▁nuevas 1
▁milioni 1
▁Mam 1
▁Spojen 1
▁arvest 1
▁včetně 1
▁recipro 1
▁relations 1
▁weiterhin 1
▁Ook 1
cties 1
▁pravil 1
▁демократи 1
oman 1
țile 1
▁Além 1
▁perd 1
▁Seega 1
▁først 1
området 1
▁lavoratori 1
▁necesitamos 1
▁kötelezettség 1
▁internationalen 1
▁derg 1
▁kust 1
▁tist 1
▁vari 1
redygt 1
schapp 1
ßerdem 1
reiheit 1
▁državi 1
▁credibil 1
▁Reglamento 1
▁gezondheid 1
▁spolupráce 1
asem 1
▁пол 1
ustaa 1
▁going 1
▁observa 1
▁resposta 1
zük 1
ajem 1
▁dra 1
æredygt 1
▁gestion 1
▁положение 1
▁1, 1
▁funds 1
▁raken 1
▁tuber 1
eknek 1
▁Span 1
▁accesso 1
rev 1
▁assic 1
▁условия 1
▁confrunt 1
IP 1
tei 1
▁Vers 1
▁służ 1
▁vpliv 1
▁propozy 1
új 1
imbab 1
rowad 1
▁fraktsioon 1
гията 1
▁lata 1
▁považ 1
▁Umwelt 1
▁ritengo 1
cją 1
▁geg 1
order 1
▁prefer 1
▁direktiv 1
▁milioane 1
õtte 1
▁Sal 1
nacza 1
▁ütles 1
▁contem 1
▁Abgeordn 1
▁dificult 1
▁täielikult 1
▁telev 1
▁käytän 1
eby 1
xito 1
▁csel 1
▁rozs 1
▁House 1
▁United 1
▁região 1
▁minimum 1
▁устойчи 1
▁controllo 1
▁syr 1
▁nonché 1
avelmente 1
▁dosáhnout 1
komm 1
nica 1
▁hum 1
▁żad 1
▁cosa 1
▁antud 1
voering 1
lia 1
ccio 1
ensä 1
elings 1
▁työpa 1
▁fiecare 1
▁Rád 1
endas 1
▁Adem 1
▁cómo 1
▁gjort 1
▁Lisäksi 1
▁concentr 1
▁Tš 1
▁EIB 1
▁werken 1
estic 1
▁toez 1
▁zain 1
▁kooskõ 1
▁General 1
év 1
jedn 1
śred 1
▁oseb 1
▁мили 1
▁passag 1
▁Barnier 1
wodaw 1
▁fuer 1
▁právě 1
▁unele 1
▁politisk 1
▁figyelembe 1
oben 1
дове 1
▁ava 1
ently 1
▁rema 1
▁úspě 1
▁Además 1
▁kro 1
▁număr 1
▁oikeuden 1
▁ymmär 1
▁imigra 1
▁stratégi 1
▁consumenten 1
▁gospodarske 1
cher 1
owymi 1
▁daran 1
▁prots 1
▁Africa 1
▁Lisaks 1
▁искала 1
▁munkahely 1
▁uudelleen 1
nými 1
▁Itali 1
▁uudist 1
▁nest 1
miseks 1
▁justi 1
▁moeil 1
▁gyermek 1
▁õn 1
czyć 1
сили 1
▁gemaakt 1
специално 1
jän 1
rik 1
▁wzmoc 1
▁Fortsch 1
▁ochranu 1
▁relatore 1
▁schaffen 1
▁cualquier 1
▁innerhalb 1
lede 1
▁folk 1
isista 1
▁pomoči 1
▁którego 1
▁investigação 1
▁chia 1
▁рефор 1
▁Jednak 1
▁kand 1
▁wish 1
▁tehát 1
▁forbrug 1
▁предлага 1
▁betrokken 1
▁transatlant 1
ruž 1
▁Pap 1
ována 1
▁Abst 1
▁zonas 1
▁ændringsforslag 1
▁trei 1
▁izpol 1
▁nimet 1
▁handels 1
vät 1
umen 1
▁deal 1
▁beskæ 1
▁tagja 1
▁Europejską 1
▁Bi 1
hall 1
▁Bas 1
▁vaih 1
▁exprim 1
▁distribu 1
▁stemming 1
adály 1
ționale 1
▁Unidas 1
▁compre 1
▁põllumajandus 1
iew 1
čne 1
нос 1
▁ampl 1
▁cust 1
▁dlui 1
változ 1
țiilor 1
▁măsură 1
▁ösztön 1
▁december 1
▁pomiędzy 1
▁research 1
▁hina 1
ább 1
▁напълно 1
▁permanente 1
▁clos 1
▁přek 1
okraat 1
▁žensk 1
▁кризата 1
delig 1
urder 1
▁tres 1
amencie 1
▁mecanismo 1
▁mezinárodní 1
õtet 1
▁były 1
▁Искам 1
ierungs 1
▁waarmee 1
▁collabor 1
▁poročila 1
▁strengthen 1
▁bijvoorbeeld 1
ját 1
vah 1
östä 1
očilo 1
erilor 1
pärast 1
▁giurid 1
▁construct 1
cas 1
нали 1
▁vere 1
▁képes 1
▁nuovi 1
▁nuevos 1
▁reduce 1
▁állásfoglalás 1
шно 1
▁jatk 1
itionen 1
▁genera 1
iendo 1
▁näin 1
▁mogli 1
▁altijd 1
▁veszély 1
▁ráp 1
ované 1
▁drie 1
▁област 1
▁forward 1
▁erhalten 1
▁udržitel 1
▁varnosti 1
▁terrorismo 1
țional 1
▁Ziele 1
▁achie 1
▁macro 1
▁fremskr 1
ázat 1
▁téc 1
ilist 1
▁aina 1
▁tulee 1
▁välillä 1
▁situaţia 1
▁gă 1
avaa 1
elni 1
ellos 1
▁wanneer 1
▁holdning 1
▁suficiente 1
лида 1
▁Indust 1
▁krajach 1
▁together 1
ája 1
inkerta 1
▁caracter 1
▁FE 1
▁luonn 1
▁życie 1
▁asunto 1
▁prosper 1
ergia 1
ureau 1
▁used 1
▁wybor 1
organis 1
▁przejrzy 1
▁lum 1
▁ril 1
zeitig 1
▁cumpl 1
▁halás 1
▁forpligt 1
▁ly 1
▁hot 1
▁гло 1
▁værd 1
▁zabý 1
▁estre 1
▁challen 1
▁complex 1
▁рай 1
ujące 1
▁gyors 1
▁świat 1
▁pozdrav 1
icia 1
▁privat 1
▁pristoj 1
▁rappres 1
▁oss 1
ителни 1
▁opmær 1
▁popula 1
▁bæredygt 1
▁implementation 1
▁enged 1
▁rechts 1
▁adec 1
▁neod 1
▁evolu 1
▁dostop 1
lamencie 1
øs 1
iai 1
lit 1
▁три 1
▁dumne 1
mut 1
▁ia 1
▁Form 1
▁subject 1
zés 1
▁Und 1
▁vet 1
▁2003 1
▁nemů 1
▁katastrof 1
yld 1
zott 1
▁тек 1
conóm 1
▁gdyż 1
alnych 1
▁Prior 1
▁immedi 1
▁responsabilidad 1
твър 1
▁Fragen 1
▁rating 1
▁vederea 1
mus 1
osu 1
▁hora 1
▁rolę 1
▁Fonds 1
▁mutat 1
itutionen 1
▁konkurents 1
mov 1
iran 1
▁mam 1
▁dare 1
system 1
▁Human 1
▁komoly 1
▁Comisie 1
▁nomeadamente 1
▁neuvosto 1
▁Bu 1
akaal 1
▁sreč 1
inação 1
▁critic 1
▁million 1
▁Aussprache 1
▁perspectiva 1
wić 1
▁kev 1
▁drøft 1
▁puţin 1
▁spekul 1
▁kam 1
▁Спо 1
erida 1
other 1
▁rius 1
▁unser 1
igkeiten 1
▁however 1
▁legătură 1
▁razpravlj 1
▁жените 1
▁dě 1
▁świe 1
▁corso 1
amental 1
▁greater 1
▁Demokratie 1
jami 1
läge 1
ukat 1
ichen 1
▁оцен 1
говаря 1
▁koostööd 1
ciąż 1
▁Ugy 1
▁sanit 1
▁potravin 1
▁strumento 1
šin 1
▁hinaus 1
▁seiner 1
▁Europol 1
áló 1
urare 1
▁hagy 1
▁stanie 1
▁stiamo 1
▁+ 1
они 1
▁Köz 1
▁zelfs 1
▁názoru 1
▁quella 1
▁váž 1
egény 1
▁реша 1
▁Punkt 1
▁inimest 1
▁bepaalde 1
▁wsz 1
almas 1
iempre 1
▁pedir 1
▁three 1
▁období 1
▁esetében 1
▁iniciativ 1
▁importance 1
šť 1
paist 1
▁alto 1
▁biod 1
▁eleg 1
▁kohe 1
▁peque 1
▁încer 1
▁discrim 1
▁termine 1
▁oczywiście 1
▁Ś 1
▁изто 1
▁Združen 1
▁automat 1
▁votação 1
oseb 1
evanju 1
▁rozvo 1
▁menţion 1
lor 1
olidar 1
▁intra 1
▁részt 1
poolest 1
ssystem 1
▁applicazione 1
▁Ř 1
nest 1
▁Informationen 1
ruc 1
ären 1
▁oor 1
▁koneč 1
▁otten 1
▁pyrit 1
▁umowy 1
▁nationalen 1
▁tárgyalások 1
rou 1
árd 1
▁fue 1
▁uue 1
▁maailm 1
▁palvel 1
▁yhtenä 1
хте 1
holder 1
▁midler 1
▁enquanto 1
tin 1
čnou 1
▁Meie 1
▁rych 1
álního 1
ächlich 1
▁afferm 1
▁Abbiamo 1
▁нару 1
▁alcanz 1
▁reason 1
▁erald 1
▁svých 1
▁excelente 1
▁problemat 1
▁beskyttelse 1
DA 1
dig 1
etu 1
▁ръ 1
unki 1
▁Wsp 1
гледа 1
▁done 1
▁twor 1
▁stroš 1
▁ресур 1
▁ecolog 1
▁европейската 1
wert 1
▁toteutt 1
▁Verhandlungen 1
méně 1
stemm 1
▁zagwarant 1
ęg 1
spr 1
▁ona 1
endien 1
▁prostředky 1
▁až 1
вния 1
nific 1
▁fair 1
▁fall 1
▁jist 1
▁obyv 1
▁ople 1
▁speak 1
atea 1
▁obt 1
▁util 1
▁hiány 1
▁teile 1
ighederne 1
▁Arbeitsp 1
▁партньор 1
dad 1
ukas 1
▁iets 1
▁всеки 1
ikel 1
▁Verg 1
▁enne 1
▁slot 1
▁bieden 1
ветствам 1
▁Komisijo 1
▁bizottság 1
▁diputados 1
▁representa 1
жно 1
jene 1
jeszt 1
▁joga 1
▁přip 1
▁conhe 1
▁criar 1
▁simil 1
▁átlát 1
▁állásp 1
▁бюджет 1
▁Zjednocz 1
рази 1
▁méd 1
▁ред 1
рение 1
▁coment 1
▁genomen 1
▁suffici 1
▁iniciativas 1
▁curs 1
▁kolme 1
▁yksity 1
▁priorità 1
▁gegenüber 1
RO 1
▁eind 1
▁fødev 1
▁obvez 1
▁tehtud 1
▁Ansicht 1
▁systému 1
▁tegelikult 1
leme 1
▁rek 1
▁laad 1
▁elett 1
▁leiden 1
enze 1
nično 1
▁kaht 1
encias 1
▁Denne 1
▁celów 1
▁credo 1
▁única 1
▁peaksime 1
▁democratie 1
▁jár 1
▁naší 1
▁spotřebitel 1
avaid 1
▁arvam 1
▁styrke 1
▁bestemm 1
▁koniecz 1
▁primeru 1
▁ек 1
▁coer 1
▁sublin 1
▁kannalta 1
▁nå 1
▁San 1
▁kant 1
▁jedynie 1
▁harmoniz 1
▁simplific 1
▁toegang 1
▁изисква 1
▁crescimento 1
туа 1
▁ár 1
ambi 1
ürok 1
▁Dzi 1
▁jaren 1
▁forbedre 1
▁priložnost 1
zijd 1
▁korke 1
▁nedost 1
рят 1
ahan 1
zaam 1
▁csal 1
gelopen 1
▁nadále 1
▁изслед 1
▁públicos 1
▁otra 1
▁picc 1
▁trga 1
▁razmer 1
▁última 1
▁ukrepov 1
▁достатъ 1
▁kit 1
▁jell 1
▁teadus 1
▁teknolog 1
▁означава 1
unoa 1
▁Schw 1
▁pakk 1
▁strument 1
▁charakter 1
▁stability 1
▁assistenza 1
ият 1
juje 1
enter 1
▁zakonodaj 1
avi 1
kuv 1
owała 1
▁nend 1
▁общност 1
▁Fraktion 1
▁compromisso 1
▁Auswirkungen 1
▁bě 1
▁фу 1
▁lic 1
▁apoi 1
▁usald 1
eringer 1
▁Kontrol 1
▁план 1
▁väärt 1
▁Debatte 1
strategie 1
▁crecimiento 1
▁echt 1
▁guerra 1
▁stejně 1
▁дейност 1
▁правото 1
края 1
ovaly 1
▁päev 1
▁Pentru 1
▁unders 1
▁yhteistyötä 1
чва 1
▁Dez 1
▁prazo 1
▁schon 1
demokrat 1
intarvik 1
▁förder 1
▁votación 1
ünd 1
áris 1
astră 1
▁ühte 1
elles 1
▁hivat 1
▁piano 1
▁derzeit 1
▁läbipaist 1
ush 1
▁Efter 1
▁meest 1
▁процес 1
▁транспорт 1
▁Afghanistan 1
▁csatlakoz 1
olar 1
▁Nagu 1
▁begræn 1
▁colect 1
▁Zusammenhang 1
▁й 1
ští 1
▁anz 1
zysta 1
▁osas 1
▁haber 1
▁plazo 1
▁именно 1
▁slechts 1
łow 1
▁Ky 1
▁luua 1
▁vist 1
ierten 1
ektoren 1
▁utilização 1
loc 1
ври 1
ljam 1
▁ise 1
▁powod 1
▁znovu 1
▁könnte 1
▁accordi 1
▁autoriz 1
▁comercio 1
▁prebival 1
▁cetăţenilor 1
teren 1
▁kaks 1
▁statt 1
▁abordagem 1
▁decisione 1
▁fremskridt 1
▁предложения 1
căt 1
ilyen 1
▁janu 1
▁fokus 1
▁portug 1
▁zurück 1
▁opfordrer 1
▁democrazia 1
vare 1
schied 1
▁kaudu 1
▁добре 1
▁Govern 1
▁comércio 1
▁Mai 1
▁rum 1
redno 1
▁desch 1
▁summit 1
lysninger 1
nike 1
▁fokoz 1
▁climatice 1
alož 1
arvo 1
bank 1
ájékoz 1
▁escala 1
▁onnist 1
▁strutt 1
▁álláspont 1
кси 1
▁Mal 1
рланд 1
телства 1
▁danych 1
ovendien 1
▁socială 1
▁working 1
▁megközel 1
usse 1
▁Bew 1
▁wysok 1
▁Gobierno 1
▁hetkellä 1
▁bedrijven 1
▁doelstellingen 1
rš 1
▁sådan 1
▁előadó 1
▁ricord 1
▁wspier 1
ficación 1
▁sarebbe 1
▁difficult 1
▁relativas 1
éle 1
▁aer 1
▁Maar 1
▁brut 1
▁isik 1
▁três 1
▁Tratatul 1
▁procedures 1
▁päätöslausel 1
▁parlamentissa 1
▁Gef 1
▁vih 1
▁dedic 1
▁sexual 1
ovány 1
intele 1
▁sosia 1
▁lograr 1
zv 1
ejí 1
▁alm 1
▁qui 1
▁week 1
▁gesam 1
▁nõust 1
istische 1
uale 1
▁käyttää 1
▁workers 1
лъ 1
etzen 1
▁juuri 1
▁growth 1
▁inspan 1
▁zadeva 1
âne 1
nému 1
▁právo 1
▁членове 1
▁hozzáfér 1
ieni 1
prej 1
ханиз 1
▁algat 1
▁lõpet 1
▁besteht 1
▁incluindo 1
▁berücksicht 1
itta 1
▁ell 1
ental 1
ijf 1
abad 1
▁Har 1
▁данъ 1
ńskiego 1
▁przede 1
lagt 1
ício 1
▁duż 1
▁área 1
▁enter 1
avoastră 1
▁Verordnung 1
▁solidarietà 1
▁dată 1
▁dysk 1
ending 1
▁económicas 1
▁unterstützt 1
▁ET 1
aanse 1
embro 1
waard 1
▁anul 1
▁buro 1
▁swoje 1
▁zasedání 1
▁betydning 1
▁пис 1
▁друга 1
▁hjælpe 1
andó 1
riik 1
▁Mag 1
▁Mak 1
▁Hier 1
▁дове 1
▁abbia 1
▁leden 1
▁creare 1
▁dibatt 1
▁pozosta 1
pla 1
▁veh 1
▁2050 1
▁ejer 1
▁facă 1
▁Canada 1
▁member 1
▁varten 1
▁připrav 1
▁politiku 1
▁zahranič 1
▁Instrument 1
▁Parlamencie 1
olge 1
ókat 1
▁197 1
němov 1
▁blok 1
▁месе 1
▁данни 1
▁közvet 1
▁skupaj 1
▁coinvol 1
▁agricolt 1
▁majanduse 1
▁ondersteun 1
къв 1
ragt 1
épviselő 1
▁yderligere 1
zut 1
▁inne 1
▁genop 1
▁islam 1
▁gericht 1
▁současné 1
▁contribui 1
áb 1
ezu 1
arder 1
olking 1
▁señal 1
apä 1
vom 1
▁bad 1
▁salvag 1
▁zdravot 1
insichtlich 1
pon 1
жат 1
▁dí 1
sete 1
▁Bev 1
oloog 1
▁munkav 1
▁против 1
▁princípio 1
ajajo 1
▁ajung 1
▁pomen 1
▁tercer 1
▁efforts 1
▁předlož 1
▁sostenere 1
мя 1
oerd 1
▁Tai 1
▁clari 1
▁lucha 1
▁conseg 1
▁increm 1
▁tiszteletben 1
OLV 1
▁koń 1
▁suh 1
казва 1
▁SOLV 1
▁prób 1
▁škod 1
ultores 1
▁aspecto 1
▁edasi 1
▁wysił 1
minister 1
▁Estamos 1
▁структу 1
▁tidligere 1
▁belangrijkste 1
adar 1
▁отбе 1
▁dodrž 1
▁siten 1
▁SOLVIT 1
▁nivelul 1
MI 1
ioiden 1
▁osred 1
▁demokratič 1
▁Dok 1
▁иде 1
ywania 1
▁largo 1
▁ottaa 1
▁Nagy 1
▁cíle 1
▁paik 1
▁third 1
▁Romania 1
▁appropri 1
▁tähendab 1
instrument 1
▁democracy 1
▁Tä 1
ppet 1
ußer 1
▁juhul 1
▁korlá 1
▁ühise 1
▁zgodnie 1
▁sectorul 1
▁migliorare 1
▁legislativo 1
▁създаването 1
ęt 1
▁lö 1
term 1
▁opg 1
▁druge 1
▁ситуа 1
isimman 1
▁пазара 1
sprogram 1
▁пъл 1
▁fight 1
▁nincs 1
▁întreprinder 1
▁sud 1
▁pozit 1
▁talousarv 1
pañ 1
▁finanţ 1
▁hasonló 1
▁cultural 1
inist 1
▁regiões 1
▁dumneavoastră 1
andon 1
▁betek 1
▁helpen 1
▁midagi 1
▁creación 1
mout 1
▁tööd 1
▁crear 1
▁prostředků 1
▁zapewnienia 1
▁изменението 1
нява 1
стро 1
▁SIS 1
alkot 1
ljivo 1
▁tret 1
▁projecto 1
▁Azt 1
▁Ben 1
▁перио 1
▁miljoen 1
▁принцип 1
▁използва 1
owana 1
▁douf 1
opoliti 1
▁calidad 1
▁projektu 1
elta 1
▁maan 1
▁handlu 1
▁tapaszt 1
▁acuerdos 1
ous 1
▁bír 1
▁mec 1
▁krav 1
▁rzeczyw 1
▁proyecto 1
bec 1
csak 1
skiego 1
▁suver 1
▁můžeme 1
▁promuov 1
▁programme 1
▁aki 1
▁Bizottságnak 1
▁ondernemingen 1
AS 1
rak 1
řen 1
▁sze 1
▁necesare 1
janak 1
▁märk 1
▁vseb 1
▁znač 1
overno 1
▁pelas 1
▁whole 1
▁podría 1
▁spørgsmålet 1
▁költségvetés 1
▁Häälet 1
▁consci 1
▁pasado 1
▁región 1
▁mahdollisu 1
ättä 1
▁irá 1
▁millió 1
▁Ма 1
avam 1
atten 1
▁Brux 1
▁entw 1
▁pren 1
▁къде 1
същност 1
▁Acesta 1
▁führen 1
▁krimin 1
▁relator 1
▁wichtige 1
▁entscheid 1
▁salvaguard 1
inem 1
▁którą 1
▁áreas 1
▁Ponadto 1
▁jälleen 1
▁rekening 1
gru 1
▁enkel 1
▁úrnak 1
frica 1
nikom 1
olgoz 1
▁azil 1
▁jaki 1
▁voed 1
▁служ 1
▁praks 1
▁reflect 1
▁voorkomen 1
ués 1
beli 1
▁aug 1
▁Stra 1
▁back 1
▁anges 1
▁dimen 1
▁seria 1
ulikult 1
▁dotyczy 1
▁termini 1
лим 1
oton 1
övet 1
▁tagaj 1
▁mnenju 1
▁povzroč 1
▁mahdollisimman 1
▁promo 1
overeen 1
▁szinten 1
▁alimentare 1
▁oportunidades 1
▁Más 1
▁mojem 1
▁hogyan 1
▁compens 1
▁finančních 1
rir 1
ezés 1
▁uzy 1
▁Braz 1
▁Canc 1
▁erne 1
▁moje 1
▁stär 1
▁strumenti 1
dę 1
yhte 1
▁dato 1
▁három 1
▁power 1
▁kaitse 1
▁степен 1
▁confirm 1
▁niezbęd 1
▁przekon 1
▁Domnívám 1
▁essencial 1
avía 1
▁lip 1
ációs 1
▁spir 1
ujících 1
▁селско 1
▁drei 1
▁poin 1
▁változ 1
▁km 1
▁aktiiv 1
▁voeren 1
▁virkelig 1
rifft 1
▁żeby 1
▁oprac 1
▁дълго 1
▁tegema 1
▁regioni 1
ilia 1
iszer 1
▁různ 1
▁skab 1
alifik 1
▁based 1
▁force 1
▁poner 1
▁pokrač 1
▁siempre 1
▁Beispiel 1
▁negative 1
▁proporcion 1
føl 1
▁aivan 1
▁comună 1
▁mobiliz 1
тво 1
inni 1
ierte 1
▁mari 1
▁progetto 1
gelegenheid 1
▁raportului 1
▁35 1
aktiv 1
odust 1
istian 1
▁regionu 1
▁Exist 1
▁sněmov 1
▁Esit 1
▁tohi 1
▁przyw 1
▁apoyar 1
▁corect 1
▁świecie 1
▁hospodářství 1
bt 1
ünft 1
ildung 1
▁Finan 1
▁hoofd 1
▁Raport 1
▁ajudar 1
▁sprejem 1
▁Kas 1
ismen 1
▁zaak 1
▁taast 1
▁verst 1
iehungen 1
uin 1
▁Bek 1
▁ked 1
▁roli 1
▁dzieci 1
▁řízení 1
▁Fisch 1
▁coezi 1
▁palab 1
▁prizn 1
itional 1
oleniem 1
▁adicion 1
▁sociais 1
▁naturalmente 1
▁aeg 1
ustel 1
▁után 1
▁explo 1
▁harmad 1
▁сближа 1
▁debates 1
▁съжаление 1
ědom 1
▁got 1
▁lik 1
ryhmän 1
▁zakoń 1
▁meille 1
▁achieve 1
▁erforder 1
▁sociales 1
▁nö 1
▁ied 1
▁fiscal 1
▁lokale 1
▁lähest 1
▁механиз 1
równ 1
▁násled 1
▁strijd 1
▁przepisów 1
▁responder 1
▁fundamentale 1
szor 1
jából 1
handel 1
▁nepos 1
▁making 1
▁pričak 1
▁soovin 1
▁felicit 1
▁próximo 1
▁наб 1
▁Isra 1
sprech 1
▁inver 1
▁Governo 1
▁erreichen 1
▁együttműköd 1
ech 1
arvi 1
▁hyöd 1
▁vold 1
▁supuesto 1
▁concurrent 1
▁importanti 1
vr 1
jan 1
▁fél 1
volver 1
▁lungo 1
▁odpad 1
▁acordos 1
▁přijetí 1
▁ilmaston 1
▁работата 1
▁essential 1
føres 1
▁klare 1
▁mõned 1
▁opred 1
▁stabi 1
▁waarop 1
▁economico 1
▁стратегия 1
▁Möglichkeit 1
▁demokratikus 1
ight 1
▁fom 1
▁mér 1
▁oht 1
amuut 1
▁teid 1
▁zemi 1
▁okrep 1
▁examin 1
▁muiden 1
▁udford 1
▁aspecte 1
▁stabilit 1
▁Ang 1
▁oog 1
oração 1
▁vključno 1
▁belasting 1
▁climático 1
▁contributo 1
▁significant 1
tym 1
isij 1
▁odm 1
▁jobs 1
▁soul 1
▁morala 1
▁stehen 1
▁acab 1
▁mici 1
▁nutné 1
▁agricultores 1
ahlen 1
▁klucz 1
ämpfung 1
▁nikoli 1
▁въздей 1
▁esfuerz 1
▁nezbytné 1
▁financování 1
utu 1
ępu 1
▁său 1
▁зая 1
▁мис 1
ünket 1
▁tror 1
▁wymi 1
▁imeli 1
ávající 1
▁nation 1
▁tartoz 1
▁acelaşi 1
▁Ш 1
▁Sou 1
▁rigt 1
▁samm 1
nehmer 1
▁Společ 1
ързо 1
▁vær 1
▁prij 1
▁takš 1
▁große 1
▁skulle 1
▁maailma 1
politiikan 1
миси 1
eritud 1
ásában 1
▁päätö 1
▁meccan 1
▁parant 1
▁intellig 1
▁iniziativa 1
▁čl 1
voud 1
iline 1
▁abil 1
▁Heraus 1
▁really 1
▁válasz 1
▁realizar 1
▁priorytet 1
ški 1
▁ihnen 1
▁necesar 1
▁wniosek 1
▁действа 1
▁coesione 1
forr 1
▁parere 1
▁použív 1
▁Guantánamo 1
▁occupazione 1
▁adu 1
▁cau 1
▁etap 1
▁Glede 1
▁edend 1
▁evropskega 1
▁hozzájárul 1
▁inve 1
▁ridu 1
ioistu 1
▁podpr 1
Fraktion 1
▁include 1
în 1
▁Alli 1
▁esim 1
▁stav 1
▁dzięki 1
▁tervis 1
ităţilor 1
▁inwesty 1
▁създаде 1
▁responsibility 1
skon 1
▁бан 1
agyar 1
▁rural 1
▁besluit 1
▁wniosku 1
▁traktatu 1
▁folytatott 1
▁pozměňovací 1
▁председателство 1
hs 1
▁lej 1
ommun 1
▁teszi 1
▁unico 1
▁visum 1
▁respuesta 1
delse 1
ovolj 1
ekvens 1
oliber 1
▁joissa 1
▁produs 1
▁projev 1
▁relações 1
▁standards 1
▁zadowoleniem 1
nila 1
illen 1
ovina 1
▁sank 1
▁huomi 1
▁bestimm 1
▁esfuerzos 1
▁gospodarki 1
▁plenamente 1
▁skutečnost 1
preună 1
▁while 1
▁promot 1
▁attention 1
▁biodivers 1
puol 1
▁каче 1
▁Bulgar 1
▁Lösung 1
▁искаме 1
▁spraved 1
▁consecin 1
ůst 1
тели 1
▁acom 1
▁забра 1
▁differen 1
fre 1
ining 1
▁ating 1
▁kõneal 1
▁vagyunk 1
ay 1
ders 1
▁bár 1
ymist 1
▁detto 1
▁mediu 1
▁razón 1
▁victim 1
▁aspetti 1
▁razvoju 1
▁potřebujeme 1
terne 1
▁Hamas 1
▁prawo 1
▁debaty 1
▁ochrany 1
▁particularmente 1
▁lap 1
bolov 1
▁gelo 1
▁febru 1
▁genau 1
▁Handel 1
▁nucleare 1
▁последните 1
миш 1
oegd 1
▁vár 1
▁vaike 1
▁razlog 1
▁decisión 1
▁hyväksym 1
▁poliitika 1
▁independen 1
▁administrative 1
orias 1
▁visse 1
▁pomena 1
▁присъеди 1
czę 1
зно 1
▁Up 1
▁terem 1
▁Palest 1
▁Zimbab 1
▁żywności 1
▁eficiente 1
▁határozott 1
▁институции 1
▁Önök 1
▁renov 1
▁propag 1
▁прозра 1
▁mayoría 1
▁criteria 1
▁online 1
▁tempor 1
▁suurend 1
▁allemaal 1
ați 1
olta 1
omag 1
▁Ist 1
▁Teg 1
azuje 1
rucât 1
▁orden 1
▁Sozial 1
▁doilea 1
▁společné 1
▁příležitost 1
▁investimento 1
▁iż 1
zych 1
▁few 1
▁lii 1
▁mud 1
▁sei 1
▁Има 1
oksia 1
▁unul 1
▁одоб 1
▁certi 1
▁körül 1
▁suuri 1
▁изгот 1
hetetlen 1
▁interessi 1
▁bezpečnosti 1
▁Hait 1
esehen 1
▁Tibet 1
▁erwäh 1
▁facem 1
▁repet 1
▁efectu 1
▁ordine 1
▁vormen 1
▁gestione 1
вка 1
cing 1
▁kés 1
▁urma 1
▁giorno 1
▁crearea 1
▁waarbij 1
▁foglalkoztat 1
chu 1
▁gewe 1
▁acção 1
▁aastat 1
▁działal 1
▁различни 1
▁št 1
▁Cor 1
▁smě 1
▁vele 1
▁Förder 1
hørighed 1
▁tájékoz 1
▁beskæftig 1
▁teav 1
▁вклю 1
ítását 1
▁letih 1
▁съвет 1
gesetzt 1
▁některé 1
utas 1
пита 1
▁šir 1
ieram 1
▁Stre 1
▁duda 1
▁somm 1
▁kompeten 1
eca 1
lej 1
▁års 1
▁eben 1
astaan 1
▁traktat 1
▁sprechen 1
▁understrege 1
ajad 1
▁erken 1
▁rozwi 1
▁kestäv 1
▁küzdelem 1
▁sredstva 1
▁Venä 1
▁poziom 1
▁hervorm 1
▁deberían 1
▁regiones 1
▁kontekście 1
▁mukaisesti 1
▁werknemers 1
▁fundamentais 1
▁sto 1
▁specifik 1
▁tilfælde 1
▁cooperare 1
inut 1
wijs 1
▁læg 1
▁Meil 1
▁стъп 1
lighed 1
▁handl 1
▁muutt 1
▁Állam 1
▁burger 1
▁koskee 1
▁olevan 1
oney 1
▁две 1
umista 1
▁kalast 1
▁climáticas 1
▁kereskedelmi 1
▁werkgelegenheid 1
onov 1
▁små 1
▁yhtä 1
▁tartó 1
▁kosten 1
▁través 1
▁sozialen 1
▁Jo 1
ítica 1
▁Transp 1
▁skridt 1
skimi 1
▁голе 1
▁uuden 1
▁Preşedinte 1
▁demokraatt 1
▁presidenza 1
▁Prag 1
verand 1
▁alatt 1
▁posso 1
▁какво 1
▁dienen 1
▁tudjuk 1
▁želimo 1
▁stemmen 1
▁relevante 1
▁attraverso 1
▁elintarvik 1
atz 1
▁Leh 1
▁Nic 1
▁unos 1
proken 1
▁eesmär 1
▁respek 1
▁aangezien 1
▁naţionale 1
▁Wo 1
ozem 1
▁saad 1
ardziej 1
▁crizei 1
▁допълните 1
▁munkavállal 1
räge 1
▁sept 1
▁sfor 1
adevăr 1
▁esist 1
▁urgen 1
▁seguro 1
▁securitate 1
muut 1
нист 1
ising 1
▁była 1
▁mist 1
▁съоб 1
▁Baron 1
▁Const 1
▁fogad 1
▁eesistuj 1
▁Bras 1
▁elég 1
nictwa 1
ствието 1
▁zmiany 1
▁neoliber 1
фика 1
▁dunque 1
▁pension 1
▁toepass 1
▁dejansko 1
▁deputati 1
äss 1
▁SL 1
▁altă 1
▁kihív 1
▁aprove 1
▁imperi 1
▁összes 1
▁своите 1
▁beginnen 1
▁approccio 1
дим 1
ятам 1
▁úloh 1
entieel 1
▁lament 1
▁заедно 1
öitä 1
▁bit 1
▁nen 1
holde 1
▁uite 1
tonság 1
uiente 1
▁viene 1
▁osoitt 1
▁syystä 1
atsiooni 1
▁regions 1
▁tilbage 1
▁politische 1
▁posam 1
▁miembro 1
▁tarvits 1
▁tasakaal 1
▁Verantwortung 1
gano 1
▁hool 1
▁gestión 1
▁solicită 1
▁Alzheimer 1
▁julgeolek 1
▁jobb 1
▁опит 1
▁фонд 1
▁izraz 1
▁mohli 1
▁света 1
▁deoseb 1
▁kansan 1
▁benadru 1
▁primera 1
▁intézkedéseket 1
hív 1
ciali 1
▁nalé 1
▁suoi 1
▁tuot 1
ektive 1
▁mieli 1
▁növel 1
▁pełni 1
▁услуги 1
▁ефектив 1
oja 1
klär 1
▁enfo 1
▁Ritengo 1
▁evropského 1
igu 1
дна 1
ením 1
ický 1
ness 1
uneet 1
▁create 1
▁funzion 1
▁cetăţenii 1
▁możliwość 1
▁agreements 1
▁бро 1
endeid 1
▁senso 1
▁verwa 1
▁svojih 1
▁üksnes 1
▁gegevens 1
▁rozwiązania 1
ulik 1
▁wiz 1
ürfen 1
▁makro 1
▁muchas 1
▁coorden 1
▁feltétel 1
▁sociedad 1
bed 1
ostí 1
лите 1
▁EFD 1
értek 1
▁oamen 1
▁controlo 1
▁sociedade 1
erà 1
ways 1
раме 1
▁fle 1
▁ster 1
▁ilman 1
▁øjeblikket 1
▁iran 1
▁sfâr 1
financi 1
ogliamo 1
▁pravid 1
▁valmis 1
▁стопан 1
chaffung 1
▁positiv 1
▁околната 1
▁kir 1
eración 1
▁después 1
▁mého 1
▁tekn 1
▁sovelt 1
wijl 1
▁Ezen 1
▁Przy 1
▁tõel 1
▁weet 1
▁vzděl 1
▁térség 1
▁přísluš 1
▁confronti 1
▁oplossing 1
▁reac 1
▁suor 1
▁Jugos 1
▁reach 1
▁kracht 1
▁ohledně 1
▁Considero 1
▁zainteres 1
▁възстановя 1
arcz 1
tiden 1
▁zahr 1
▁usmer 1
▁safety 1
▁erőszak 1
▁sabemos 1
fontosságú 1
▁Vz 1
ásáról 1
▁maahan 1
▁domnívám 1
▁przedstawici 1
byg 1
▁pře 1
▁angem 1
▁geweld 1
2- 1
odi 1
fahr 1
▁Agen 1
▁Ende 1
▁bile 1
▁seri 1
▁täie 1
emény 1
imaan 1
untas 1
▁täit 1
landse 1
▁заето 1
▁tutela 1
▁voedsel 1
▁utilizar 1
▁подкрепи 1
▁natuurlijk 1
nejš 1
ztat 1
prochen 1
▁desidero 1
▁közleked 1
▁aére 1
strækk 1
▁vezes 1
▁podrob 1
▁criminal 1
▁rozpočtu 1
▁Comissária 1
telen 1
▁geral 1
▁ehdott 1
▁sincer 1
▁welche 1
▁ос 1
stum 1
ženo 1
▁Sah 1
reifen 1
▁mijlo 1
▁begrüße 1
▁alimentos 1
▁risultati 1
lenül 1
▁ital 1
▁työl 1
▁kraje 1
▁Inoltre 1
▁subiect 1
▁tavalla 1
▁periaatte 1
▁unionissa 1
▁podkreślić 1
usă 1
ards 1
▁тру 1
▁rääk 1
ického 1
▁jedná 1
▁oczek 1
▁smemo 1
▁hatály 1
▁отговор 1
▁Kopenhagen 1
▁необходимостта 1
ligg 1
▁verdade 1
▁költségvetési 1
SP 1
▁máx 1
▁yli 1
▁Tato 1
▁pesar 1
▁explic 1
▁toetada 1
▁consenso 1
▁alternative 1
▁Änderungsant 1
tim 1
että 1
▁lek 1
▁ung 1
frika 1
liśmy 1
▁Dank 1
▁erzi 1
▁abordar 1
▁hlediska 1
▁korlátoz 1
▁samtidig 1
▁Verfahren 1
sequ 1
▁celo 1
yttävä 1
▁Durch 1
▁jasně 1
▁poole 1
▁kehittäm 1
▁напредък 1
ehl 1
▁2, 1
ibili 1
▁stig 1
enscha 1
▁pochod 1
▁Copenhaga 1
▁deberíamos 1
▁Председател 1
▁spezi 1
▁affect 1
▁hosszú 1
▁několik 1
▁olukorra 1
▁Beg 1
▁pyr 1
▁egyre 1
▁haaste 1
▁grundlag 1
мем 1
слу 1
folg 1
▁uut 1
▁Perm 1
▁deta 1
▁estou 1
▁tendo 1
▁všichni 1
alisering 1
▁funkcjon 1
▁wartości 1
▁środowiska 1
▁modal 1
▁podpis 1
▁económicos 1
▁parlamendiliik 1
ávat 1
▁kohézi 1
▁presupuest 1
sien 1
▁asyl 1
▁milieu 1
▁vezető 1
▁bringen 1
sam 1
юза 1
yttäm 1
▁coloc 1
▁schengen 1
sy 1
▁Nov 1
frist 1
weisen 1
▁označ 1
równoważ 1
▁korzyst 1
▁diensten 1
▁положението 1
esebb 1
▁apre 1
▁било 1
▁сила 1
▁spune 1
▁gezien 1
▁raportöör 1
allan 1
▁atta 1
▁patent 1
▁Regional 1
anim 1
▁frag 1
▁uspe 1
▁least 1
▁sisäll 1
▁pracowników 1
▁concurrentie 1
erij 1
▁neb 1
▁néz 1
▁requisitos 1
▁yksinkerta 1
reng 1
▁multi 1
▁coordon 1
▁rapport 1
▁направим 1
▁rapidamente 1
fri 1
chyb 1
▁play 1
benhav 1
▁rahal 1
▁съдържа 1
alom 1
ială 1
ická 1
▁Hilfe 1
▁колеги 1
▁afgelopen 1
▁Tässä 1
▁conti 1
▁Liidus 1
▁Euroopassa 1
▁záležitost 1
▁hinsichtlich 1
ěh 1
▁Asp 1
▁Ker 1
▁magas 1
▁általán 1
▁primeira 1
▁članicah 1
▁asc 1
aceri 1
▁macht 1
▁súlyos 1
isierung 1
▁publicz 1
▁tunnist 1
▁sublinie 1
▁politické 1
▁развитието 1
ämar 1
ítja 1
▁etn 1
▁tip 1
kraft 1
reter 1
▁money 1
▁animal 1
▁podatkov 1
▁priority 1
▁soluzione 1
ancia 1
▁земе 1
▁beteg 1
▁posto 1
▁догово 1
▁consist 1
▁efficace 1
▁humanitar 1
▁pik 1
▁szöv 1
▁usun 1
▁neile 1
▁conflic 1
▁waarbor 1
▁dringend 1
▁harmadik 1
meno 1
ónak 1
▁Apo 1
▁Occ 1
▁reu 1
ander 1
urais 1
▁rent 1
ements 1
▁konsekvens 1
▁Dur 1
avien 1
▁kait 1
▁Jahre 1
▁Съюза 1
▁става 1
▁fronti 1
▁contact 1
▁illegale 1
▁melhorar 1
▁potrebbe 1
▁cambiamento 1
▁uda 1
istič 1
ouwen 1
▁rask 1
▁nicio 1
▁valori 1
▁според 1
▁bastante 1
egl 1
▁aşte 1
▁aiuti 1
▁kohez 1
▁елект 1
▁Afrika 1
▁clearly 1
▁todavía 1
▁sectores 1
▁szerepet 1
▁vrijheid 1
ambio 1
▁Gold 1
▁másod 1
▁acquis 1
▁poliitik 1
øb 1
ůj 1
nor 1
▁plă 1
porta 1
▁aanpak 1
▁afstem 1
▁elmond 1
▁eszközök 1
▁sottolineare 1
▁IC 1
itam 1
▁forsø 1
▁assunto 1
▁időszak 1
▁solidaars 1
agn 1
nám 1
elés 1
▁afr 1
▁tund 1
▁capaz 1
▁disci 1
▁nunca 1
abilidade 1
20- 1
äkin 1
▁Bem 1
раните 1
▁mehan 1
▁světě 1
ability 1
▁sääntö 1
▁trajnost 1
ramos 1
▁Ihre 1
▁kiem 1
▁huomatt 1
ződ 1
▁Verbess 1
▁laatste 1
▁semnific 1
▁diskrimina 1
ping 1
lægge 1
▁Rats 1
▁novih 1
▁conserv 1
▁podniky 1
▁society 1
▁risposta 1
onde 1
initi 1
zeich 1
▁cauz 1
▁once 1
▁korak 1
▁солида 1
▁wzrostu 1
▁Community 1
▁interests 1
▁spójności 1
▁geï 1
▁yhä 1
▁Gra 1
ester 1
▁kindl 1
▁ekolog 1
▁souladu 1
erdo 1
robi 1
чната 1
▁koli 1
▁dopad 1
▁fejlődés 1
orio 1
ških 1
хвър 1
▁osoby 1
▁dialoog 1
▁einfach 1
▁turvallisuus 1
tos 1
▁Coelho 1
▁kwestia 1
mber 1
▁tenha 1
нението 1
ablemente 1
▁cohesión 1
▁izpostav 1
▁reformas 1
▁relaciones 1
son 1
yslu 1
▁erop 1
▁unde 1
▁sport 1
▁Evropo 1
▁éghajlatváltoz 1
há 1
▁Gli 1
▁zetten 1
▁pierwsze 1
▁valdkond 1
vero 1
ykle 1
▁punk 1
▁înse 1
▁lepší 1
ţională 1
▁încura 1
▁împreună 1
▁angenommen 1
iges 1
kten 1
ował 1
▁Reino 1
▁więks 1
▁zásadní 1
▁Przewodnicząca 1
dell 1
ples 1
▁apr 1
▁muod 1
hulgas 1
▁obsah 1
▁anterior 1
▁principle 1
nap 1
нат 1
stek 1
торо 1
▁aib 1
sorden 1
uksissa 1
▁Гласувах 1
▁szervezet 1
▁ю 1
dajů 1
áját 1
▁aibă 1
▁chud 1
▁kiinn 1
ársaság 1
▁Zugang 1
▁energetica 1
▁finalmente 1
prü 1
emaa 1
osos 1
ringen 1
▁Innov 1
▁druhé 1
▁katerem 1
▁Schaffung 1
▁przeciwko 1
▁представлява 1
žad 1
▁Inf 1
▁beim 1
▁visa 1
kingen 1
uksena 1
▁Reding 1
▁regular 1
▁Progress 1
▁financiară 1
▁köszönetet 1
▁Ба 1
ødet 1
akseen 1
lášení 1
▁vlade 1
▁become 1
▁anumite 1
▁ressour 1
▁борбата 1
▁gemeinsame 1
▁sealhulgas 1
lici 1
alogu 1
▁nowe 1
niveau 1
▁nasil 1
▁colega 1
▁formål 1
▁investo 1
▁început 1
▁contesto 1
▁doprowad 1
▁energije 1
▁economisch 1
▁fundamentales 1
ujoč 1
vang 1
наги 1
ármaz 1
▁folos 1
▁függet 1
▁geloof 1
▁distrib 1
▁enfoque 1
▁saranno 1
▁sistemi 1
▁niektórych 1
▁understand 1
▁najbardziej 1
бу 1
unst 1
▁Ast 1
▁mee 1
rants 1
tävää 1
▁evalua 1
▁контрол 1
▁bezüglich 1
▁jelentést 1
pois 1
yrit 1
▁важен 1
▁aunque 1
▁jestem 1
▁posied 1
▁puedan 1
▁favorevol 1
▁pripravljen 1
▁vaš 1
▁După 1
▁afirma 1
▁gevolg 1
▁gospodarstva 1
rip 1
▁skl 1
▁Alap 1
▁coesão 1
▁videre 1
▁промиш 1
▁dejstvo 1
▁obyvatel 1
▁politico 1
▁Európában 1
▁PE 1
hass 1
▁amint 1
▁katere 1
▁maioria 1
▁Behörden 1
▁propuneri 1
вер 1
rosz 1
▁afs 1
▁szél 1
▁jelenti 1
▁причина 1
▁nachhalt 1
▁vedtaget 1
disf 1
▁blo 1
▁megk 1
▁orde 1
▁pyst 1
▁supp 1
▁ofere 1
▁техно 1
▁država 1
▁származ 1
▁volgende 1
▁establecer 1
łę 1
▁Tän 1
▁mín 1
ellett 1
eração 1
isivat 1
ycznie 1
▁sanoa 1
▁ümber 1
▁määrit 1
▁posłów 1
icherheit 1
▁creazione 1
▁Institutionen 1
▁szempontjából 1
▁Akt 1
▁fic 1
▁läb 1
▁locuri 1
▁budżetu 1
▁ideolog 1
▁contract 1
▁kiiresti 1
▁zrównoważ 1
▁финансова 1
bile 1
onal 1
urso 1
allis 1
▁wied 1
▁monopol 1
▁children 1
▁bilaterale 1
icky 1
stwo 1
äärä 1
▁Jako 1
▁Sper 1
▁llam 1
▁plano 1
ähigkeit 1
▁toimint 1
▁ympäristö 1
anaš 1
rukt 1
▁hang 1
▁lõpp 1
▁mitt 1
▁všem 1
▁uwagi 1
▁nazionale 1
▁investimenti 1
noma 1
resz 1
▁bus 1
▁did 1
▁vyh 1
▁reakt 1
▁tarkoit 1
▁bereiken 1
▁objectives 1
▁Binnenmarkt 1
áért 1
▁1999 1
▁mely 1
▁fully 1
▁ponow 1
▁kontakt 1
▁regulamento 1
▁прилагането 1
tał 1
hält 1
▁palj 1
▁Výboru 1
▁înseamnă 1
▁икономика 1
▁kliimamuut 1
▁prihodnosti 1
▁ACP 1
▁rea 1
▁druga 1
▁alcune 1
▁подходя 1
▁technologie 1
▁националните 1
▁0, 1
ensus 1
▁less 1
▁czasu 1
▁izmed 1
▁lähen 1
▁balance 1
▁contrario 1
▁krat 1
▁rozd 1
▁mikro 1
▁soovit 1
▁seneste 1
▁borgerne 1
▁evropsko 1
▁potrebujemo 1
ites 1
orie 1
örög 1
▁stap 1
▁suud 1
waarden 1
▁Therefore 1
▁aw 1
▁ts 1
▁Раз 1
▁alteração 1
▁porozumienia 1
каже 1
▁Lop 1
▁elec 1
▁lidé 1
▁огро 1
▁ungar 1
▁teinud 1
▁decyzji 1
▁pragmat 1
▁Grupului 1
▁integrat 1
ващи 1
▁Wort 1
▁Belgi 1
▁příliš 1
▁toimiv 1
▁Mediter 1
▁asianmuk 1
▁măsurile 1
čí 1
▁ran 1
▁sead 1
▁intend 1
▁prospě 1
▁entistä 1
сро 1
▁Rec 1
▁вид 1
▁високо 1
▁Komisar 1
▁steunen 1
▁partecip 1
▁сближаване 1
▁verordening 1
oszt 1
▁ONU 1
adele 1
чното 1
▁domeniu 1
▁razprava 1
▁arbejdstag 1
gabe 1
широ 1
▁Eur 1
▁haz 1
onego 1
órios 1
▁bele 1
▁наблю 1
ško 1
▁Sub 1
odată 1
regel 1
uihin 1
▁bron 1
gelegt 1
iteten 1
▁Mislim 1
▁Second 1
▁nových 1
▁rozpočt 1
łym 1
▁ecc 1
▁opr 1
laaju 1
▁sean 1
ativen 1
▁behoef 1
▁gesteld 1
▁zostały 1
▁procesul 1
▁propunere 1
▁Kolleginnen 1
▁Internacional 1
őt 1
rijk 1
▁pys 1
ovani 1
▁otev 1
голяма 1
▁Kuten 1
▁saavutt 1
▁consumers 1
▁ky 1
орди 1
▁sac 1
skiej 1
▁meid 1
▁step 1
▁Jeśli 1
▁beide 1
▁criza 1
▁nujno 1
védelmi 1
▁inimesed 1
▁provádění 1
itk 1
ита 1
nemen 1
ículo 1
▁Mich 1
▁pescu 1
▁taler 1
▁reducir 1
▁täiesti 1
▁fenntartható 1
▁solidariedade 1
ès 1
uház 1
lando 1
▁jedr 1
▁semana 1
▁uddann 1
▁Yhdisty 1
▁Regionen 1
▁Mc 1
uttava 1
▁verde 1
▁olukord 1
▁posamez 1
▁tapauksessa 1
ljuč 1
zato 1
▁præ 1
ilien 1
ándor 1
шенията 1
▁teritori 1
rien 1
▁ryb 1
ektet 1
isenä 1
▁kilka 1
▁kindlasti 1
▁Abstimmung 1
▁képviselőt 1
uper 1
való 1
▁azi 1
▁além 1
rantes 1
spolit 1
üsteem 1
▁zasady 1
▁rappresenta 1
▁ringraziare 1
ague 1
amet 1
▁adó 1
▁izob 1
▁tarj 1
▁őket 1
▁dobre 1
▁regel 1
cyjnych 1
▁lassen 1
▁segunda 1
▁interior 1
▁támogatás 1
▁Entwicklungs 1
burg 1
ttää 1
ložit 1
▁Harm 1
▁izved 1
▁versu 1
▁cohesion 1
▁internal 1
▁informacij 1
▁partnerství 1
▁soudržnosti 1
owod 1
▁elka 1
▁estat 1
▁Vorschläge 1
▁aangenomen 1
anji 1
atív 1
udes 1
▁Col 1
▁zone 1
▁niezw 1
▁poată 1
▁acerca 1
▁overtu 1
▁teksti 1
▁стабил 1
wel 1
rede 1
▁Lond 1
▁hõlm 1
▁Tästä 1
▁aspek 1
▁credit 1
▁uitdag 1
▁geweest 1
▁przewid 1
▁reconoc 1
▁urgente 1
▁organism 1
▁sprijinul 1
▁standpunt 1
▁klíč 1
▁Balkan 1
▁vantag 1
▁участи 1
▁Bevölker 1
▁Afganistan 1
entlig 1
▁vigil 1
▁sobret 1
временно 1
▁comunitar 1
▁menettely 1
inat 1
adzam 1
▁posí 1
▁uważ 1
▁obten 1
▁счита 1
▁tuotte 1
▁finančne 1
▁raportis 1
▁decisiones 1
ño 1
řím 1
ören 1
▁Poz 1
innan 1
▁край 1
abhäng 1
▁poist 1
▁interc 1
▁Tahaksin 1
▁Verenigde 1
▁kuitenkaan 1
▁élelmiszer 1
▁резолюцията 1
kseen 1
▁Wach 1
▁okoz 1
▁pena 1
▁uzav 1
▁ühis 1
ниците 1
▁aprop 1
▁prete 1
▁seega 1
▁swoich 1
▁противо 1
▁mezőgazdasági 1
sty 1
▁gå 1
likke 1
▁регу 1
▁demokrati 1
▁subliniez 1
▁transform 1
mea 1
▁duas 1
▁free 1
▁prvi 1
▁Tiszt 1
▁konsek 1
▁teiste 1
▁Francia 1
▁importa 1
▁szegény 1
▁sobretudo 1
ětí 1
▁Nõ 1
▁Bef 1
▁Wer 1
ergie 1
ávají 1
ферен 1
▁пови 1
стопан 1
▁dürfen 1
▁gospodarczej 1
ге 1
ajal 1
vand 1
▁nyug 1
▁halua 1
▁pitää 1
вол 1
romě 1
▁syg 1
▁børn 1
niając 1
▁miesi 1
▁demost 1
▁afaceri 1
▁gemacht 1
▁systeem 1
▁volgens 1
▁podpiram 1
▁posición 1
▁Gemeinschaft 1
bert 1
iség 1
orth 1
▁houd 1
▁belső 1
▁itali 1
▁където 1
▁konkurrence 1
▁situationen 1
▁Prote 1
▁muist 1
▁asegurar 1
▁sõl 1
itsem 1
wicht 1
iszter 1
▁betal 1
▁bezpo 1
▁encou 1
▁народ 1
▁omfatt 1
▁dibattito 1
▁solidaridad 1
illi 1
ufen 1
▁liit 1
▁fondo 1
▁същото 1
▁conferen 1
▁gebieden 1
▁seetõttu 1
▁dergelijke 1
▁sicherzustellen 1
▁Garr 1
▁auto 1
▁valt 1
▁смет 1
iteits 1
▁notwendig 1
▁stabilità 1
▁trabalhar 1
vek 1
▁ét 1
▁Repub 1
▁fuldt 1
▁figyel 1
▁komise 1
▁državam 1
▁vytvoření 1
erve 1
спекти 1
▁Credo 1
▁Ennek 1
▁gdzie 1
▁opredel 1
▁overheid 1
▁figyelmet 1
▁población 1
ané 1
тек 1
culos 1
▁innow 1
▁гласувах 1
▁Grundlage 1
▁parteneri 1
▁lähestymist 1
▁mét 1
▁estrem 1
▁punerea 1
▁zostanie 1
aire 1
akte 1
▁escu 1
▁celem 1
▁salud 1
▁testo 1
meerika 1
▁Jestem 1
▁design 1
▁corresp 1
▁sisämar 1
▁aktuelle 1
élj 1
rotz 1
landene 1
▁tenden 1
▁регионал 1
▁Sev 1
▁taka 1
▁znal 1
▁merkittävä 1
▁noodzakelijk 1
▁Tal 1
okban 1
▁pool 1
usväär 1
▁ilegal 1
▁invece 1
nénk 1
ória 1
attom 1
▁parlement 1
вън 1
▁dorim 1
reszcie 1
▁dinero 1
▁nõukog 1
▁problemów 1
▁referitor 1
▁tyytyväinen 1
airs 1
olet 1
riisi 1
▁materi 1
▁otázku 1
▁løsning 1
▁verbeteren 1
▁независимо 1
▁felülvizsgál 1
nico 1
tunk 1
ëren 1
▁žal 1
joitt 1
étele 1
▁muita 1
▁Haushalts 1
zul 1
зне 1
▁Kat 1
jenih 1
▁vero 1
▁transf 1
▁усилия 1
▁smlouvy 1
▁mietinnössä 1
ropon 1
▁julg 1
▁kern 1
ically 1
▁tööst 1
▁Поради 1
▁състоя 1
▁solução 1
▁strategic 1
▁agricultural 1
▁avv 1
orium 1
wania 1
▁mělo 1
▁temi 1
▁Estoy 1
schafts 1
▁Rådets 1
▁päätök 1
▁reserv 1
▁Ministro 1
▁kohaselt 1
▁korostaa 1
▁Arbeitspl 1
▁tarvitaan 1
▁Entscheidung 1
yo 1
resso 1
▁üdvöz 1
▁conden 1
▁Uniónak 1
▁obligator 1
śród 1
▁Bed 1
▁dyn 1
ształ 1
▁pace 1
▁Като 1
▁deplin 1
▁módosít 1
▁redução 1
▁ühtekuuluv 1
zí 1
▁Vă 1
▁měs 1
▁frequ 1
▁taking 1
▁puheenvu 1
▁solución 1
▁разглежда 1
▁employment 1
ždy 1
niza 1
wohl 1
▁celot 1
▁pueda 1
▁teitä 1
▁začet 1
▁încăl 1
▁betyder 1
▁uporabo 1
▁kinderen 1
▁Verpflicht 1
luv 1
ssa 1
▁okt 1
▁henh 1
▁vielen 1
ensstemm 1
▁spl 1
▁pitk 1
▁problemele 1
ics 1
▁io 1
▁meus 1
▁zwar 1
▁obejm 1
▁vztah 1
▁Martin 1
▁arengu 1
▁algunas 1
▁selgelt 1
▁енергия 1
▁demasiado 1
▁финансиране 1
isiaj 1
▁prea 1
▁concord 1
▁említett 1
▁gyakorlat 1
▁varmistaa 1
▁klimaatverand 1
umme 1
▁обя 1
▁unijo 1
øbenhav 1
▁alusel 1
▁kérdést 1
▁spremen 1
▁resnično 1
▁felicitar 1
▁sustainable 1
сем 1
elfen 1
gaben 1
▁Uniti 1
▁dient 1
▁mõjut 1
▁zapob 1
▁korist 1
▁Há 1
▁Sel 1
▁диа 1
▁pogo 1
▁tood 1
▁нача 1
▁uusia 1
rijding 1
▁combate 1
▁sopimus 1
▁sporazuma 1
ënt 1
▁Tu 1
▁szen 1
niejsze 1
▁impatto 1
▁concerned 1
▁podstawowych 1
▁Sr 1
▁ajan 1
▁down 1
fortun 1
▁resto 1
▁рамка 1
▁bekæmp 1
▁растеж 1
▁positiva 1
▁rõhutada 1
üket 1
▁Tar 1
▁доку 1
▁Mercos 1
▁kollegat 1
▁Klimawand 1
▁Chciałabym 1
▁öffentlichen 1
ským 1
▁käyn 1
▁velice 1
▁bevolking 1
▁oplysninger 1
▁environmental 1
kot 1
annt 1
chia 1
amped 1
▁álló 1
ezioni 1
▁chang 1
▁полож 1
▁smislu 1
▁korrald 1
▁Gal 1
▁Nav 1
▁wsk 1
zicht 1
▁zákon 1
▁Както 1
▁elektr 1
▁dialogu 1
▁industry 1
gra 1
anej 1
▁Teh 1
▁svob 1
▁marad 1
▁modul 1
▁debata 1
▁forder 1
▁gestão 1
▁érvény 1
▁Contudo 1
▁промени 1
▁președintă 1
▁samhørighed 1
ážen 1
▁pocz 1
▁коорди 1
▁sektora 1
▁soddisf 1
▁разпоред 1
▁dovrebbero 1
inas 1
▁begins 1
▁convin 1
▁puesto 1
▁területén 1
schließlich 1
▁nødvendige 1
vast 1
▁țări 1
▁зада 1
itting 1
▁condiv 1
▁pripom 1
opimuksen 1
▁Tra 1
няване 1
▁Integ 1
▁Unido 1
▁verzoek 1
▁perspekt 1
▁Lisabonské 1
▁ugyanakkor 1
▁селскостопан 1
работ 1
▁bind 1
▁sagde 1
▁vamos 1
jenigen 1
▁elkaar 1
▁manter 1
ierungen 1
▁entwick 1
▁puudutab 1
▁produktów 1
liż 1
▁Eb 1
reden 1
▁Kore 1
▁rast 1
entlich 1
▁sprejeti 1
▁икономическа 1
▁sé 1
▁jäs 1
▁Text 1
▁larg 1
yki 1
▁dva 1
▁gæl 1
apuol 1
centr 1
▁felé 1
entras 1
▁falar 1
▁protek 1
▁origine 1
▁esencial 1
atyw 1
▁Jul 1
▁bune 1
▁sede 1
▁týká 1
▁Peame 1
▁îngrij 1
▁търговия 1
óź 1
▁lys 1
iseid 1
▁apar 1
▁nauk 1
▁oček 1
▁miesz 1
▁centro 1
▁samalla 1
▁yhdessä 1
▁pomemben 1
▁verplicht 1
uva 1
itie 1
kább 1
▁reduz 1
▁подпо 1
▁fördern 1
hõ 1
aps 1
endt 1
eitos 1
▁nõus 1
▁Dritt 1
merksam 1
▁rozwój 1
▁teguts 1
▁enfrent 1
▁proprie 1
▁ontwikkelings 1
čné 1
▁важна 1
▁nekaterih 1
▁mei 1
скоро 1
imismo 1
▁poter 1
▁Kompro 1
▁direkte 1
▁handling 1
erő 1
▁draw 1
▁eduk 1
▁weder 1
▁scopul 1
▁perusteella 1
▁cy 1
idor 1
▁тра 1
▁camp 1
cedure 1
▁kaksi 1
▁minul 1
▁граждан 1
▁producten 1
▁precisamente 1
wał 1
мага 1
▁elé 1
▁encu 1
▁aufgrund 1
see 1
преки 1
▁bada 1
▁rang 1
utakse 1
▁cinco 1
▁Gebiet 1
▁celoti 1
▁określ 1
▁vorgesch 1
▁inspanningen 1
fes 1
řad 1
▁næste 1
▁zlepšení 1
▁предприе 1
atsächlich 1
▁dagsorden 1
orban 1
▁egal 1
▁Lamped 1
▁periode 1
▁wolności 1
▁apresentar 1
entas 1
▁liet 1
▁Polit 1
▁stanno 1
▁zasadnic 1
ties 1
▁Aff 1
▁Stat 1
▁date 1
▁full 1
▁препо 1
▁trzeba 1
▁udział 1
▁предви 1
vář 1
zug 1
veljav 1
▁actie 1
▁rolli 1
▁Odbora 1
▁całkow 1
▁miejsc 1
▁seguito 1
▁weitere 1
▁bevorderen 1
▁lehetőséget 1
▁taná 1
ariato 1
▁altid 1
▁deriv 1
▁increasing 1
▁udg 1
▁motor 1
▁допри 1
▁Questa 1
▁deutlich 1
▁законодателство 1
АЩ 1
šší 1
▁PN 1
elly 1
függ 1
intr 1
▁Zar 1
▁přid 1
▁riit 1
▁szig 1
▁Notwend 1
▁another 1
▁fiscale 1
▁szolidar 1
▁konkurenč 1
leks 1
▁chci 1
▁cauza 1
▁minut 1
▁posta 1
▁момент 1
▁istniej 1
▁waarvan 1
▁neuvottel 1
jajo 1
▁alati 1
▁potre 1
▁ukrepi 1
▁aiheutt 1
▁preciso 1
akk 1
orú 1
▁kuluttaj 1
▁maailmanlaaju 1
▁sehen 1
▁genere 1
▁naszym 1
▁občany 1
▁въпреки 1
here 1
rice 1
▁Rev 1
▁gehe 1
▁manj 1
▁susp 1
ilatkoz 1
▁igazság 1
▁elemento 1
▁kontroll 1
▁wsparcia 1
▁occasione 1
PA 1
nä 1
ži 1
▁Ucra 1
žnosti 1
▁Klaus 1
erdings 1
▁seadus 1
▁úm 1
renz 1
▁flo 1
▁costi 1
▁opmer 1
▁finden 1
▁términ 1
▁oblaste 1
▁organizaci 1
▁ци 1
вяне 1
▁eig 1
▁acción 1
▁kommen 1
▁tartalmaz 1
▁Dou 1
▁Tag 1
▁обра 1
▁izdel 1
▁fremtiden 1
hmä 1
ize 1
şit 1
▁насе 1
▁anual 1
▁rozum 1
▁Artikel 1
▁писмена 1
▁последи 1
▁ellenére 1
▁justific 1
ruk 1
riis 1
țele 1
▁vzn 1
▁võtma 1
▁целия 1
ycznego 1
▁jogalkot 1
▁companies 1
▁interesses 1
izmu 1
▁celé 1
▁okto 1
▁vaar 1
▁large 1
▁passado 1
▁jurídica 1
▁naprawdę 1
▁portanto 1
▁kaubandus 1
óp 1
erw 1
▁dign 1
▁nejd 1
▁sozi 1
▁gerade 1
▁korost 1
▁promuovere 1
▁politycznych 1
ité 1
ość 1
toe 1
▁Bul 1
▁hard 1
▁2010. 1
▁inkább 1
▁eigenen 1
▁ken 1
▁Dial 1
▁vaes 1
▁among 1
▁Moldova 1
▁crianças 1
▁възможността 1
øse 1
▁moč 1
▁САЩ 1
estos 1
▁indgå 1
▁always 1
▁verschiedenen 1
upa 1
rovi 1
eltre 1
▁jõud 1
regist 1
▁ordem 1
▁szintű 1
ivu 1
anik 1
рните 1
▁erinev 1
▁innymi 1
▁África 1
▁Gelegen 1
▁juurdepää 1
▁oblastech 1
▁eforturile 1
▁gennemsigt 1
ozu 1
▁Volk 1
▁efica 1
itățile 1
▁nejsou 1
▁oznacza 1
▁Interessen 1
▁konkurencyj 1
▁mogelijkheid 1
atia 1
ácia 1
▁impr 1
▁исти 1
▁salut 1
vorsitz 1
▁części 1
▁cohesie 1
▁proposed 1
▁onderwerp 1
jati 1
▁vst 1
▁пов 1
misel 1
▁lucht 1
▁näitä 1
▁aidata 1
▁miljon 1
▁wszelk 1
▁myndigheder 1
▁Nut 1
▁Need 1
▁beit 1
▁Fundo 1
▁consumo 1
▁maailmas 1
▁przedsta 1
рак 1
▁Kõ 1
aron 1
reno 1
ktiiv 1
▁Them 1
▁hakk 1
zetten 1
▁ellos 1
▁krisen 1
▁mitään 1
▁competencia 1
cat 1
olni 1
▁hver 1
▁zároveň 1
õe 1
jában 1
▁hans 1
ńskiej 1
▁kerran 1
▁schvál 1
▁dispozi 1
▁бюджета 1
▁техните 1
▁některých 1
▁valutazione 1
eck 1
íti 1
ined 1
szcz 1
ively 1
▁Dubl 1
▁Näin 1
▁anál 1
▁asut 1
▁teoll 1
▁välis 1
▁valtion 1
geh 1
тия 1
▁boh 1
▁hón 1
▁oot 1
▁väk 1
▁řeč 1
cerea 1
▁etab 1
▁estud 1
▁области 1
▁guarantee 1
▁management 1
ин 1
cate 1
▁råd 1
▁ţară 1
▁donde 1
▁močno 1
▁заклю 1
▁kisebb 1
▁ljudje 1
▁spremlj 1
rum 1
jest 1
▁Nap 1
▁fly 1
▁souč 1
▁dobře 1
▁equal 1
▁risco 1
▁bevoegd 1
▁Ugyanakkor 1
▁мл 1
▁jag 1
▁paar 1
▁całej 1
▁dyskus 1
▁incluir 1
▁schwier 1
▁zunanje 1
▁mennessä 1
▁priorite 1
▁sănătate 1
▁toiminta 1
▁government 1
▁extremamente 1
▁institutioner 1
győ 1
arbejd 1
áticas 1
▁2009. 1
▁Toivon 1
▁frihed 1
▁complic 1
▁resultater 1
inho 1
▁Ezt 1
ertijd 1
▁během 1
▁saanud 1
▁kustann 1
▁probabil 1
▁programm 1
ąć 1
iat 1
atro 1
ynyt 1
▁400 1
▁hún 1
▁idet 1
▁ming 1
▁conoc 1
▁kateg 1
▁често 1
▁kræver 1
▁otetaan 1
▁Forschung 1
▁conformitate 1
▁Vo 1
cken 1
elua 1
erse 1
▁Emp 1
aksid 1
▁fred 1
▁fosse 1
▁Schritt 1
▁insieme 1
▁pogodbe 1
▁přijmout 1
▁keresztül 1
▁prohlášení 1
abel 1
leda 1
вено 1
▁nieuw 1
evät 1
idem 1
▁Aby 1
▁lob 1
▁мина 1
▁depend 1
▁престъп 1
▁kindlust 1
▁jäsenvaltioissa 1
apac 1
rácia 1
▁diag 1
▁vaak 1
▁vitt 1
rechts 1
skrise 1
▁nature 1
▁respecta 1
▁intensific 1
alset 1
▁Qual 1
▁dens 1
▁forn 1
▁tehn 1
▁build 1
ionează 1
▁eesistujari 1
acy 1
▁BE 1
▁EK 1
lemk 1
▁paran 1
▁добро 1
▁трети 1
▁преговорите 1
▁Notwendigkeit 1
laub 1
стан 1
▁ene 1
▁anmod 1
▁domin 1
▁najlep 1
▁katerega 1
▁политики 1
énd 1
anse 1
ruch 1
▁śred 1
▁извън 1
▁formas 1
▁nadaljev 1
▁oikeudell 1
▁trasporto 1
▁finanziario 1
žití 1
▁zwe 1
▁jedna 1
▁важни 1
▁eeskirj 1
ejä 1
řes 1
kuse 1
▁Dov 1
▁Elő 1
oldal 1
▁diferite 1
▁existentes 1
EC 1
sza 1
▁avt 1
kning 1
▁czym 1
▁řekl 1
▁реал 1
▁nalož 1
▁assess 1
▁njihov 1
▁Partido 1
▁trgovin 1
▁concreto 1
▁razpravo 1
▁Förderung 1
▁Stockholm 1
▁стандарти 1
▁državljani 1
▁mahdollista 1
▁ps 1
ливо 1
ativă 1
ésével 1
▁cient 1
▁hjælp 1
▁tööhõ 1
▁komissiota 1
▁europejskim 1
▁jąd 1
▁chor 1
▁niew 1
▁kõigi 1
▁ollen 1
łącz 1
wegen 1
▁újra 1
▁Deshalb 1
▁kaikkea 1
▁considerar 1
▁vooruitgang 1
üle 1
seda 1
urali 1
▁supl 1
▁разши 1
▁ambiti 1
▁siendo 1
▁zdrojů 1
▁edistää 1
▁razmere 1
▁terwijl 1
▁transak 1
▁vlastní 1
▁нали 1
▁trest 1
▁työtä 1
▁großen 1
▁reducere 1
▁commercio 1
▁industrie 1
gs 1
elent 1
▁Grün 1
ittely 1
▁manjš 1
▁bereit 1
▁settim 1
▁čeprav 1
▁Programm 1
▁existente 1
▁konsumentów 1
eito 1
като 1
▁původ 1
▁szczy 1
genomen 1
ostante 1
▁Barrot 1
▁důvodu 1
▁helfen 1
▁coresp 1
▁offici 1
▁prilag 1
▁relevant 1
▁tidspunkt 1
hop 1
ségek 1
▁lume 1
arenza 1
▁konst 1
▁друже 1
▁forest 1
▁raames 1
▁polgára 1
▁Komissio 1
▁võimalus 1
▁wspólnej 1
▁intézmények 1
aby 1
schen 1
▁okaz 1
▁Lopuksi 1
▁předpisy 1
meg 1
hely 1
embre 1
ţelor 1
▁спаз 1
▁solid 1
▁energiat 1
▁tegemist 1
▁toezicht 1
▁întrucât 1
▁something 1
▁Bedingungen 1
▁ní 1
saft 1
▁tveg 1
▁powinien 1
▁interpret 1
▁îmbunătăţi 1
▁Til 1
▁key 1
astrop 1
▁Przed 1
▁passen 1
▁momentul 1
niž 1
ple 1
őri 1
arci 1
usal 1
▁ina 1
▁upr 1
luiten 1
fordert 1
product 1
▁ultimi 1
▁puolust 1
▁törvény 1
▁poszczegól 1
зва 1
▁Bow 1
▁aiut 1
▁odob 1
▁svar 1
▁welke 1
▁změny 1
▁loodan 1
▁твърде 1
▁příprav 1
▁намаляване 1
řil 1
мни 1
ände 1
▁dna 1
▁indú 1
ellaan 1
▁bürok 1
▁osnov 1
▁combust 1
▁znamená 1
▁právních 1
▁ź 1
▁чи 1
дени 1
▁kid 1
▁tih 1
▁ofte 1
▁trak 1
▁функ 1
▁funding 1
▁kolmand 1
▁õiguste 1
▁zobowiąz 1
igos 1
▁vaše 1
▁forni 1
▁zagroż 1
▁improve 1
▁interés 1
▁Københav 1
▁milionów 1
▁intereses 1
▁javaslatot 1
bef 1
▁Rem 1
koord 1
▁alak 1
▁exerc 1
▁kakov 1
▁saame 1
▁stress 1
▁allgeme 1
▁rešitev 1
ein 1
улту 1
▁rib 1
ländern 1
▁preved 1
▁zvlášt 1
▁aquellos 1
▁milijonov 1
▁progressi 1
▁atom 1
zystać 1
▁arend 1
▁short 1
ists 1
stein 1
▁gente 1
ficação 1
▁predlož 1
▁betekent 1
▁geworden 1
▁kwesties 1
ried 1
▁Rel 1
▁envi 1
▁varj 1
▁ülés 1
delige 1
erimis 1
reding 1
▁koncu 1
▁korral 1
▁mentre 1
▁ohledem 1
▁ресурси 1
▁overensstemm 1
▁gennemførelsen 1
▁iv 1
ilen 1
вест 1
▁dik 1
▁rég 1
▁legn 1
▁nimi 1
▁ribi 1
iscono 1
▁седми 1
▁emphas 1
▁riigid 1
▁действ 1
▁Bekämpfung 1
▁raggiungere 1
ři 1
kus 1
▁Ме 1
niük 1
▁Nos 1
▁řád 1
▁Most 1
▁wijz 1
▁Carta 1
▁futura 1
▁concerns 1
▁recordar 1
▁Transport 1
▁państwami 1
▁tapasztal 1
elijkertijd 1
▁maatschapp 1
aro 1
▁Ot 1
▁rod 1
▁trd 1
regul 1
værre 1
▁Natur 1
▁минист 1
▁termijn 1
▁podmínky 1
øm 1
▁fis 1
ettev 1
mniej 1
▁grat 1
imatta 1
mechan 1
▁întreg 1
▁Diskuss 1
▁технологи 1
▁sodelovanja 1
AF 1
aman 1
otoč 1
▁Pog 1
itaan 1
▁belg 1
▁tornar 1
▁conclud 1
▁konvent 1
▁przemys 1
▁demokracji 1
bro 1
вена 1
▁Che 1
▁vest 1
▁kasvu 1
leisten 1
▁Kinder 1
▁mandat 1
▁things 1
▁niezależ 1
▁progetti 1
▁разполага 1
▁solidaritet 1
note 1
álně 1
▁José 1
▁pueb 1
▁Exter 1
▁запла 1
▁Goldst 1
▁Verhof 1
▁powodu 1
▁zarządzania 1
gern 1
zaak 1
▁Lie 1
ensen 1
▁adem 1
▁beny 1
▁muret 1
▁Kosten 1
▁concer 1
▁einzel 1
▁communic 1
▁avaliação 1
▁standarde 1
▁equilibrio 1
▁fogyasztók 1
vorschriften 1
hers 1
ided 1
wiek 1
▁apă 1
▁bos 1
▁1990 1
▁conced 1
▁consig 1
▁képvis 1
tyw 1
uvan 1
fizet 1
zijds 1
ščine 1
▁Rahv 1
▁czasie 1
▁fronter 1
▁pozwoli 1
▁schnell 1
▁Verhofst 1
juks 1
ätön 1
▁hát 1
abban 1
evole 1
▁Cuba 1
▁arvo 1
▁vůči 1
▁fizet 1
▁inmig 1
▁rozší 1
▁wyraż 1
▁konsol 1
▁margin 1
▁markkino 1
▁Beziehungen 1
wencji 1
▁cerca 1
▁gospa 1
▁potek 1
▁steht 1
▁többség 1
▁produção 1
▁Millionen 1
▁záležitosti 1
mpe 1
▁Бе 1
▁výz 1
лните 1
▁fail 1
▁инова 1
▁própri 1
▁possano 1
▁Vertrags 1
▁representantes 1
▁sij 1
ozici 1
▁chelt 1
▁elmúlt 1
biztonság 1
▁problémák 1
verv 1
stven 1
▁pues 1
▁sterk 1
▁życia 1
sprechen 1
▁milionů 1
▁principios 1
łod 1
▁fas 1
▁gea 1
schod 1
▁rein 1
▁акти 1
▁wijzen 1
udvalget 1
▁verkiez 1
▁reforçar 1
▁PNR 1
adnje 1
genen 1
▁Anst 1
▁Mund 1
▁findes 1
▁ohledu 1
▁preferen 1
▁pracovních 1
▁Společenství 1
▁gewährleisten 1
▁vorgeschlagen 1
mozd 1
ński 1
▁udě 1
▁võr 1
▁první 1
▁sería 1
▁verur 1
avaltio 1
▁pestic 1
▁esetben 1
▁въвежда 1
æv 1
hel 1
atot 1
ivní 1
пани 1
ottak 1
▁radi 1
▁zorg 1
▁forne 1
▁tutta 1
▁riikides 1
чевид 1
▁vlad 1
ership 1
▁Daten 1
▁Todos 1
▁debba 1
▁esprim 1
▁niciun 1
▁migliore 1
▁постигнем 1
▁eurooppala 1
iras 1
▁11. 1
▁bűn 1
▁izg 1
▁два 1
▁обър 1
▁укре 1
werken 1
▁zabez 1
▁demand 1
▁nadalj 1
▁aproxim 1
▁henhold 1
▁request 1
▁правила 1
koht 1
▁Kül 1
▁Ungar 1
ziening 1
▁Turkmen 1
▁peaksid 1
▁tasolla 1
▁osiągnąć 1
▁religios 1
▁projectos 1
▁általános 1
▁waarborgen 1
oló 1
orgung 1
arbejdet 1
▁gezamen 1
▁quality 1
▁докладчика 1
▁европейска 1
kih 1
nea 1
▁hoge 1
tering 1
▁култу 1
▁centra 1
▁olukorda 1
▁partijen 1
▁viitoare 1
▁Bo 1
akka 1
ieri 1
owałam 1
▁These 1
▁coraz 1
▁Dialog 1
▁carbon 1
▁illeti 1
▁noudat 1
▁settori 1
▁dezbater 1
▁erityisen 1
▁proyectos 1
iaa 1
seg 1
krat 1
▁Acu 1
▁čez 1
nação 1
▁Krit 1
▁unas 1
▁verzo 1
▁loomis 1
▁complement 1
▁biztosítani 1
▁правителство 1
ква 1
niuk 1
▁zlo 1
▁изя 1
besch 1
ökoht 1
▁upam 1
▁deset 1
▁kívül 1
▁másik 1
▁sõnav 1
hatatlan 1
▁kontroli 1
▁politikker 1
▁Bizottságot 1
njem 1
▁foren 1
▁elismer 1
▁koskevia 1
▁developing 1
standigheden 1
▁PSE 1
▁dict 1
ásához 1
▁alueen 1
▁biolog 1
▁kateri 1
▁various 1
▁adottare 1
▁betrifft 1
▁kommende 1
▁forordning 1
praw 1
▁væs 1
▁dramat 1
▁läbipaistv 1
мах 1
ykép 1
шното 1
▁each 1
▁toid 1
▁zbyt 1
▁Tento 1
▁alust 1
▁dobrze 1
▁würden 1
▁съгласи 1
▁mecanismos 1
25 1
nél 1
itsi 1
▁wyb 1
▁svůj 1
▁konver 1
▁zaključ 1
▁requirem 1
▁yhteisen 1
MC 1
▁tager 1
▁vlády 1
▁vorba 1
▁pregunta 1
▁resolutsioon 1
etes 1
ührt 1
říve 1
пера 1
▁daň 1
ativi 1
ésben 1
▁Reform 1
arbeiten 1
▁popolnoma 1
▁specifieke 1
▁transfront 1
▁zapewnienie 1
hé 1
ítél 1
jenek 1
iembre 1
▁având 1
ruption 1
▁Kanada 1
▁efeito 1
▁închei 1
▁profund 1
▁odločitev 1
▁supliment 1
тът 1
▁Saks 1
▁egyé 1
▁ilmo 1
▁vyzý 1
▁Kohäs 1
▁zastos 1
▁stávající 1
▁autoriteiten 1
amm 1
iib 1
ína 1
граф 1
▁ley 1
stety 1
▁Kuid 1
▁Před 1
▁aner 1
▁järk 1
▁ness 1
▁pune 1
она 1
▁rév 1
▁съби 1
▁sodišč 1
▁egyetlen 1
▁estremamente 1
fang 1
észe 1
▁asum 1
▁mnoha 1
▁najważ 1
▁recess 1
▁stimme 1
▁eficien 1
▁obchodu 1
▁bevándor 1
▁kilpailuk 1
ąpi 1
▁bog 1
etech 1
▁aiko 1
▁hald 1
ceschop 1
▁Taiwan 1
▁beskytte 1
▁tájékoztat 1
▁possibilidade 1
▁sot 1
▁sue 1
▁Aula 1
▁erst 1
▁wdroż 1
▁Debemos 1
▁modifica 1
▁próximos 1
▁públicas 1
▁образова 1
isl 1
▁zuk 1
stria 1
▁мест 1
▁sisält 1
▁Madeira 1
▁concess 1
▁součást 1
▁demonstrat 1
▁hääletasin 1
▁Solidarität 1
véd 1
inţa 1
kirj 1
▁bás 1
ierać 1
ottam 1
▁диск 1
▁specul 1
▁target 1
äftigung 1
▁laus 1
▁voida 1
▁ulteri 1
enschaft 1
▁esittää 1
▁rozporządzenia 1
▁Ø 1
▁eth 1
ložen 1
▁Char 1
skaber 1
▁vyžad 1
▁Totuşi 1
▁săptăm 1
▁достатъчно 1
▁territorial 1
▁prů 1
▁еко 1
▁Zoals 1
▁Русия 1
▁Cancún 1
▁estrut 1
▁eventu 1
▁leggen 1
▁винаги 1
▁piccole 1
▁промишле 1
▁currently 1
lene 1
ustu 1
▁risc 1
▁encar 1
▁opnieuw 1
▁надявам 1
▁huomiota 1
▁kolleger 1
▁sprawied 1
▁intervento 1
öjen 1
▁obl 1
▁cílů 1
▁vých 1
▁indip 1
▁jeste 1
▁mietintöä 1
adern 1
omaan 1
spart 1
▁Emme 1
▁plur 1
stellt 1
▁lõpuks 1
▁Popular 1
▁assolut 1
▁wszyscy 1
▁Ei 1
▁ehk 1
▁cale 1
▁jopa 1
▁lett 1
▁reti 1
▁entrada 1
jar 1
ява 1
adem 1
nieje 1
▁Geld 1
ingute 1
▁jedin 1
▁quien 1
▁dovolj 1
кива 1
▁wyk 1
▁ansi 1
▁jõup 1
▁odpr 1
ículos 1
▁happen 1
▁spesso 1
▁előmozd 1
▁препоръ 1
▁amminist 1
▁stabiils 1
ningsforslag 1
▁EB 1
pper 1
▁дви 1
▁část 1
▁heaks 1
▁võiks 1
▁плаща 1
▁mislim 1
▁ratkaisu 1
▁zaposlov 1
ták 1
▁held 1
▁paso 1
urales 1
▁piaţa 1
▁révén 1
▁volte 1
▁combater 1
▁програма 1
▁tilstrækk 1
ezt 1
▁Но 1
ivit 1
zech 1
нови 1
äline 1
▁razv 1
▁appog 1
▁cosas 1
▁dalších 1
▁solution 1
▁moz 1
ächst 1
▁vuor 1
ließlich 1
▁potenci 1
▁pomembna 1
▁Assembleia 1
zuf 1
mest 1
▁read 1
ertura 1
▁indire 1
▁ultrap 1
▁csoport 1
ązań 1
бите 1
ctions 1
▁прераз 1
▁просто 1
▁evitare 1
▁käsitlev 1
▁Comisaria 1
▁szükségünk 1
▁konkurentsivõ 1
ll 1
▁Ц 1
tely 1
▁Antw 1
конкре 1
oración 1
▁opinia 1
▁straně 1
▁undert 1
▁țările 1
ariamente 1
▁kierunku 1
▁Yhdistyne 1
▁financeiros 1
▁buc 1
▁OSCE 1
▁Selv 1
▁află 1
▁muka 1
▁having 1
▁quelli 1
▁tiedot 1
▁nyilatkoz 1
▁produzione 1
▁Irak 1
éséhez 1
▁sicer 1
▁graves 1
▁pripor 1
▁protej 1
▁vytvář 1
▁райони 1
▁negocjacji 1
nat 1
▁pł 1
entä 1
raum 1
isiej 1
▁entsch 1
▁Această 1
▁members 1
▁párbesz 1
▁societă 1
▁sostenible 1
▁ху 1
mand 1
▁Bah 1
▁ней 1
▁depois 1
▁myslím 1
bek 1
yed 1
▁Aș 1
amaks 1
▁ocaz 1
▁terá 1
▁finder 1
▁määrat 1
▁financiering 1
били 1
▁nič 1
▁øge 1
ultur 1
▁uczy 1
▁Frank 1
▁realt 1
▁chtěla 1
▁koskevien 1
▁toepassing 1
▁completamente 1
▁лип 1
▁kraft 1
▁marca 1
▁pouco 1
▁tibet 1
▁започ 1
▁permanent 1
▁sostenibile 1
▁съответствие 1
dom 1
nad 1
asso 1
ehto 1
zeni 1
▁fejl 1
▁swoj 1
▁ugot 1
щността 1
▁possam 1
▁comprom 1
▁soziale 1
▁sooviksin 1
▁essenziale 1
krbl 1
▁Vab 1
▁nuk 1
▁Eine 1
▁bază 1
▁kwal 1
▁jätku 1
▁dochod 1
▁itself 1
▁delovnih 1
▁legislat 1
▁opmærksom 1
▁parliament 1
▁ettepanekut 1
▁põllumajand 1
SZ 1
▁gén 1
▁suut 1
▁conos 1
▁incom 1
▁panna 1
▁Izrael 1
▁předpisů 1
▁siguranţă 1
▁Wahl 1
▁pack 1
▁zwal 1
izmente 1
▁promet 1
▁wymaga 1
▁премах 1
▁înregist 1
▁Government 1
▁přesvědčen 1
▁predstavlja 1
vende 1
▁plně 1
▁trav 1
▁numer 1
owaniem 1
▁Barcel 1
▁betere 1
▁przesz 1
▁dovremmo 1
▁gehouden 1
▁obszarze 1
▁recomand 1
écia 1
izont 1
▁chce 1
▁johd 1
▁neil 1
▁pequeñ 1
▁punctul 1
▁Tisztelt 1
▁forskning 1
▁zajištění 1
aat 1
aso 1
▁byg 1
Europ 1
▁nichž 1
▁gruppi 1
▁zawsze 1
schaften 1
▁effetti 1
▁prestar 1
▁lihtsalt 1
▁compromet 1
▁osredotoč 1
▁regionális 1
▁solidariteit 1
doz 1
▁doj 1
▁sür 1
▁zaz 1
bourg 1
▁atto 1
▁udny 1
▁čest 1
▁2020. 1
▁bidrag 1
▁fordel 1
▁naiste 1
▁regler 1
▁ultima 1
▁vastust 1
▁decisões 1
▁eficient 1
▁Hääletasin 1
pul 1
ído 1
śle 1
▁obr 1
▁čim 1
▁Rússia 1
▁dostate 1
▁gospodu 1
▁mantener 1
▁käsitleva 1
▁Ens 1
▁Qui 1
▁dvě 1
nejše 1
▁ráda 1
▁паке 1
ensive 1
ătorii 1
▁usein 1
cimentos 1
▁effektivt 1
▁jõupingut 1
▁ordføreren 1
▁proporcionar 1
ać 1
ton 1
стри 1
▁ryhm 1
enteel 1
▁refere 1
▁saavad 1
▁suprav 1
▁întreaga 1
шето 1
▁Gewalt 1
▁koordino 1
▁înţ 1
▁peste 1
▁werde 1
itetaan 1
▁извърш 1
▁speciale 1
▁Transparen 1
▁liikmesriikides 1
ætt 1
ónia 1
▁poi 1
▁ydin 1
▁darin 1
adályoz 1
▁anders 1
▁jednym 1
▁økonomi 1
▁defender 1
▁polityka 1
▁facilitar 1
ągu 1
atom 1
áshoz 1
▁přiz 1
▁jadern 1
▁stedet 1
omisjoni 1
▁alueell 1
▁belangen 1
▁ostatnich 1
itettavasti 1
nore 1
▁bla 1
janje 1
▁wdraż 1
▁defend 1
▁kahden 1
▁method 1
▁Ratsvorsitz 1
ath 1
ogle 1
pios 1
рява 1
druck 1
▁Niem 1
▁alta 1
▁keht 1
▁läht 1
gebied 1
utions 1
ходите 1
▁estim 1
▁okolj 1
▁samym 1
▁geleden 1
▁pozytyw 1
▁premier 1
▁süsteem 1
▁ограниче 1
▁Bruxelles 1
töä 1
▁slab 1
▁juist 1
▁doporu 1
▁Komisjoni 1
▁gegenwärt 1
▁izvajanje 1
▁představuje 1
dea 1
óór 1
▁Bl 1
lade 1
▁hør 1
▁реа 1
▁jout 1
▁nauw 1
▁naša 1
▁Proua 1
▁teema 1
▁zasob 1
▁Erklär 1
▁adesão 1
▁võetud 1
éma 1
▁samas 1
▁bestaat 1
▁adesione 1
▁organizz 1
▁direktive 1
eet 1
▁åb 1
ileg 1
▁More 1
▁heik 1
▁dynam 1
▁måske 1
▁sotto 1
▁otázce 1
▁насили 1
▁Globalis 1
▁gebruikt 1
▁november 1
▁wszystko 1
▁Strasbourg 1
▁verbessern 1
▁przejrzysto 1
▁zatrudnienia 1
▁Cur 1
▁gav 1
▁důvě 1
▁vždy 1
uminen 1
▁langt 1
▁prorač 1
▁religi 1
stemming 1
▁względem 1
▁zmniejsz 1
▁työpaikko 1
▁particolar 1
▁инструмент 1
eči 1
мби 1
hhan 1
mään 1
uipp 1
upán 1
fører 1
atieve 1
▁upraw 1
▁vägiv 1
▁največ 1
▁päätöslauselma 1
▁nő 1
ciei 1
eniem 1
▁kock 1
▁отде 1
▁dagli 1
▁przes 1
▁zrobi 1
▁jesteśmy 1
▁стратеги 1
▁interinst 1
▁različnih 1
▁humanitaar 1
▁társadalom 1
▁versenykép 1
заи 1
ailm 1
ætter 1
▁Orosz 1
▁asiaa 1
▁äußer 1
▁landet 1
▁bistven 1
▁vahendeid 1
▁anvendelse 1
esch 1
aring 1
жения 1
▁luta 1
▁toţi 1
unauta 1
▁appar 1
▁optre 1
▁serão 1
▁overvå 1
▁vários 1
ölt 1
plice 1
▁Zahl 1
▁forf 1
hatjuk 1
isille 1
▁pracę 1
▁realtà 1
▁suuren 1
▁értelm 1
▁kritéri 1
▁initiative 1
▁comunicação 1
▁tin 1
elijo 1
pokoj 1
▁grens 1
▁hitro 1
▁käsittel 1
▁подчертая 1
▁gospodarsko 1
▁procedimiento 1
▁principalmente 1
oroč 1
ovar 1
▁pöö 1
▁märkim 1
▁konieczne 1
▁megfelelően 1
colo 1
ssel 1
▁rzą 1
taget 1
vação 1
▁toiv 1
▁hankke 1
▁целите 1
▁споразумения 1
opt 1
apta 1
oler 1
teid 1
▁Nor 1
▁yet 1
▁parha 1
▁szöveg 1
▁ebenfalls 1
mű 1
kező 1
▁abb 1
ícios 1
erland 1
▁Bielor 1
▁custos 1
▁hyödyn 1
▁koulut 1
▁partir 1
▁einigen 1
▁képviselők 1
▁konkurenceschop 1
▁Ще 1
мати 1
▁air 1
▁kiz 1
▁keel 1
▁dinhe 1
▁viser 1
▁moremo 1
immungen 1
▁adoptat 1
▁trasparenza 1
▁vonatkozóan 1
риз 1
▁Ihr 1
▁обх 1
alnej 1
▁indít 1
▁junto 1
ovanjem 1
ísticas 1
▁ambicióz 1
▁forslaget 1
▁transparencia 1
▁fj 1
▁lui 1
▁глед 1
▁Assim 1
æsident 1
▁Evropu 1
▁Pragnę 1
▁disposi 1
▁hurtigt 1
конкретно 1
▁Ameerika 1
▁assistance 1
úv 1
inţă 1
▁wyt 1
▁toch 1
▁circa 1
▁korzy 1
▁liegt 1
▁mekan 1
▁felhív 1
politika 1
▁iedereen 1
▁socialne 1
▁maatalous 1
▁Kommissarin 1
▁commissario 1
▁betrekkingen 1
▁представител 1
nog 1
▁Pom 1
▁nouă 1
▁rynk 1
▁schw 1
▁argom 1
▁otázka 1
▁vigore 1
▁facilit 1
▁sytuacja 1
▁poděkovat 1
▁forhandlinger 1
ském 1
▁Hor 1
integ 1
ítést 1
▁chie 1
itakse 1
▁ampli 1
▁draft 1
▁емиси 1
▁засегна 1
▁Udvalget 1
▁Gelegenheit 1
aix 1
▁wąt 1
▁chiaro 1
▁debido 1
▁kolman 1
▁geograf 1
▁pescuit 1
▁reduzir 1
▁przyjęcia 1
▁споразумението 1
tok 1
uds 1
örök 1
ativos 1
▁közül 1
▁často 1
▁диало 1
klaring 1
▁azioni 1
▁hiszen 1
▁Европейски 1
пло 1
presa 1
attava 1
wierdz 1
verkehr 1
▁sitout 1
▁temveč 1
▁своята 1
▁aloitte 1
▁gegeven 1
▁systems 1
▁organiza 1
▁stanowisko 1
▁Zá 1
féle 1
atura 1
mlich 1
éssel 1
▁Jean 1
lenség 1
ствени 1
ajandus 1
smarked 1
▁accett 1
▁modelo 1
▁зачита 1
▁verhind 1
▁důsledku 1
▁involved 1
▁społeczeństwa 1
ads 1
ějí 1
ican 1
usch 1
▁Mex 1
▁enn 1
▁imag 1
▁взаи 1
▁nezáv 1
▁pacch 1
▁encuent 1
▁процеса 1
▁ühenduse 1
▁предприема 1
▁zemědělství 1
kei 1
ůli 1
-200 1
cidos 1
▁Aber 1
▁Tech 1
▁ehkä 1
▁ofici 1
▁dessen 1
▁zastav 1
▁aspetto 1
▁estruct 1
▁próxima 1
▁coeziune 1
▁informace 1
▁въпросите 1
▁skutečnosti 1
▁Beschäftigung 1
роят 1
elect 1
▁gute 1
▁konč 1
▁интер 1
▁denken 1
▁práctica 1
▁felszólal 1
▁Vé 1
▁Pat 1
▁cant 1
▁kaug 1
isches 1
▁potem 1
▁такива 1
▁emergen 1
▁finaliz 1
▁libertă 1
▁przemoc 1
▁проведе 1
zd 1
ryb 1
acją 1
рени 1
▁Kor 1
▁Кон 1
▁quem 1
▁лица 1
iliśmy 1
▁libre 1
▁sveta 1
ældende 1
▁Ucraina 1
▁artículo 1
▁stališče 1
▁cooperarea 1
▁Аф 1
usst 1
łość 1
elaas 1
ňovat 1
▁Erit 1
▁médi 1
▁avail 1
▁opfyl 1
▁rolul 1
▁altura 1
▁gelegen 1
▁kriisin 1
▁articolo 1
▁duurzame 1
▁stabilitet 1
zák 1
сят 1
▁Над 1
hodob 1
▁pian 1
▁spot 1
▁welt 1
gifter 1
powied 1
▁tutaj 1
▁ridurre 1
▁riduzione 1
▁Seda 1
▁Serb 1
▁What 1
▁elei 1
▁nord 1
▁tipp 1
▁words 1
gevoerd 1
▁keinen 1
▁retning 1
▁действие 1
▁monitoriz 1
▁objective 1
▁Vereinigten 1
▁legislativa 1
kę 1
usätz 1
▁wyzw 1
emmist 1
▁acept 1
▁annab 1
▁josta 1
▁tukem 1
▁utrzym 1
▁zadnjih 1
▁členskými 1
▁utilizarea 1
miä 1
▁ply 1
ěkuji 1
▁Cong 1
▁taot 1
sector 1
▁baron 1
▁kuuka 1
▁pomanj 1
▁Acuerdo 1
▁digital 1
▁miejsce 1
▁dodatkow 1
▁precisamos 1
łud 1
ters 1
ştri 1
▁Tul 1
▁Isto 1
▁visz 1
▁vyst 1
ващите 1
▁posíl 1
▁obliga 1
▁volont 1
▁Unióban 1
▁dialogo 1
▁történt 1
▁hyväksyä 1
▁términos 1
▁resolucije 1
▁Abgeordneten 1
itto 1
▁unij 1
▁acele 1
▁krizo 1
▁sprze 1
▁defini 1
▁проект 1
▁doeltre 1
▁haluamme 1
▁bezpośred 1
▁sustentável 1
▁przedmiotowego 1
ako 1
ovým 1
rzeć 1
▁tasa 1
▁vorb 1
ración 1
▁valódi 1
▁zdraví 1
▁izobraž 1
▁communauta 1
▁Parlamentnek 1
kun 1
brug 1
uutt 1
▁Cam 1
ameni 1
ämään 1
зиден 1
gelegd 1
misestä 1
▁esitet 1
iket 1
jamo 1
ceria 1
▁beispi 1
▁jätkus 1
▁umožní 1
▁forvent 1
▁produse 1
▁ministro 1
▁prawodaw 1
▁terrorist 1
▁vigtigste 1
▁activitatea 1
▁demokraatia 1
▁transparência 1
▁Ev 1
iget 1
junk 1
нези 1
▁нито 1
▁közép 1
▁share 1
▁avanti 1
▁furniz 1
▁rybolov 1
▁function 1
aru 1
šir 1
klus 1
▁пое 1
unkte 1
▁dále 1
▁uute 1
acción 1
▁Chtěl 1
▁rammer 1
▁доведе 1
▁съвмест 1
▁controle 1
▁instytucji 1
izem 1
▁Вие 1
▁mulț 1
▁rather 1
▁случаи 1
▁työllis 1
▁järeleval 1
▁з 1
▁kla 1
▁ouv 1
untar 1
▁doch 1
▁life 1
▁kontyn 1
▁nebude 1
▁address 1
▁meetmed 1
fontosabb 1
▁exterior 1
▁podjetij 1
▁ressourcer 1
▁strategije 1
▁Bevölkerung 1
ăn 1
▁Verw 1
isella 1
▁entro 1
▁olevat 1
▁obstaja 1
▁solidaar 1
▁popolazione 1
▁Representante 1
▁Stä 1
aania 1
rozum 1
▁bamb 1
▁hebt 1
▁régió 1
idamente 1
▁Wachstum 1
▁valitsus 1
▁população 1
▁tulevikus 1
▁támogatást 1
amt 1
onej 1
▁Uma 1
ástro 1
▁sure 1
▁éxito 1
▁kontin 1
▁específicas 1
▁Arbeitnehmer 1
▁finansowania 1
▁legfontosabb 1
▁икономическо 1
▁internazionali 1
bau 1
hok 1
рана 1
krise 1
▁ajat 1
▁echte 1
▁ester 1
▁rapor 1
▁Strukt 1
▁osserv 1
▁новите 1
▁оценка 1
▁abandon 1
▁zwrócić 1
▁nekatere 1
▁personen 1
▁területen 1
chy 1
zip 1
▁ulkop 1
▁valim 1
▁zelen 1
▁Minder 1
▁respond 1
▁IN 1
▁jär 1
nione 1
▁zájmu 1
▁полза 1
łącznie 1
▁indisp 1
▁stessa 1
▁seuraav 1
▁ihmisten 1
▁konkreet 1
▁regeringen 1
bung 1
▁Ami 1
▁dezbat 1
▁groups 1
▁progra 1
▁single 1
▁Először 1
▁doświad 1
▁nämlich 1
▁uveljav 1
▁összefügg 1
▁amendments 1
1; 1
oucí 1
▁odz 1
▁нея 1
iilor 1
▁Rein 1
▁sără 1
▁unge 1
▁&#91; 1
▁temel 1
▁visok 1
▁întâm 1
▁vincul 1
▁prawdzi 1
▁otettava 1
▁resultat 1
▁tulevaisuudessa 1
▁izj 1
▁lez 1
loten 1
▁групи 1
▁prevoz 1
▁pridob 1
▁recomm 1
▁echilib 1
▁forhind 1
▁femeilor 1
▁intermedi 1
iono 1
irse 1
koli 1
▁often 1
▁viden 1
▁dinheiro 1
▁dlouhodob 1
uun 1
rajo 1
rods 1
ators 1
isväär 1
▁reforme 1
▁upravič 1
▁following 1
▁realizado 1
вобо 1
▁toc 1
▁megj 1
▁ocas 1
bocsát 1
▁Latin 1
▁außer 1
▁oameni 1
▁constant 1
▁olemassa 1
▁passende 1
▁Skupnosti 1
▁Verhofstadt 1
irá 1
▁ór 1
бата 1
blica 1
▁Disse 1
▁torej 1
▁uczest 1
▁võivad 1
▁colabor 1
▁könnten 1
▁semanas 1
vă 1
crat 1
▁enh 1
▁líder 1
▁salute 1
▁respeto 1
▁zaskrbl 1
▁commitment 1
ienz 1
▁Fam 1
▁nok 1
annat 1
čních 1
▁Wspól 1
▁esiin 1
▁medios 1
▁tratar 1
▁najprej 1
▁solamente 1
цин 1
klady 1
▁medie 1
▁pärit 1
▁obblig 1
▁beruház 1
▁różnych 1
▁mechanizm 1
отв 1
ули 1
▁Ru 1
itiiv 1
obern 1
igingen 1
▁csupán 1
▁geogra 1
▁Handels 1
▁Italien 1
▁catástro 1
▁previsto 1
▁desempenh 1
▁protecţia 1
evaar 1
▁Auch 1
▁luni 1
▁näha 1
itação 1
зиране 1
▁Unije 1
▁atmos 1
▁emissioni 1
▁pô 1
alap 1
▁sér 1
ękuję 1
▁bero 1
▁ambas 1
▁certa 1
▁invit 1
▁joten 1
▁požád 1
▁áldoz 1
▁avoimu 1
▁tasapa 1
▁acompan 1
▁produtt 1
▁results 1
▁pubblico 1
▁visserij 1
ută 1
▁Jan 1
▁Lud 1
▁řad 1
нения 1
▁bloc 1
▁moci 1
▁vale 1
▁oprind 1
▁parcei 1
▁naisten 1
▁прозрач 1
▁locale 1
▁posvet 1
▁pytanie 1
▁bijdrage 1
▁prezident 1
▁violência 1
▁resolucijo 1
yi 1
dre 1
▁BEI 1
▁Leg 1
▁jun 1
▁tõe 1
error 1
▁Mand 1
▁voord 1
▁chcemy 1
▁pachet 1
▁prevede 1
▁snížení 1
▁защитата 1
▁initiatief 1
▁изследвания 1
▁efectivamente 1
▁armo 1
hessen 1
setzen 1
▁sætte 1
▁оглед 1
▁kuning 1
▁precej 1
▁przyst 1
▁teille 1
ряването 1
▁dogovor 1
▁reformy 1
▁majority 1
▁meetmete 1
▁konkrétní 1
▁producción 1
iał 1
oltà 1
▁Lit 1
▁dub 1
▁eno 1
▁aján 1
▁subs 1
▁artigo 1
▁eneste 1
▁fellow 1
▁durabil 1
▁vogliamo 1
▁financeiro 1
bin 1
▁Ig 1
▁ге 1
▁woj 1
▁luft 1
▁Corte 1
▁molte 1
▁niños 1
▁beiden 1
▁hablar 1
▁zostać 1
▁ongelma 1
▁rischio 1
▁činnosti 1
▁Mitglieder 1
▁befolkning 1
▁finanziari 1
▁Oroszország 1
umisen 1
▁verke 1
▁моята 1
▁además 1
▁auttaa 1
▁niistä 1
▁dosegli 1
▁позиция 1
▁предотв 1
▁udviklings 1
▁Us 1
▁lá 1
užel 1
▁luce 1
conomic 1
▁õigust 1
▁problemy 1
▁zdravstven 1
ďar 1
aggi 1
lang 1
sted 1
▁Når 1
▁ata 1
▁Außen 1
▁pelig 1
▁sogar 1
▁normal 1
▁states 1
▁голяма 1
▁Asuntos 1
▁neodvis 1
▁електро 1
▁principali 1
▁consumatorilor 1
кога 1
рист 1
ífica 1
elmény 1
▁hitel 1
▁täiend 1
▁erhverv 1
▁mercati 1
▁osoittaa 1
▁palestin 1
▁различните 1
rosto 1
▁audi 1
▁недо 1
▁Neste 1
▁täisk 1
▁erfolg 1
▁esittä 1
▁spojen 1
▁behovet 1
▁legnagy 1
▁overbev 1
▁základní 1
▁entsprech 1
▁appropriate 1
▁Rig 1
▁Litu 1
▁aega 1
ителна 1
▁esses 1
▁kvalite 1
▁pravico 1
▁Vélemény 1
▁bedeutet 1
▁katerimi 1
▁свободата 1
▁европейско 1
▁finansiering 1
ěž 1
urii 1
▁trá 1
umaan 1
unkat 1
▁oživ 1
ásokra 1
▁bland 1
▁előre 1
▁besser 1
▁yhteen 1
alização 1
▁nemcsak 1
▁scienti 1
▁indispens 1
▁participar 1
edon 1
▁lav 1
▁Geor 1
▁darf 1
▁punti 1
▁vecin 1
▁keerul 1
▁længere 1
▁отговаря 1
▁wichtigen 1
▁Europejskim 1
▁europäischer 1
evalt 1
▁odrz 1
▁izjem 1
▁Zaradi 1
▁skupne 1
abkommen 1
▁podniků 1
▁dokumentum 1
тък 1
▁Mă 1
▁spop 1
essour 1
▁anume 1
▁nared 1
uksella 1
▁megelő 1
▁vastuvõt 1
zna 1
őbb 1
стъ 1
▁pé 1
iving 1
▁játs 1
▁horas 1
▁kapac 1
▁socio 1
▁Verfüg 1
▁realidad 1
▁ilmastonmuut 1
fera 1
asime 1
▁hran 1
▁vaal 1
▁koskevaa 1
▁изменение 1
▁членовете 1
agne 1
neje 1
▁Pie 1
▁inqu 1
чението 1
▁points 1
▁violen 1
▁Finally 1
▁pozitív 1
▁abordare 1
▁antwoord 1
▁chciałabym 1
iore 1
чават 1
▁aanv 1
▁реши 1
▁valti 1
▁elnöke 1
▁takist 1
▁desempe 1
▁tilanne 1
▁projects 1
▁sääntely 1
zahl 1
intia 1
vaart 1
▁игра 1
ranten 1
▁Themen 1
▁deverá 1
▁enkelt 1
▁formal 1
▁chestiune 1
▁zdůraznit 1
▁legnagyobb 1
lei 1
▁45 1
ized 1
▁seb 1
▁tit 1
itäts 1
▁Ansatz 1
▁sisser 1
▁Endelig 1
▁mentioned 1
▁egészségügyi 1
▁eur 1
▁bran 1
▁mart 1
▁oral 1
▁vall 1
▁vóór 1
▁ühin 1
▁Banco 1
▁Leben 1
▁reale 1
▁опера 1
▁doseči 1
▁jednou 1
▁materie 1
▁material 1
▁dejavnosti 1
▁гарантираме 1
ämä 1
udas 1
ársa 1
▁jiné 1
▁hästi 1
▁umfass 1
▁recommend 1
fas 1
ohta 1
▁opp 1
▁Тур 1
▁vice 1
▁benöt 1
▁emple 1
▁traff 1
ovaných 1
▁gælder 1
▁sollen 1
▁Statele 1
▁jakości 1
▁keskend 1
▁difficile 1
▁elecciones 1
▁икономическата 1
jim 1
▁UK 1
ewel 1
čnih 1
alismo 1
▁осъще 1
чаването 1
▁érintett 1
▁desenvolv 1
▁probleeme 1
▁commerciali 1
eras 1
íten 1
чния 1
▁Flug 1
oupení 1
▁Polen 1
▁lyset 1
▁балан 1
▁hatásk 1
▁sforzi 1
▁поздра 1
▁mniejsz 1
▁Interesse 1
▁violencia 1
otu 1
▁Dav 1
▁mohla 1
▁bemærk 1
▁drugie 1
▁embora 1
▁oprett 1
▁sovell 1
▁symbol 1
▁преговори 1
▁vergadering 1
pont 1
verm 1
▁kie 1
▁eelm 1
ритори 1
▁dosaž 1
▁kinni 1
▁stort 1
▁pozost 1
▁contrad 1
▁incident 1
pano 1
▁Fir 1
aldem 1
вното 1
▁kriza 1
▁nedáv 1
колкото 1
▁baseret 1
▁egyenlő 1
▁kumppanu 1
▁rezultate 1
ably 1
anii 1
schre 1
▁ajak 1
▁seno 1
▁Kampf 1
▁letech 1
▁punktu 1
▁sensib 1
▁dzisiaj 1
▁интерес 1
▁optreden 1
▁определени 1
▁wirtschaftliche 1
emor 1
ymin 1
дава 1
▁Mas 1
▁boa 1
▁nær 1
▁ras 1
▁нами 1
owanej 1
▁Estou 1
▁előny 1
▁liiga 1
▁tekit 1
haltung 1
▁Steuer 1
▁gobern 1
▁odstran 1
▁komisarzu 1
▁versterken 1
ON 1
mun 1
▁csú 1
▁costs 1
▁exces 1
▁ismer 1
▁kterým 1
▁bistand 1
▁станови 1
▁acesteia 1
▁követően 1
▁společně 1
žar 1
жде 1
▁Ха 1
iona 1
итай 1
▁aţi 1
nostjo 1
▁halad 1
▁онези 1
▁elkötel 1
▁kulture 1
▁respald 1
▁grundleg 1
▁nopeasti 1
▁přístupu 1
▁verantwort 1
▁lhe 1
idados 1
▁ponad 1
innäkin 1
▁verlen 1
▁bidrage 1
▁konkrete 1
▁recomenda 1
▁Estrategia 1
▁realizacji 1
▁desenvolver 1
▁Verbesserung 1
▁democratische 1
žel 1
esül 1
▁ham 1
▁crea 1
▁neut 1
▁pill 1
▁impegn 1
▁jądrow 1
▁dialogue 1
▁rezoluţie 1
▁concerning 1
▁vri 1
▁vyn 1
▁kaal 1
▁vhod 1
▁johon 1
▁kulttu 1
▁suunta 1
▁svolto 1
▁został 1
▁prezydencji 1
avy 1
ezik 1
šlen 1
▁Zust 1
▁gior 1
▁szom 1
▁trgu 1
▁Egipt 1
▁Sudan 1
▁joint 1
▁rette 1
▁hurtig 1
▁здраве 1
▁henkilö 1
▁második 1
▁retfærd 1
▁esprimere 1
▁използват 1
▁princípios 1
▁legislazione 1
▁rak 1
ający 1
razio 1
▁přev 1
▁tímto 1
unnassa 1
тоспособ 1
▁significativo 1
ię 1
eko 1
itega 1
nicas 1
▁aiem 1
▁kärs 1
▁letu 1
▁näid 1
▁speł 1
▁involv 1
▁motive 1
▁możliwe 1
▁turismo 1
▁positiiv 1
▁systemat 1
▁finančnih 1
▁podporovat 1
▁възможности 1
▁posibilitatea 1
▁rahvusvahelise 1
▁ds 1
cchi 1
▁Nad 1
▁East 1
▁møde 1
▁územ 1
wiając 1
▁közel 1
▁ricev 1
▁Myslím 1
▁início 1
▁konečně 1
▁svobody 1
▁budoucnosti 1
▁energetické 1
▁36 1
jším 1
šker 1
▁New 1
▁chw 1
▁dúv 1
özben 1
▁ника 1
▁család 1
▁tilaisu 1
▁zostało 1
▁internacionales 1
zij 1
▁Ris 1
ehmen 1
▁Asyl 1
▁jälg 1
▁paqu 1
deligt 1
▁Należy 1
▁actually 1
▁razprave 1
▁bijdragen 1
▁tõepoolest 1
ška 1
intä 1
▁aso 1
▁óta 1
ineet 1
ujący 1
▁pala 1
▁ruch 1
▁обща 1
▁obţin 1
▁tygod 1
▁velké 1
▁Übere 1
▁często 1
▁veelgi 1
▁njihovo 1
▁päätöks 1
▁recunoa 1
▁Sy 1
arne 1
▁Kont 1
▁egym 1
▁стро 1
▁liian 1
▁Bosnia 1
▁Venezu 1
▁obravn 1
amisessa 1
elsweise 1
▁kõikide 1
▁weniger 1
▁programmes 1
▁emendamenti 1
▁transparency 1
▁възстановяване 1
rire 1
czych 1
emmin 1
orren 1
▁ciągu 1
▁eurot 1
▁netop 1
▁údajů 1
▁vuotta 1
öglichen 1
▁Beitrag 1
▁comunità 1
▁illetően 1
▁konkreets 1
▁yritysten 1
▁financieros 1
▁absolutamente 1
ivl 1
▁tű 1
▁ske 1
▁alkot 1
▁voljo 1
▁sokkal 1
▁ustrezno 1
▁investment 1
▁átláthatóság 1
▁FN 1
ájem 1
▁olv 1
▁öeld 1
▁kvůli 1
▁fellép 1
▁proper 1
▁Tenemos 1
▁bestaan 1
▁capacità 1
▁desempeñ 1
▁politykę 1
▁terorism 1
▁violence 1
▁fejlesztési 1
▁разискването 1
▁créd 1
▁gast 1
▁labour 1
▁levens 1
keresked 1
▁restric 1
▁ustanow 1
▁několika 1
▁Så 1
giare 1
iting 1
▁Opel 1
▁elke 1
▁stabile 1
▁разходи 1
▁klimaænd 1
▁automobil 1
▁jätkusuut 1
▁partenariato 1
▁Angelegenheit 1
▁Ş 1
raph 1
ything 1
▁Malta 1
▁banan 1
▁buena 1
▁drugimi 1
▁største 1
▁adozione 1
▁demonstra 1
kům 1
▁Sri 1
▁ÜRO 1
ension 1
▁minun 1
▁toime 1
▁откри 1
▁sprawę 1
▁forvalt 1
▁interrog 1
▁internacionais 1
zess 1
▁21. 1
▁els 1
siasi 1
▁após 1
▁člán 1
▁należ 1
egovina 1
▁illegal 1
▁potenti 1
▁източни 1
▁probléma 1
▁powiedział 1
pot 1
▁își 1
isena 1
▁skon 1
▁tari 1
▁ulko 1
▁norma 1
▁încep 1
ásokkal 1
▁amplia 1
▁effett 1
▁gevaar 1
▁instrumente 1
▁mög 1
▁Prim 1
▁пари 1
▁maakt 1
▁meios 1
▁Minden 1
▁služeb 1
▁onderzo 1
▁малките 1
▁projekty 1
▁Dienstleist 1
▁erforderlich 1
▁märkimisväär 1
▁Douf 1
▁Lood 1
▁téma 1
▁соци 1
ission 1
▁Russland 1
▁enmiendas 1
▁responsible 1
ciaż 1
ierz 1
ityks 1
lerne 1
▁Doha 1
▁usta 1
▁жерт 1
▁Drugi 1
▁Svetu 1
▁divent 1
▁povsem 1
▁teatud 1
▁компро 1
▁hallinn 1
▁zaščito 1
▁jelentőség 1
▁Parlamentem 1
cům 1
▁Raz 1
малко 1
▁pelk 1
▁ryzy 1
▁hónap 1
▁ersten 1
▁quelle 1
▁concorr 1
▁giustizia 1
▁votazione 1
▁principale 1
▁röv 1
▁zdi 1
ukoko 1
▁Kesk 1
▁højt 1
▁indi 1
▁růstu 1
industrie 1
verfahren 1
▁pyritään 1
▁продължи 1
▁extremely 1
▁Transparenz 1
aki 1
ecer 1
▁sfr 1
▁avan 1
▁sõna 1
▁týče 1
▁found 1
▁desafios 1
▁koordina 1
▁територи 1
▁Ди 1
culo 1
opuh 1
▁Mot 1
▁hig 1
▁epid 1
▁föld 1
▁giud 1
▁gyak 1
▁halv 1
грация 1
▁ismét 1
▁ramme 1
▁zachę 1
▁pedido 1
▁küsimuses 1
▁unterstütze 1
тата 1
▁čem 1
▁confi 1
рландия 1
▁punten 1
▁povertà 1
▁perioadă 1
▁Parlamentben 1
▁ellu 1
▁dzisiej 1
▁fornire 1
▁nächsten 1
▁challenges 1
▁talousarvi 1
▁integrazione 1
vald 1
▁regret 1
▁vastuvõ 1
▁dosažení 1
▁javasolt 1
▁waardoor 1
▁közösségi 1
▁Tratatului 1
istet 1
▁oświad 1
▁erreicht 1
▁podpořit 1
▁usklajev 1
▁kuningask 1
▁politične 1
▁rafforzare 1
erto 1
▁Ele 1
▁lyk 1
▁vrh 1
▁megb 1
ítésére 1
шението 1
▁months 1
▁sikker 1
urtroppo 1
▁fattigd 1
▁package 1
▁necesară 1
▁wspólnot 1
▁zahraniční 1
enem 1
▁Eng 1
▁Rei 1
▁rif 1
unkra 1
▁hjem 1
▁püüd 1
▁határ 1
▁regij 1
▁samal 1
▁státu 1
▁impuls 1
▁noştri 1
▁dezelfde 1
fortunately 1
▁europejskie 1
▁võimalikult 1
тър 1
ajia 1
ffiz 1
geke 1
▁adat 1
▁rozm 1
▁Court 1
▁sukup 1
▁Ülemk 1
▁специ 1
▁beting 1
▁bureau 1
▁ferrovi 1
▁ME 1
▁verh 1
▁pokoj 1
▁бързо 1
▁käyttä 1
▁silmas 1
▁общата 1
▁vigoare 1
▁činnost 1
▁rozprava 1
▁Repubblica 1
emeen 1
▁past 1
▁Сега 1
▁заси 1
jelent 1
▁helyi 1
▁napir 1
▁compla 1
▁kaitsta 1
▁ofrecer 1
▁Desidero 1
▁Griechen 1
▁Bovendien 1
sért 1
▁Jer 1
▁Rob 1
▁ago 1
▁uaf 1
▁ими 1
▁gradu 1
▁sedaj 1
▁doufám 1
▁handelt 1
▁matkust 1
▁rozszer 1
▁väljend 1
▁politiek 1
▁pacchetto 1
▁demokrácia 1
AP 1
ywa 1
ardi 1
gend 1
▁věd 1
imata 1
▁esos 1
редица 1
▁убежи 1
▁comiss 1
▁hadden 1
▁betragt 1
▁trovare 1
▁mientras 1
▁pravidla 1
▁protocol 1
▁financiero 1
▁Finanzierung 1
ece 1
новя 1
▁corr 1
▁mesi 1
▁wyja 1
▁îndo 1
▁încred 1
▁comerciale 1
▁финансовите 1
elun 1
▁pir 1
▁Също 1
▁riesgo 1
▁asiasta 1
▁poverty 1
▁президен 1
▁biztonsági 1
nieć 1
глед 1
▁mant 1
▁Norte 1
konomis 1
▁Cather 1
▁bereikt 1
▁dificil 1
▁включва 1
▁palavras 1
▁decisioni 1
▁essentieel 1
anka 1
▁150 1
chien 1
едине 1
▁Ezek 1
▁volk 1
hesión 1
▁wymag 1
чевидно 1
▁Terror 1
▁Bürgern 1
▁naszego 1
▁grootste 1
▁Głosowałem 1
▁huolimatta 1
▁приветствам 1
▁relacionadas 1
gez 1
óre 1
люч 1
rite 1
▁níž 1
külön 1
▁zalo 1
▁kokon 1
▁orgánů 1
▁prática 1
▁amendament 1
äd 1
löm 1
lata 1
▁gol 1
▁zust 1
▁takia 1
▁Quando 1
▁grandi 1
▁zeměmi 1
▁corespun 1
▁egyértelműen 1
âm 1
šak 1
ruppen 1
▁Coton 1
▁pakiet 1
elleicht 1
▁indvand 1
▁välttäm 1
▁sektorju 1
▁strinjam 1
▁финансови 1
▁instrumenten 1
▁kompromisszum 1
cute 1
ywat 1
▁Fuk 1
▁мла 1
▁sõlm 1
▁täyt 1
▁нова 1
▁Kraft 1
▁podjąć 1
▁cheltui 1
▁culture 1
▁kataszt 1
▁parties 1
▁prospěch 1
▁Catherine 1
▁production 1
▁солидарност 1
csi 1
▁Vis 1
alific 1
▁april 1
▁omawi 1
▁terzi 1
▁selvää 1
▁slachto 1
▁Mercosur 1
▁igualdad 1
▁indústria 1
▁mechanizmus 1
▁tatsächlich 1
ozen 1
rzyma 1
sstat 1
▁byrok 1
▁väkiv 1
▁úlohu 1
▁Tunisia 1
▁deveria 1
▁naprosto 1
▁relation 1
▁ulkopuol 1
▁elementos 1
▁præsident 1
▁instruments 1
egli 1
тери 1
▁ena 1
▁vog 1
andal 1
uição 1
▁pakt 1
övezet 1
▁dimin 1
▁euroa 1
▁uuend 1
▁review 1
▁rozwij 1
▁bestemt 1
▁parandada 1
▁voorwaarden 1
nią 1
oral 1
кото 1
▁eel 1
dades 1
▁depl 1
▁dosta 1
▁mulţi 1
▁tenido 1
▁гледна 1
▁informací 1
▁kontrolli 1
▁interesser 1
▁regionální 1
nicy 1
oner 1
stuk 1
zkod 1
▁gee 1
zlich 1
▁адми 1
estaan 1
▁dossi 1
▁ontwer 1
▁raccom 1
▁ainoastaan 1
▁стратегията 1
▁Investitionen 1
▁Sem 1
bblici 1
ellään 1
▁Podle 1
▁piiri 1
▁soort 1
▁wciąż 1
owaliśmy 1
ellisesti 1
▁wsparcie 1
▁wyraźnie 1
▁suurendada 1
äät 1
пят 1
ærks 1
▁Ide 1
▁pyy 1
▁appl 1
▁rich 1
iliste 1
ítését 1
▁teryt 1
▁lasten 1
▁domanda 1
▁partidos 1
▁pubblici 1
▁terveyden 1
zii 1
dist 1
rzeb 1
ляне 1
▁bied 1
▁smer 1
▁неот 1
ymistä 1
▁opfatt 1
▁subven 1
abilidad 1
▁korzyści 1
▁prendere 1
▁normativa 1
▁finansowego 1
▁necesitatea 1
uia 1
ajan 1
ügen 1
ństw 1
▁You 1
ences 1
rados 1
▁Port 1
▁milie 1
▁obtíž 1
▁Folgen 1
▁podpre 1
▁Affairs 1
▁alimentar 1
▁available 1
▁bestaande 1
▁oikeuksia 1
will 1
▁nag 1
▁Avem 1
▁Manu 1
▁venit 1
üsteemi 1
▁iværks 1
▁prezyd 1
▁respeit 1
▁Hlasoval 1
▁consiste 1
▁trenutno 1
▁Ausschusses 1
▁kansalaiset 1
ekte 1
less 1
poko 1
ördin 1
▁mate 1
▁stoj 1
▁darum 1
▁devido 1
▁opinii 1
▁pragnę 1
▁tilgang 1
uippukoko 1
▁Kohäsion 1
▁Mediterrane 1
▁odgovornost 1
▁procedimientos 1
ñana 1
▁Pow 1
emmel 1
jakoh 1
nejši 1
циони 1
▁vide 1
ffizienz 1
▁různých 1
▁vytvořit 1
▁decisions 1
kuš 1
bliž 1
iben 1
mark 1
▁akár 1
▁семе 1
▁quant 1
▁tahan 1
▁kedvez 1
▁superv 1
▁maanden 1
▁minőség 1
▁napredek 1
▁politiki 1
▁warunków 1
▁Képviselő 1
▁betroffen 1
▁principales 1
țial 1
▁Græ 1
▁Tryb 1
▁sünd 1
▁virt 1
wiesen 1
▁roman 1
handels 1
▁pravidel 1
▁sektorze 1
▁tippkoht 1
▁transmit 1
▁såd 1
▁мог 1
▁bajo 1
▁gele 1
rieren 1
▁scurt 1
▁chceme 1
▁fiatal 1
▁electric 1
▁obchodní 1
▁transpord 1
▁innovazione 1
ímž 1
▁85 1
▁250 1
isimme 1
▁somos 1
▁meglio 1
oliitika 1
▁pleased 1
▁pequenas 1
▁igualdade 1
▁proračuna 1
▁szegénység 1
нет 1
▁ща 1
arach 1
▁vijf 1
istele 1
linien 1
▁actuar 1
▁organi 1
▁põhjust 1
▁přesvědč 1
geg 1
iam 1
amatu 1
tager 1
érios 1
пуска 1
▁rekl 1
imeira 1
isistä 1
▁Biztos 1
▁Vaikka 1
▁ограни 1
▁показа 1
▁America 1
▁raamist 1
▁momenteel 1
▁Grækenland 1
andi 1
raeli 1
szech 1
▁alus 1
▁bord 1
▁lack 1
▁manc 1
▁Rights 1
▁nutzen 1
▁kysymys 1
▁nástroje 1
▁стопанство 1
▁conseguenze 1
▁сигурността 1
▁финансовата 1
▁relacionados 1
▁investeringen 1
бера 1
▁kís 1
▁rob 1
▁enää 1
▁teeb 1
nyiben 1
▁extre 1
▁oktat 1
▁otrok 1
▁needed 1
▁pacote 1
▁proved 1
▁effektive 1
▁vähendada 1
▁predsednika 1
ættes 1
▁Brok 1
▁příp 1
indern 1
▁cases 1
▁ellát 1
▁мнози 1
▁Económ 1
▁aproba 1
▁finanț 1
▁започна 1
▁ongelmia 1
▁Anwendung 1
▁vaikuttaa 1
▁подкрепям 1
▁publicznych 1
▁Ph 1
nali 1
nień 1
▁Tri 1
▁fat 1
lagan 1
álním 1
teremt 1
▁livre 1
▁Mediterr 1
▁emissions 1
▁consequências 1
tött 1
▁Upam 1
▁kasu 1
▁suurt 1
▁excess 1
▁prosaz 1
▁komende 1
▁zahteva 1
▁funduszy 1
▁moeilijk 1
▁wprowadz 1
▁progressos 1
zept 1
ztet 1
▁PIB 1
▁hus 1
iller 1
otaan 1
▁oferi 1
▁offen 1
▁ciljev 1
▁teljesen 1
▁climatico 1
▁integración 1
udel 1
▁načr 1
▁sisä 1
zeniem 1
▁execu 1
ktionen 1
ydelser 1
▁Polonia 1
▁reducción 1
▁partnerskab 1
ermen 1
▁cies 1
▁imeti 1
▁penge 1
▁tasav 1
amisest 1
▁defici 1
▁hatóságok 1
▁прилагане 1
▁vertrouwen 1
▁consecuencias 1
oba 1
стен 1
▁isk 1
▁tæt 1
▁Camp 1
▁tort 1
▁зася 1
ykseen 1
▁tarde 1
▁zdrowia 1
▁necesita 1
▁agrícolas 1
▁produkter 1
▁състояние 1
▁партньорство 1
daad 1
▁Saj 1
▁rääg 1
▁tiuk 1
▁думи 1
▁násilí 1
▁puntos 1
▁hyväksyt 1
▁Programme 1
▁extraordin 1
drü 1
poc 1
éke 1
ându 1
▁čel 1
стват 1
▁abol 1
▁наде 1
▁Servi 1
schluss 1
▁exista 1
▁občané 1
▁сметка 1
▁Vertreter 1
▁mogelijke 1
▁personale 1
▁evaluación 1
▁integração 1
▁einschließlich 1
roku 1
átor 1
▁raj 1
публи 1
▁množ 1
▁Ahora 1
▁изгра 1
▁occorre 1
▁tervisho 1
▁territorio 1
kozy 1
▁Praw 1
▁folg 1
▁väest 1
skrymin 1
▁refugi 1
▁tomuto 1
▁verein 1
▁заседа 1
▁alueella 1
▁asigurăm 1
▁lehetséges 1
▁zakonodaje 1
key 1
kos 1
nehm 1
▁dro 1
▁obě 1
лията 1
▁pean 1
▁focus 1
▁sfide 1
▁tanul 1
▁Trybuna 1
▁vengono 1
▁efficienza 1
▁beispielsweise 1
rón 1
▁34 1
▁Mik 1
▁mån 1
rania 1
usoike 1
▁ajuta 1
▁serio 1
▁bancos 1
▁vešker 1
▁először 1
▁rozvoje 1
▁agricole 1
▁situaţie 1
▁violenza 1
lač 1
imal 1
ália 1
łoby 1
▁Nyt 1
▁jok 1
▁arab 1
▁gazd 1
▁obie 1
▁prit 1
▁dogod 1
▁erfül 1
▁blijft 1
▁nezakon 1
▁przekaz 1
▁rodzaju 1
▁contempo 1
▁raportöö 1
▁директива 1
▁posledních 1
▁estabilidad 1
▁täytäntöönpan 1
urf 1
ван 1
▁zna 1
onnen 1
довол 1
▁povo 1
▁znajd 1
▁destru 1
▁parole 1
▁unanim 1
▁asjakoh 1
▁vzhledem 1
▁concorren 1
▁economici 1
▁specifice 1
▁principles 1
ОН 1
▁Ts 1
▁bł 1
klád 1
wege 1
sprin 1
ítási 1
itvijo 1
osição 1
▁cadru 1
inistro 1
yksessä 1
▁felügy 1
▁tartom 1
▁мнение 1
▁podpora 1
▁horizont 1
▁kaikille 1
▁evenwicht 1
▁investeering 1
kan 1
ото 1
▁Řec 1
▁azyl 1
▁altra 1
▁részv 1
estruct 1
▁istung 1
▁Gruppen 1
▁Verkehr 1
▁widzenia 1
▁elfogadott 1
AE 1
▁EM 1
▁mű 1
▁kup 1
поста 1
deauna 1
stehen 1
umisel 1
▁desfăş 1
▁kohdist 1
▁odločit 1
▁głosowania 1
▁overeenstemming 1
kezet 1
▁znak 1
▁crime 1
▁risico 1
▁sprawy 1
▁benyújt 1
▁elkövet 1
▁ustedes 1
▁človekove 1
▁energetică 1
▁IMF 1
czego 1
ijden 1
▁egne 1
▁niti 1
▁Small 1
▁jeder 1
▁monia 1
▁quero 1
▁zapoj 1
▁riguardo 1
way 1
▁Fel 1
▁acht 1
▁elen 1
▁prek 1
ellung 1
▁appre 1
▁feder 1
▁opret 1
erimine 1
▁toivon 1
maßnahmen 1
▁Goldstone 1
▁informáci 1
▁отношения 1
▁internation 1
▁fundamentele 1
yne 1
бал 1
evan 1
▁20. 1
getto 1
▁krep 1
▁cerin 1
▁forum 1
▁nebud 1
▁oferă 1
▁react 1
▁suhta 1
▁arrest 1
▁beoord 1
▁exercí 1
▁zodpov 1
▁проекти 1
▁terrorism 1
▁valtioiden 1
řila 1
▁ehr 1
▁Kannat 1
▁atribu 1
▁sfrutt 1
▁suunas 1
▁promote 1
▁eleições 1
▁duidelijke 1
▁Ca 1
resì 1
esten 1
▁lény 1
▁times 1
▁tulen 1
▁Nagyon 1
▁udtryk 1
▁noodzaak 1
▁Verfügung 1
▁Véleményem 1
▁documentos 1
anego 1
okset 1
redit 1
istaan 1
▁Grupul 1
▁rendsz 1
▁altresì 1
▁distint 1
▁dostępu 1
▁regarding 1
▁talouskri 1
▁стабилност 1
yjä 1
ász 1
▁low 1
▁olid 1
▁võid 1
▁wątp 1
▁ключ 1
▁sploš 1
▁vnější 1
▁dotyczącego 1
▁riferimento 1
ву 1
▁ло 1
▁яд 1
pais 1
viso 1
baren 1
innin 1
parte 1
▁proč 1
ährung 1
▁Estas 1
▁fácil 1
▁része 1
▁drugim 1
▁poderá 1
▁przegl 1
▁stellt 1
amentais 1
ekerheid 1
▁acţiune 1
▁přistěh 1
▁ottenere 1
▁конкретни 1
▁biztosítása 1
jog 1
erium 1
mutat 1
álkoz 1
нистра 1
▁Japon 1
▁korup 1
▁tuott 1
структу 1
▁disast 1
▁innová 1
▁jednoz 1
▁Washing 1
▁budoucí 1
▁constat 1
▁właściw 1
▁niezwykle 1
▁beschermen 1
▁difficoltà 1
▁amendementen 1
lhe 1
szą 1
▁Sit 1
▁ръко 1
▁origem 1
▁освобо 1
▁influen 1
strumente 1
odos 1
▁CIT 1
▁Kap 1
▁Lóp 1
▁spi 1
▁kart 1
▁sami 1
▁liidu 1
▁convert 1
▁desigur 1
▁stopniu 1
▁Concordo 1
▁Naciones 1
▁Reinfeld 1
▁Richtung 1
▁senhores 1
▁krajowych 1
▁инструменти 1
▁Zu 1
asno 1
pril 1
vate 1
▁dup 1
deles 1
kerül 1
light 1
eraard 1
indung 1
▁emlék 1
▁multă 1
▁težav 1
▁želel 1
aseadus 1
▁Staten 1
▁Tajani 1
▁Georgia 1
▁powinno 1
▁emissões 1
▁personer 1
▁Общността 1
uze 1
ęzy 1
▁пак 1
evaard 1
▁CITES 1
▁prywat 1
ătorilor 1
▁Ressour 1
▁education 1
▁industrial 1
▁učinkovito 1
▁követelmény 1
▁bestemmelser 1
pte 1
urn 1
ман 1
▁Así 1
▁něm 1
ettek 1
▁pari 1
▁семей 1
▁edellyt 1
▁fuldstænd 1
▁compromise 1
▁governação 1
ER 1
uus 1
aväl 1
▁Мно 1
ovalo 1
▁carb 1
▁uitg 1
▁latach 1
▁produto 1
▁szerepl 1
▁základních 1
▁bestrijding 1
ilm 1
inu 1
▁Hol 1
▁îmi 1
czania 1
▁kulut 1
▁voisi 1
▁tredjel 1
▁kidolgoz 1
▁maahanmu 1
▁restrict 1
▁inversión 1
▁istruzione 1
overeenkomst 1
▁comunitaria 1
kum 1
seh 1
asad 1
kung 1
ettem 1
▁mina 1
eltava 1
▁zapom 1
▁Sektor 1
▁laatim 1
▁adecvat 1
▁coördin 1
▁praksis 1
▁támogatom 1
▁vállalkoz 1
evit 1
▁cup 1
ätzen 1
▁Balt 1
▁Chin 1
▁Fakt 1
▁obaw 1
zących 1
▁Lõpet 1
erimist 1
gestellt 1
▁markets 1
▁poparcie 1
▁Sicherheits 1
▁finanziamento 1
▁Ня 1
▁Са 1
irati 1
ljive 1
▁lévő 1
▁uzna 1
ahrung 1
овател 1
▁South 1
▁kinnit 1
▁gerecht 1
▁životní 1
▁capacidade 1
▁Aut 1
прост 1
afhank 1
▁Armut 1
▁haszn 1
▁hatása 1
▁katero 1
▁Sarkozy 1
▁alkuper 1
▁enterpr 1
▁motivos 1
▁докладът 1
▁revisione 1
▁terceiros 1
▁създаване 1
▁Initiative 1
▁demokracie 1
▁forhandlingerne 1
▁46 1
iers 1
imaa 1
inar 1
вяме 1
▁jov 1
▁kuni 1
▁мога 1
Presid 1
gettet 1
▁banen 1
▁delic 1
▁passi 1
▁mañana 1
▁bambini 1
▁pergunta 1
▁potrebno 1
▁piirkonna 1
▁stabilności 1
iski 1
edige 1
▁utas 1
chtung 1
▁tavoin 1
▁several 1
▁adhesión 1
▁elezioni 1
▁majanduskas 1
bán 1
▁Én 1
▁püh 1
▁Ford 1
▁zaup 1
▁широ 1
▁jasné 1
▁rigor 1
▁secret 1
▁upozor 1
▁východ 1
strategien 1
▁käsittely 1
▁presentata 1
▁Yhdysvaltojen 1
нес 1
▁öt 1
eneh 1
ijat 1
▁käy 1
▁lze 1
ützen 1
▁With 1
▁enda 1
▁prejš 1
▁szánd 1
▁előrel 1
▁докато 1
▁etenkin 1
▁Kompromiss 1
▁bekæmpelse 1
▁Griekenland 1
▁particolarmente 1
óch 1
adze 1
ován 1
▁Mez 1
evate 1
contro 1
ekakor 1
lemise 1
▁acções 1
▁podpory 1
▁successo 1
▁emisiones 1
▁potrošnikov 1
-00 1
entw 1
▁Obec 1
▁ende 1
▁megf 1
enteen 1
▁eszkö 1
▁parann 1
▁infatti 1
▁miljoona 1
▁revisión 1
▁termékek 1
▁toimunud 1
▁exercício 1
▁keretében 1
▁veřejných 1
▁integratie 1
▁инициатива 1
лиз 1
elop 1
ръща 1
▁mle 1
▁pôr 1
orras 1
ziali 1
▁Empf 1
▁nami 1
▁víct 1
▁döntés 1
▁Ausdruck 1
▁adoption 1
▁tradition 1
▁päätöslauselman 1
ahem 1
egne 1
atson 1
▁теро 1
▁essas 1
▁združ 1
▁двете 1
публика 1
▁Ukrain 1
▁solche 1
▁zusätz 1
▁Oriente 1
▁asigure 1
▁noudatt 1
▁veřejné 1
▁Preşedin 1
▁enmienda 1
▁всъщност 1
▁cercetare 1
žal 1
ynde 1
▁Fer 1
▁ува 1
avlja 1
ismin 1
▁față 1
▁sexu 1
▁vyře 1
nictví 1
▁actos 1
▁morda 1
▁zahrn 1
▁Dieser 1
▁ningún 1
▁ostate 1
olgáltat 1
▁foreslå 1
▁trakcie 1
▁uafhæng 1
▁храните 1
▁arbeiten 1
▁überzeug 1
▁администра 1
igy 1
еми 1
▁ök 1
▁оби 1
působ 1
▁Prop 1
▁virov 1
▁absolu 1
▁byłoby 1
▁selvästi 1
▁vuoropuh 1
▁îngrijor 1
▁attualmente 1
▁Следователно 1
▁Ao 1
łego 1
▁10. 1
▁Гър 1
irekt 1
▁Rück 1
▁złoż 1
essaan 1
▁jõust 1
▁menek 1
▁poleg 1
▁handic 1
▁asuntos 1
říme 1
▁tám 1
▁ENSZ 1
▁dise 1
▁rady 1
ultura 1
▁sugli 1
▁többi 1
owanego 1
▁degenen 1
▁felelős 1
▁országokban 1
▁zdecydowanie 1
éně 1
żyw 1
kách 1
▁Råd 1
▁cob 1
▁Пър 1
▁języ 1
▁oceny 1
▁tudom 1
▁signal 1
richtung 1
▁razvoja 1
▁общество 1
▁практика 1
▁comunicación 1
tuk 1
rica 1
exist 1
iczne 1
ommal 1
▁asoci 1
▁denar 1
▁marzo 1
▁peace 1
▁Atlant 1
▁former 1
▁mulțum 1
▁säännö 1
▁Гърция 1
programma 1
▁Baroness 1
▁außerdem 1
▁Gesellschaft 1
azon 1
rosi 1
škega 1
▁kény 1
тиране 1
▁krite 1
▁quick 1
▁aproape 1
▁concept 1
▁причини 1
▁разгледа 1
▁stosowania 1
ána 1
uszu 1
▁ubó 1
cjach 1
ukogu 1
▁järj 1
▁pika 1
▁conce 1
▁nukle 1
▁puutt 1
▁Greece 1
▁forstå 1
▁стъпка 1
▁Política 1
▁problemu 1
▁reconstru 1
▁докладчик 1
▁comerciais 1
▁compromesso 1
ană 1
jön 1
fogó 1
nicos 1
urten 1
▁Ture 1
▁opět 1
▁поле 1
andust 1
▁spolu 1
▁säänn 1
▁työsk 1
▁civili 1
▁koncep 1
▁asjaolu 1
▁гласува 1
▁medioambi 1
▁innovación 1
▁rapporteurs 1
▁Landwirtschaft 1
vari 1
▁pay 1
rkiet 1
▁zajm 1
adoras 1
▁reducerea 1
▁Gy 1
ardo 1
▁Feh 1
allet 1
gelse 1
▁Wszy 1
▁Irlan 1
▁anerk 1
▁deixar 1
▁kehitt 1
▁supraveg 1
▁дългосро 1
▁transparente 1
cst 1
yky 1
▁2. 1
▁ase 1
nungs 1
onces 1
▁ikka 1
▁očit 1
estrut 1
derheid 1
▁udenrig 1
▁ihmisoikeuksien 1
мъ 1
▁Ba 1
▁laps 1
▁põhi 1
▁avuto 1
▁medium 1
▁seinen 1
▁vaihto 1
▁извест 1
▁signora 1
niejszych 1
▁mellemst 1
▁przestęp 1
▁bæredygtig 1
▁certamente 1
▁związanych 1
uși 1
via 1
ääl 1
bron 1
▁риба 1
▁dwóch 1
▁hotăr 1
▁verhe 1
▁borger 1
▁tilsyn 1
▁довери 1
▁revisão 1
▁осигури 1
▁miniszter 1
▁sø 1
emel 1
▁Sus 1
▁kau 1
igers 1
owały 1
▁forme 1
▁Tyrkiet 1
▁bestuur 1
▁enthalten 1
áró 1
▁43 1
leet 1
▁lit 1
▁banc 1
▁näht 1
▁rinn 1
▁Justi 1
▁firme 1
▁siset 1
weitens 1
omaisten 1
▁bugetul 1
▁deshalb 1
▁identif 1
▁endiselt 1
▁tegevusk 1
▁introduce 1
▁liittyvät 1
▁članicami 1
▁chiaramente 1
▁activiteiten 1
ynd 1
bres 1
▁taak 1
ørelse 1
▁siger 1
unehmen 1
▁Jahres 1
▁libera 1
▁soglas 1
▁Turquia 1
▁aikaväl 1
▁ninguna 1
▁favorevole 1
▁kommissæren 1
▁директивата 1
▁estabilidade 1
inţ 1
▁Ed 1
orul 1
▁flu 1
▁bred 1
▁carne 1
▁obsto 1
▁Grécia 1
▁sempli 1
▁meeting 1
▁toetust 1
▁salientar 1
▁uitvoering 1
▁obiectivele 1
▁transparantie 1
isas 1
▁věn 1
europ 1
▁Last 1
▁dort 1
▁jaką 1
▁młod 1
работи 1
▁zaháj 1
▁natura 1
▁Turquía 1
▁eksport 1
▁naléhav 1
▁lidstaat 1
▁reciproc 1
▁principais 1
зу 1
ryd 1
róż 1
▁Já 1
ično 1
▁voj 1
▁ООН 1
istão 1
ември 1
стите 1
▁aloc 1
▁keep 1
▁egyéb 1
▁ellent 1
▁fabric 1
▁затова 1
▁vertice 1
ztársaság 1
▁Personen 1
▁kohéziós 1
▁tietenkin 1
▁eredmények 1
▁inicjatywy 1
▁Gesundheits 1
▁mahdollisuus 1
▁пъ 1
rată 1
▁bio 1
▁ези 1
inkin 1
orišč 1
ători 1
▁seem 1
iselle 1
▁huoma 1
▁tekij 1
▁ohjelm 1
▁recogn 1
▁služby 1
▁values 1
▁Durante 1
▁Turkije 1
▁raccomand 1
▁richiesta 1
▁Mõ 1
adel 1
▁riun 1
▁wydar 1
▁emisji 1
▁Турция 1
▁deficit 1
▁Надявам 1
▁Business 1
▁milliárd 1
▁pretende 1
▁response 1
▁trabajar 1
▁confruntă 1
▁consecuencia 1
▁kansainvälisen 1
plik 1
vale 1
ukrom 1
cionais 1
▁efeitos 1
▁Consiliu 1
▁Bereichen 1
▁iniziative 1
▁democrática 1
нг 1
daje 1
▁Wit 1
▁une 1
▁glad 1
▁legj 1
alised 1
членка 1
▁wyjaś 1
ítanunk 1
▁Confer 1
▁joista 1
▁textil 1
▁težave 1
▁træffe 1
▁acordul 1
▁udvikle 1
▁убежище 1
▁pequeñas 1
▁összhang 1
▁парламента 1
▁considerazione 1
▁Zah 1
▁här 1
▁trzy 1
▁harid 1
▁jelleg 1
▁eindeut 1
▁remélem 1
▁funktion 1
▁süsteemi 1
▁използването 1
adá 1
ślę 1
álló 1
▁ilo 1
pealt 1
terer 1
ásnak 1
▁okam 1
▁2008. 1
▁Végül 1
▁nädal 1
varende 1
▁csomag 1
▁swobod 1
▁изменения 1
▁Einführung 1
ham 1
lies 1
äsen 1
otraj 1
piamo 1
▁амби 1
schaps 1
ителен 1
шаване 1
▁Artic 1
▁reeds 1
▁gruppe 1
▁съвсем 1
▁millest 1
▁numeros 1
▁pogosto 1
▁провежда 1
▁kapcsolód 1
▁omfattende 1
▁democrático 1
▁Entscheidungen 1
▁megállapodások 1
AO 1
кро 1
alni 1
▁přez 1
▁aitab 1
▁kljub 1
▁Türkei 1
▁coloro 1
▁posred 1
obiernos 1
▁Landwir 1
▁diploma 1
▁externa 1
▁creation 1
▁onafhank 1
▁transportu 1
▁odpovědnost 1
▁ofiar 1
▁presi 1
▁sprake 1
▁evropský 1
▁contextul 1
▁необходими 1
had 1
▁95 1
iser 1
▁OMC 1
▁rau 1
rover 1
▁bens 1
▁prep 1
▁inged 1
▁morte 1
▁uspos 1
▁бъдем 1
▁крите 1
▁крити 1
ffektiv 1
ragende 1
▁Doresc 1
▁compon 1
▁dienst 1
▁gebase 1
▁målsæt 1
▁akkoord 1
▁discipl 1
▁gyakran 1
▁võimalust 1
▁fællesskab 1
▁direktiivin 1
▁hö 1
▁AKP 1
ataks 1
ități 1
▁ülem 1
▁zagad 1
▁rychle 1
▁dependen 1
▁obywatele 1
▁toekomstige 1
▁обу 1
kende 1
потре 1
▁atac 1
▁uděl 1
▁kunni 1
▁vízum 1
▁малко 1
▁cselekv 1
▁foreign 1
▁soukrom 1
▁priporoč 1
▁begrotings 1
▁munkavállalók 1
LE 1
liw 1
evast 1
▁vzhod 1
▁zanim 1
ühungen 1
▁államp 1
▁küsimuse 1
▁Directive 1
▁halászati 1
▁keskkonna 1
▁Estratégia 1
ídu 1
▁näh 1
▁rug 1
strzy 1
▁First 1
▁Parte 1
▁niets 1
▁Staats 1
▁Turkey 1
▁discus 1
▁největ 1
▁alcanzar 1
▁schimbările 1
fol 1
ends 1
lass 1
heben 1
unnit 1
▁tradi 1
▁permita 1
▁miliardi 1
▁pubblica 1
▁indítvány 1
▁realidade 1
▁постигане 1
nam 1
▁tim 1
▁juni 1
aksime 1
iseren 1
▁Pogod 1
▁konec 1
▁náklad 1
▁simply 1
▁малцин 1
▁billion 1
▁provved 1
▁terecht 1
▁vittime 1
▁creştere 1
▁ogranicz 1
▁vahendite 1
▁gennemførelse 1
▁fondu 1
▁genet 1
▁állat 1
▁dispar 1
▁vítimas 1
▁palabras 1
▁adoptarea 1
▁capacidad 1
▁állampolg 1
▁регламент 1
▁Angelegenheiten 1
▁65 1
▁yl 1
prve 1
ermos 1
ostos 1
▁Conf 1
▁díky 1
▁gând 1
▁léte 1
rijden 1
▁badań 1
▁reage 1
▁meinen 1
programm 1
▁betonen 1
▁wewnętrz 1
▁zapropon 1
▁fortsætte 1
▁informaţii 1
▁muligheder 1
▁cambiamenti 1
pel 1
▁šk 1
azać 1
▁Lam 1
elmat 1
emene 1
lucht 1
reten 1
▁opro 1
Membro 1
ovatel 1
▁erinn 1
▁nemoh 1
▁Soovin 1
▁governi 1
▁äußerst 1
uspoliitika 1
▁disponibil 1
кви 1
upeł 1
▁Zag 1
▁gode 1
▁forst 1
▁undgå 1
▁aanbev 1
▁sisald 1
▁módosítás 1
▁Lõpetuseks 1
▁beschikbaar 1
.- 1
05 1
chs 1
ted 1
kkal 1
odob 1
olto 1
uaal 1
▁Aan 1
▁Grč 1
▁oka 1
atory 1
krati 1
▁podrí 1
▁závaž 1
▁costes 1
▁kryter 1
▁tiedon 1
▁устано 1
▁dokonce 1
▁accident 1
▁dificuld 1
▁electrón 1
▁gobernanza 1
▁erőfeszítés 1
IA 1
vio 1
enud 1
evoli 1
istes 1
▁Maro 1
▁kulcs 1
▁migrat 1
▁nemůže 1
▁sätest 1
▁bekæmpe 1
▁suunnit 1
▁miliarde 1
▁ebaseadus 1
▁obiective 1
▁podejście 1
▁produselor 1
▁подобряване 1
▁вя 1
řili 1
▁ear 1
▁Zdaj 1
▁odot 1
▁shod 1
ektori 1
▁nomin 1
▁analys 1
▁jiných 1
▁dolgoroč 1
▁społecznej 1
uuta 1
vira 1
ítom 1
▁tex 1
ítési 1
▁kiad 1
▁täyd 1
▁Congo 1
omisjon 1
▁nehmen 1
▁puolue 1
▁riigis 1
▁suosit 1
▁compres 1
▁membros 1
▁mettere 1
▁möchten 1
▁fremmest 1
▁усилията 1
▁efficiency 1
▁uitdagingen 1
▁territoriale 1
IC 1
▁Nev 1
▁Alto 1
▁vost 1
▁Libia 1
▁sufer 1
▁rakent 1
▁Darüber 1
▁Derecho 1
▁diversific 1
▁maggioranza 1
anha 1
▁Ház 1
adora 1
arden 1
▁konf 1
nocení 1
ästään 1
▁Niger 1
▁bruge 1
▁curând 1
▁absoluut 1
▁destacar 1
▁ernstige 1
▁Evropskem 1
▁prihodnje 1
▁Washington 1
▁terrorisme 1
üng 1
atav 1
izen 1
▁hac 1
treten 1
▁vitát 1
▁Ungarn 1
▁lidská 1
▁pueblo 1
▁soused 1
▁zločin 1
▁jejichž 1
▁käsitel 1
örögország 1
▁innovatie 1
▁eficiência 1
▁neuvottelu 1
▁persoanelor 1
▁kansalaisille 1
kiä 1
tuu 1
▁lüh 1
▁sve 1
▁sól 1
▁appe 1
▁esqu 1
▁Haupt 1
▁leida 1
▁riusc 1
▁прево 1
▁pericol 1
▁Ergebnis 1
▁inovação 1
▁sistemul 1
▁Gesundheit 1
▁Zg 1
ablj 1
ilíb 1
oike 1
ljena 1
namen 1
nanzi 1
▁Pert 1
▁párt 1
schutz 1
▁Oleme 1
▁alarg 1
▁escol 1
▁eserc 1
▁kilku 1
▁poruš 1
▁споде 1
▁pensar 1
▁přijím 1
▁Organis 1
▁vermind 1
▁региони 1
round 1
▁ausp 1
▁doet 1
▁múlt 1
▁Всич 1
▁своя 1
▁aware 1
▁tvivl 1
▁utwor 1
hatékon 1
▁átfogó 1
▁hivatal 1
▁concluir 1
▁beslutninger 1
ekin 1
▁sof 1
astel 1
▁pidä 1
▁izkor 1
▁turvapa 1
▁udfordringer 1
ley 1
etan 1
kkel 1
valg 1
▁isol 1
▁izkl 1
▁rifi 1
▁urad 1
▁zmín 1
▁lever 1
▁odvis 1
▁Acordo 1
▁misura 1
▁nieleg 1
▁provided 1
▁Industrie 1
▁prizadevanja 1
VA 1
szę 1
uht 1
agli 1
▁Ved 1
▁zru 1
uszcz 1
▁vent 1
▁Reihe 1
▁skład 1
▁törek 1
▁koniec 1
▁istotne 1
▁guvernul 1
▁hlasovat 1
▁storitev 1
▁tjeneste 1
▁emendamento 1
▁overeenkomsten 1
utes 1
▁dneš 1
errero 1
▁došlo 1
▁точно 1
chische 1
▁Quiero 1
▁envolv 1
▁varios 1
▁Remélem 1
▁daarvan 1
▁paquete 1
▁produce 1
▁rendere 1
▁vállalkozások 1
ébe 1
øje 1
гре 1
ittu 1
jett 1
▁hag 1
▁yde 1
▁şti 1
ervat 1
ącego 1
вията 1
▁špan 1
ováním 1
▁Desde 1
▁Támog 1
▁equip 1
▁tenga 1
▁meggyő 1
▁munkan 1
▁Schluss 1
▁concuren 1
▁fattigdom 1
▁ændringer 1
▁функциони 1
▁agricoltura 1
▁täytäntöönpano 1
șt 1
osz 1
ární 1
▁Rez 1
eljes 1
ijken 1
▁kezd 1
▁bepal 1
▁reces 1
vikling 1
ностите 1
▁alcançar 1
▁richting 1
▁Copenhagen 1
▁nyilvánvaló 1
▁udviklingen 1
wyż 1
ülő 1
iente 1
orrer 1
▁rech 1
римина 1
▁López 1
▁czyli 1
▁panem 1
▁Manuel 1
▁destes 1
▁począt 1
▁töökoh 1
▁položaj 1
▁szigorú 1
▁реформи 1
▁Direitos 1
▁Pertanto 1
▁ansiosta 1
▁regioner 1
▁criterios 1
maatregelen 1
evő 1
čni 1
▁Cy 1
▁Го 1
elas 1
▁Omb 1
▁Põh 1
empel 1
▁løse 1
▁меди 1
▁проу 1
▁udgør 1
▁concep 1
▁została 1
▁другите 1
▁Dokument 1
▁beitragen 1
▁finanziarie 1
▁informações 1
▁loomulikult 1
▁jednocześnie 1
zać 1
elui 1
▁мре 1
einek 1
телен 1
▁önök 1
▁votei 1
▁cierto 1
▁Според 1
▁drugiej 1
▁związane 1
▁постигне 1
▁ovviamente 1
▁regolament 1
▁meerderheid 1
СП 1
šet 1
нди 1
▁Sc 1
гава 1
▁Turč 1
▁свят 1
▁balíč 1
▁kuigi 1
▁Seveda 1
▁erőforr 1
▁treffen 1
▁skupnosti 1
▁posibilidad 1
elee 1
ocra 1
▁Germ 1
▁köyh 1
▁muun 1
ysteme 1
▁preuč 1
▁determ 1
▁fractie 1
▁območja 1
▁spreken 1
▁egyetért 1
▁obszarach 1
pros 1
▁Ire 1
▁Mod 1
▁typ 1
▁Moim 1
▁něco 1
▁usil 1
вянето 1
▁sendo 1
atieven 1
▁susțin 1
▁totale 1
▁koheesi 1
▁rafforz 1
▁критери 1
ěz 1
ody 1
asia 1
isku 1
▁maa 1
▁püü 1
bołów 1
▁ling 1
▁poza 1
▁Infine 1
▁pobres 1
▁stwierd 1
▁procedury 1
▁szabályok 1
▁temeljnih 1
▁42 1
▁Sl 1
drag 1
itaj 1
knię 1
owań 1
▁víz 1
etele 1
▁Rech 1
▁colp 1
▁true 1
▁факт 1
▁kohtu 1
▁temas 1
▁Doufám 1
▁Selles 1
▁esigen 1
▁aftaler 1
▁săptămâ 1
▁jurídico 1
▁practice 1
▁vollständ 1
merksamkeit 1
▁resultaten 1
▁véleményem 1
▁приемането 1
bouw 1
ches 1
▁vym 1
▁mesm 1
▁haver 1
▁misma 1
▁sigue 1
▁trods 1
▁woord 1
▁young 1
▁bespre 1
▁szczeg 1
▁постоя 1
▁pravicah 1
▁gebruiken 1
▁angajament 1
amid 1
▁zmí 1
ляват 1
▁erro 1
▁elkép 1
▁působ 1
▁tenho 1
▁внесе 1
▁waarom 1
▁varstva 1
▁algemeen 1
▁ludności 1
▁institucional 1
▁Aufmerksamkeit 1
рът 1
▁Toto 1
▁závě 1
▁beroep 1
▁finanz 1
▁puitte 1
▁Ireland 1
▁okresie 1
▁reasons 1
▁recunos 1
ænkningen 1
▁algemene 1
▁lakosság 1
▁подкрепата 1
▁intervenção 1
ases 1
aven 1
ener 1
prio 1
▁Noi 1
▁forud 1
▁zaseb 1
▁fremhæ 1
▁økonom 1
▁Republic 1
▁cuidados 1
▁existuje 1
▁glasoval 1
▁proposto 1
acím 1
noch 1
osas 1
▁поч 1
niego 1
▁hyöt 1
▁sker 1
▁fuera 1
▁nevar 1
▁prova 1
▁omkost 1
▁výboru 1
▁pozivam 1
▁ragione 1
▁spodbud 1
▁Innovation 1
▁безопасност 1
▁vnitrostátní 1
▁day 1
▁odv 1
▁Regel 1
▁alarm 1
▁Există 1
▁rápida 1
usväline 1
▁måneder 1
▁similar 1
▁позволи 1
perc 1
▁Hvad 1
▁copii 1
▁mitmek 1
▁vyprac 1
▁редица 1
▁caminho 1
▁mimořád 1
▁Vzhledem 1
▁előrelép 1
▁preşedin 1
▁hospodářskou 1
rid 1
шни 1
▁stær 1
▁дава 1
ложени 1
▁legge 1
▁obstá 1
▁Много 1
▁sklada 1
speriode 1
▁omkring 1
▁revision 1
▁miljoonaa 1
▁socialist 1
▁pristojnosti 1
▁kezdeményezés 1
нят 1
▁Jun 1
▁Под 1
itime 1
▁cikk 1
▁hart 1
▁časa 1
▁apart 1
▁ausge 1
▁fisher 1
▁vajame 1
▁получи 1
▁bleiben 1
▁korrekt 1
▁legalább 1
▁esittelijä 1
▁estabelecer 1
laš 1
áne 1
ceed 1
mini 1
▁daad 1
▁miei 1
▁preţ 1
▁vara 1
▁quite 1
▁camino 1
▁enhver 1
▁kapita 1
▁Annahme 1
▁intelle 1
[...]
